#version: 0.2
Ġ d
e s
e n
Ġd e
Ġ a
e r
Ġ l
Ġ p
t a
Ġ c
a r
q u
e l
Ġ i
c i
Ġ s
a n
o n
r e
o r
Ġl a
Ġ m
a l
u n
Ġ qu
Ġ el
t i
â Ģ
Ġqu e
Ã ³
en t
Ġ t
a t
Ġ f
âĢ Ļ
Ã ©
Ġ v
Ġp er
o s
o m
i n
o l
Ġ en
Ġ n
r a
Ġ un
r i
Ã ł
Ġde l
ci Ã³
e m
i s
Ġ es
Ġ h
Ã© s
r es
i c
ta t
m b
d a
r o
Ġa l
Ã ¨
Ġ C
Ã Ń
i t
Ġl es
Ġs e
g u
i a
Ġ E
on s
i x
Ġc om
Ġ re
l a
Ġa mb
Ã ²
Ġ P
Ġel s
e c
m ent
o t
a s
qu es
Ġ A
Ġ b
u s
Ġn o
Ġi n
Ġ g
an t
Ġ L
l e
Ġc on
Ġ o
v a
Ġ S
i r
c a
Ġ M
Ġp ro
Ġun a
Ġ e
l i
a ciÃ³
Ġh a
u r
Ġc a
Ġd i
ta l
s i
Ġ Ã©s
t s
u l
t es
Ġd es
Ġv a
t u
o c
d i
Ġp ar
Ġ D
a d
o b
Ġm Ã©s
er a
Ġ (
Ġ j
t e
Ġ T
ci a
ta r
Ġ B
ta n
Ġdel s
i l
Ã §
Ġ 2
ĠE l
Ġ 1
al s
m p
Ġa n
e ix
Ã º
i tat
ic a
Ã¨ n
t er
on a
r an
o d
el l
Ġa ques
. .
Ġ R
e t
Ġs er
ci ons
u p
or m
v er
Ġt ot
Ġ F
os t
e u
Ġa c
em p
it z
Ġ G
a da
an y
i g
en s
i d
Ġe x
a c
b l
e g
u m
ti n
Ġ V
Ġ I
ri a
Ġcom p
u t
Ġ res
Ġ J
is t
ĠL a
i m
Ġl l
or s
at s
Ġm ol
Ã¨n cia
Ġre c
Ġ âĢ
a b
Â ·
Ġ2 0
Ġ N
as s
f er
Ġ r
Ġf a
d u
ti c
in s
al l
i ci
ent s
Ġc ons
Ġes p
Ã³ n
v i
Ġ ta
Ġ U
v es
ent re
Ġs i
Ġf er
ri m
b re
Ġp od
t r
Ġp re
Ġp res
an a
Ġse u
r Ãł
Ġa r
ĠC a
s s
Ġca p
an s
Ġt ra
o ci
ĠE n
Ġv i
ad es
g e
ob re
Ġh i
tan t
ar i
d e
o p
Ġen s
Ġt en
mb Ã©
t ra
y s
d es
Ġper s
ci on
Ġper Ã²
a v
ÃŃ s
Ġpar ti
or a
Ġse va
Ġp os
ĠP er
m e
ar c
Ġm at
ĠE s
Ġal s
Ġmol t
Ġ20 1
il l
o g
Ġo b
m a
âĢ Ŀ
n a
Ġa p
t res
ĠâĢ ľ
Ġp el
Ġs obre
e d
ti ca
Ġaques t
r en
es s
or t
t or
Ġn ost
p er
Ġc as
Ġd is
ti u
Ġv ol
i li
.. .
tat s
in a
e b
Ġp a
Ġc ar
j ec
c ar
p os
h a
Ġi mp
y a
Ã§ a
Ġp rim
or d
Ġm a
ta ment
un a
Ġ H
Ġj a
er s
Ġa ix
v en
i u
on es
Ġp ass
f orm
l es
e gu
Ġta mbÃ©
en ta
e x
Ã ¯
Ġp r
u b
Ġt er
g a
ci p
Ġf orm
re b
0 0
al itz
al itat
ri b
t Ãł
re c
e p
g ra
Ġh an
i Ã³
Ġm an
l ar
ro b
Ġv an
si Ã³
ci es
Ġ entre
Ġse g
Ġp u
ti va
ĠCa tal
Ġs Ã³n
v ol
or n
Ġc ol
Ġn om
Ġes c
Ġaques ta
Ġp ot
f ic
b le
v e
Ġc os
d re
qu i
Ġin ter
Ġan ys
Ġ on
qu Ã¨
t en
en er
is ta
ri s
s e
a u
Ġm ar
i ta
ĠU n
Ġc re
Ġ "
ur s
a ques
Ġp l
Ġf ins
Ġt reb
Ġc an
ti v
Ġt emp
Ġg ran
ĠEl s
p a
p r
Ã¨ s
i es
Ġre p
bl ic
u re
Ġp ol
en ti
Ġ 3
Ġper quÃ¨
le g
Ġt rob
Ãº s
Ġse gu
t re
a p
Ġd ia
a m
Ġmat eix
o ta
) .
u ra
ĠC om
Ġs oci
ti l
un ya
Ġl li
u c
Ġs ol
g un
al ment
Ġ O
Ġd on
Ġa ss
arc el
Ġf in
Ãł n
Ġs ens
a ment
in t
ĠCatal unya
ant s
E s
gu t
h i
Ġ em
tu ra
Ġ1 9
ĠA l
g es
Ġs up
Ġtot s
ĠN o
m in
pr Ã©s
Ġ gu
r at
r er
Ġqu an
es si
Ġh o
Ġc or
ar Ãł
l ic
ĠM ar
Ġ -
ĠI n
ĠA ques
Ã ¼
Ġin s
Ġca tal
Ġp or
) ,
Ġm ill
es c
Ġf et
ur ant
Ġr el
ti tu
u g
Ġ or
arcel ona
Ġtreb all
ti r
Ġn i
Ġpar t
Ã² ria
at ge
Ġa b
du c
Ġc iu
Ġ Ã
Ġse t
ÃŃ n
gu i
Ġm es
Ġv is
a i
l o
u i
em bre
Ġm en
ver s
Ġdi fer
ol a
v is
Ġsens e
f ici
un t
r up
Ġes tÃł
Ġll oc
Ġde m
g an
it j
Ġse us
Ġc al
Ġv eu
ĠB arcelona
p i
Ġaix Ã²
tiv itat
Ġes tat
em a
ic s
Ġpers ones
Ġcon c
v ia
es ti
Ġ tan
en d
ver n
Ġ Q
it u
Ġt Ã©
Ġex p
l s
Ãł ria
cion al
Ġqu Ã¨
Ġ x
Ġ ent
Ġpol ÃŃ
Ġa d
Ġpro jec
ment s
ti t
Ġd os
Ġp ob
d or
Ġcon tin
Ġal tres
r ar
in g
Ġcon tra
Ġca da
Ġ tin
el la
ĠS ant
Ġin form
Ġf e
Ġl i
Ġ X
Ġes ta
en a
en y
Ġc o
Ġar rib
Ġin c
Ġm o
Ġm e
p ar
it s
g i
Ġ us
Ġca mp
Ã² n
Ġparti cip
Ġg ener
Ġs or
re m
Ġm un
Ġa v
Ġres p
o vern
car a
en ci
er t
ti m
ĠQ u
Ġt ran
Ġa f
ri c
Ġdes prÃ©s
Ġ emp
Ġman era
Ġn ec
qui p
Ġ 4
Ġpro f
ul ar
Ġprim er
Ġtemp s
ti us
Ġde ix
qu e
re t
ta ciÃ³
u d
p any
Ġdes c
Ġp Ãº
Ġnom Ã©s
Ġ tal
Ġa qu
Ġh em
em ent
Ã¨n cies
a ix
er ra
Ġp e
Ġmill or
ĠL es
Ġv e
Ġa ra
i or
m et
a cions
ili tat
Ãł s
Ġv al
Ġ w
Ġ tant
an es
ca b
ĠD es
ĠJ o
ĠC on
Ġp o
al tres
Ġc ul
u la
Ġqu al
Ġm al
gan itz
i ciÃ³
bl es
Ġp la
Ġqu als
Ġcom en
Ġv eg
Ġd urant
âĢ ¦
Ġj o
Ġv er
ad or
re u
on i
Ġser ve
Ġal gun
ti ques
Ġs al
Ġcom un
j a
a g
ī s
Ġm itj
Ġo c
Ġpers on
j un
tic s
os a
Ġb en
Ġen cara
Ġtra c
Ġb Ã©
ar an
m en
Ġd u
Ġdi rec
at re
ĠS i
Ġd ir
u ro
Ġh ist
e ci
ri es
ta c
Ġ ra
ar d
m ÃŃ
ĠA n
ar is
Ġ 5
Ġ Â
ell s
Ġf or
d ic
h o
ver si
Ġpro c
emp re
Ġaix ÃŃ
f i
Ġ era
Ġveu re
ci d
is me
Ġde f
Ġt e
Ġvi da
Ġtran s
n es
Ġm om
ĠÃ īs
Ġac tu
Ġnost ra
Ġs in
i b
Ġt res
o ca
Ġs itu
n s
Ġpu blic
Ġg rup
Ã² m
Ġdifer ents
Ġre g
f ica
es ta
Ġqu i
s a
b or
i en
eix en
Ġc el
x a
Ġpod er
l l
Ġse ves
h an
Ġm Ã³n
ur al
an c
Ġnost re
ol og
or ia
Ġa ut
in c
em b
ol l
on t
Ġc urs
Ġno u
Ġf un
e ta
gu a
du ca
is tes
or es
Ġse c
in cip
Ġs ab
Ġs empre
Ġprim era
Ġpass at
Ġa m
l ia
Ġten ir
Ġi m
jun tament
ĠP ar
Ġnost res
Ġpos si
ĠC ons
Ġpro gra
o u
ar s
Ġpro duc
âĢĿ .
in es
Ġset m
p or
Ġre alitz
Ġun s
Ġ20 0
Ġw eb
ta d
Ġform a
n i
ol s
r u
Ã¨ c
Ġg overn
ti s
Ġp ens
Ġj u
Ġa cab
Ġ Ãº
f ec
Ġesp eci
Ġ 6
ix er
en vol
Ġs ub
at ges
Ġdi es
Ġtot es
Ġe t
til itz
ĠC ar
Ġma j
es a
2 0
i da
Ġm Ãł
e tat
j ar
v id
E l
s er
Ġpr incip
Ġprojec te
em es
Ġcan vi
ĠC as
Ġciu tat
Ġ ri
Ġl le
tr uc
Ġp as
Ġc la
ra ciÃ³
Ġc ent
ĠR e
n e
ĠD i
er c
Ġ ec
Ġs enti
Ġf ot
Ġcontin u
en c
Ġt orn
Ġb ar
av ant
es p
enta ciÃ³
i ra
Ġac tivitat
envol up
ti ves
Ġha via
Ġm od
t ell
Ġin f
ad ors
tan ts
Ġo fer
aques t
an da
m es
l ec
an Ã§
ons egu
Ġes t
Ġd oc
Ġel ec
er i
ĠD e
ĠL l
Ġcel eb
Ġm in
us t
e vol
ĠT a
Ġor ganitz
an ta
Ġb as
Ġ ti
u tilitz
an d
res a
Ġcas a
Ġdon ar
¿ ½
Ãł r
ï ¿½
Ġo p
Ġdi vers
Ġno v
gu in
un y
Ġimp or
Ġmom ent
Ġin t
Ġan y
ici p
Ġpod en
Ġt ota
Ġ tar
ĠT ot
ri p
Ġap ro
or i
l la
di ciÃ³
Ġpel s
ĠAques t
x im
h e
Ġc er
Ġg ent
tu di
u ciÃ³
s os
Ġten en
ĠâĢ ĵ
l ica
al la
Ã ¡
la ciÃ³
Ġinform aciÃ³
on Ã²m
ĠA mb
d ia
aques ta
g l
Ġ 9
Ġdis s
Ã² g
Ġ Ġ
i versi
ĠA ix
Ġpro pos
Ġrep res
ĠpÃº blic
Ã³ s
Ġp un
Ġd avant
Ġrec up
Ġd ades
ĠP ro
bl ica
Ġre f
p e
Ġres ul
Ġ z
Ġesp any
Ġdes envolup
Ġp oc
Ġb l
Ġdu es
c ep
ul l
te ix
Ġl oc
en tar
Ġcatal Ãł
ĠA r
ĠV al
Ġ1 0
i ent
Ġac onsegu
i gu
re g
ĠU na
Ġva ig
olog ia
v ell
ci tat
d ar
Ġsoci al
q Ã¼
er es
l os
m ar
Ġc op
ĠG ener
i f
Ġsi gui
Ġ K
Ġll ar
l us
Ġc ri
Ġ 8
Ġt o
Ġsetm ana
Ġd ar
ra da
r ÃŃ
v ar
Ġaques ts
âĢĿ ,
Ġmol ts
um en
Ġcos a
Ġe quip
Ġha b
v Ã©s
Ġres ta
os altres
Ġ W
Â »
Ġ 7
ĠPer Ã²
ĠM a
Ġno va
Ġpres id
ĠV i
Ġquals evol
a va
min ist
Ġtrob ar
Ġab ans
essi on
L a
Ã§ ar
Ġan ar
Ġcon t
Ġsin Ã³
u Ã¯
p end
Ġh e
Ġv en
r on
Ġal l
Ġper met
Ġd ins
ter ior
Ġn eg
Ġb on
Ġtra vÃ©s
Ġfin al
Ġ Ãł
er ia
Ġparti t
Ġpob le
n os
Ġ1 8
el s
Ġm ost
per i
ĠTa mbÃ©
d ors
at ura
ri ca
o f
Ġll en
Ġparti r
s c
Ġcon f
Ġ utilitz
ĠJo an
h om
Ġnec essi
Ġsup er
es t
ĠS al
Ġveg ada
ul es
Ġa g
Ġh um
Ġp unt
Ã² p
Ã¨ ixer
c s
Ġre fer
Ġre b
Ġgu any
Ġa j
ĠAques ta
Ġde c
Ġdi u
ell es
an Ã§a
Ġb aix
ci l
ra f
Ġfa mÃŃ
Ġes tan
it er
esti Ã³
Ġs ist
Ġj ug
Ġl leg
E S
r om
ab le
Ġser Ãł
ĠJ a
20 1
ĠÂ «
e di
i v
le x
Ġf ut
is s
p u
Ġnec ess
b er
Ġ [
Ġpe ti
tor i
Ġpro p
r os
Ġdis pos
Ġ1 5
Ġdis c
t ors
Ġc u
Ġhist Ã²ria
tu bre
Ã² s
Ġpre m
Ġcon eix
Ġc lar
Ġserve is
Ġser v
Ġva m
Ġesc ol
Ġm ant
er ci
Ġg ra
Ġpro bl
Ġs ig
d at
re ts
Ġmen ys
ĠC al
n o
a ut
Ġh om
v oc
pany a
ran c
Ġinter ess
ĠpolÃŃ tica
ec ciÃ³
re ta
ĠJ os
Ġpr om
p us
Ġarrib ar
la bor
jec tiu
ĠS er
i ons
Ġc l
Ġpor ta
Ġciu tad
Ġcomp ar
Ġgran s
Ġprof ession
Ġf an
ĠG u
ol Ã²g
ar ra
tal s
Ġp at
Ġ201 8
A juntament
ri l
um nes
r al
Ġpa ÃŃs
de pend
Ġcons id
Ġav ui
Ġ ro
c al
Ġrel a
A l
Ġactivitat s
00 0
Ġex emp
Ġi de
Ġpos ar
u ts
Ġmun icip
Ġb ona
Ġap ar
er en
Ġal g
duca ciÃ³
d is
b ilitat
Ġd in
au d
er n
Ġun es
ĠL le
Ġh ores
u res
si ons
Ġc at
Ġseg ons
og raf
ar t
Ġm Ãºs
Ġfa ci
Ġesc ri
Ġserve i
qu en
i cia
n ica
va ciÃ³
Ġb anda
Ġcos es
Ġresp ec
" .
Ġqu atre
Ãłn cia
u al
Ġt Ã¨c
iversi tat
i on
g n
g on
l tim
Ġimpor tant
Ġj orn
Ġc entre
Ġcon tr
g ar
g at
Ġal tra
Ãł g
fic aciÃ³
Ġal tre
Ġalgun s
u da
Ġec onÃ²m
ass a
g in
c om
er o
Ġresp ons
Ġpro pi
Ġmol tes
Ġtemp or
Ġlli bre
ic aciÃ³
Ġti pus
Ġex c
v at
Ġpun ts
Ġa s
ĠC an
itat s
Ġrec on
any a
e quip
em Ãł
Ġm us
Ġprogra ma
Ġdem an
a qu
Ġdes p
Ġa gra
Ġrec ord
ĠM on
Ġemp res
ÃŃ c
Â ´
Ġg rÃł
rÃł c
Ġter c
Ġ1 2
Ġesp ec
Ġtrac ta
Ġ |
d ica
i mp
Ġcap a
er aciÃ³
Ġm et
in ter
Ġpass ar
ĠM un
Ġdi f
a f
Ġdef ens
j o
t ot
ord in
1 9
ac tu
en tat
Ġes tar
emb la
er ca
Ġaques tes
ĠC ol
n ic
Ġn orm
Ġs om
p ec
Ġma i
Ġn osaltres
al e
Ġf il
ri tori
Ġpro per
i ment
Ġqu alitat
ren dre
Ġm ili
on om
Ġpresid ent
ri g
ĠP la
Ġcon ver
Ġal umnes
gu es
Ġv ost
ĠP a
Ġp ri
o k
" ,
t ur
ri r
Ġm or
oci aciÃ³
ĠE uro
un ci
ar em
Ġnov embre
Ġpublic aciÃ³
Ġp en
b res
Ġp rÃłc
Ãł ries
Ġmateix a
Ġn a
o v
Ġm on
om p
or re
ti a
Ġ '
ci ona
ĠM an
Ġl la
h ora
Ġm arc
Ġt el
te g
Ġha ver
E R
Ġob li
av en
Ġsist ema
ÃŃ cia
v in
! !
Ġsup ort
Ġvis i
ĠUn iversitat
ÃŃ t
or di
Ġten im
I I
Ġproc Ã©s
Ġt ri
Ġin ici
Ġpod em
Ġc li
A r
Ġl eg
Ġb us
Ġj oc
Ġgener al
Ġb o
Ġter me
ra c
c at
Ġg aud
ĠS eg
E n
Ġd ona
Ġcar rer
Ġs ÃŃ
as c
le t
Ġac c
Ġparti ts
v or
Ġf ent
Ġr en
ves ti
un da
Ġespany ol
Ġfa m
Ġ1 4
Ġi l
Ġes tudi
Ġexp lic
Ġset embre
oc tubre
r era
Ġllar g
Ġma ig
Ġmant en
v ant
Ġpossi ble
Ġsoci etat
ĠP u
d res
Ġn at
Ġ1 7
Ġto tal
in e
Ġde cid
es siÃ³
m at
d rÃł
ac te
ar ia
om en
ĠâĢ ĺ
ec a
Ġt u
Ġseg ona
Ġz ona
Ġpers ona
Ġsitu aciÃ³
Ġm ig
la ment
Ġ1 3
Ġx ar
ĠCons ell
Ġ201 7
ĠGener alitat
ĠB ar
ÃŃs tica
Ġp Ãłg
l u
Ġperson al
t ural
Ġseg le
Ġs en
er m
peri Ã¨ncia
ĠA c
ta da
di cions
ĠR ec
Ġg ai
ĠAix ÃŃ
Ã§ os
res s
Ġcomp any
Ġtreb alla
ĠmÃºs ica
li ol
pos iciÃ³
urs os
om a
Ġcomen Ã§ar
Ġf ill
Ġcon Ã¨ixer
ter na
ĠP al
id es
Ġinter na
Ġm eu
cion als
Ġdef in
Ã© u
Ġval or
b ol
Ġf em
ter i
Ġc Ãłr
ĠH i
ir Ãł
Ġpre par
Ġcas tell
ur Ãł
ul ta
tr u
itz aciÃ³
I n
Ġfe ina
A n
Ġd ret
od e
is siÃ³
Ġni vell
op ular
Ġs ent
Ġdeix ar
Ġac om
re tat
Ġsenti t
gu ts
i ques
ĠA ra
er g
r ers
Ġl ÃŃn
Ġs embla
Ġm entre
Ġf es
gu al
ĠCa mp
al ta
un s
Ġf Ãł
I C
Ġt ren
Ġin depend
ol i
ir c
un d
Ġsobre tot
Ġc in
er ar
ex p
e j
Ġl ec
Ġ /
Ã¨ r
Ġmes os
ec n
ĠVi la
Ġpa per
Ġform aciÃ³
it es
ĠV a
ĠS oci
Ġrecup era
A T
Ġ1 6
Ġfa vor
s t
c es
Ġprojec tes
onom ia
Ġre un
em ents
Ġin ten
Ġsoci als
ti da
Ġseg on
Ġ Ã¨
re a
ĠDes prÃ©s
Ġdivers os
Ġpar lar
Ġexemp le
Ġpre gun
Ġproduc tes
Ġel l
v al
Ġcatal ana
Ġtal l
Ġju liol
Ġmaj or
Ġaconsegu ir
ĠV all
Ġd om
Ġes de
Ġv in
ĠJ ordi
an o
Ġ201 6
Ġhist Ã²
ĠJos ep
u ta
x es
vis iÃ³
Ġdes embre
Ġj uny
Ġaqu ÃŃ
ib li
Ġl ÃŃ
Ġs ota
Ġ ur
Ġter ritori
Ġm ica
ot s
umen ge
Ġcomp te
Ġpres entar
ĠfamÃŃ lia
u di
ci s
Ġveg ades
ul tura
en es
ul s
Ġno ves
Ġrel aciÃ³
Ġe fec
Ġes tr
Ġfor Ã§a
Ġtempor ada
ar a
Ġcon egu
Ġca mÃŃ
Ġme di
Ġs a
Ġd ist
ab te
Ġmat eri
ur os
alitz aciÃ³
Ġet c
Ġg estiÃ³
Ġca us
Ġde b
gl Ã©s
Ġdivers es
Ġmaj oria
Ġpres ent
ti ma
Ġesp ai
anÃ§ ant
Ġ 0
Es tat
ĠA v
i p
Ġprof ess
alitz ar
Ġper d
Ġre alitat
ĠÃº ltim
Ã¨ g
on ar
al a
or ta
Ġm i
Ġ3 0
3 0
Ġd rets
Ġde ci
ĠP ol
ĠG ir
ac tivitat
A ss
Ã ±
Ãł c
Ġs eny
Ġins titu
tan y
ĠG overn
Ġob jec
Ġ ,
Ġins tal
j unt
Ġe diciÃ³
Ġvol un
Ġm assa
Ġn e
e ti
Ġen c
ĠgrÃł cies
Ġdes ta
du ir
Ã² r
li ci
vi en
f or
ĠV ic
Ġpar a
u en
Ġen ti
Ġel ls
Ġn ot
Ġin di
Ġmar Ã§
a ta
eb rer
esc ola
Ġparticip aciÃ³
Ġcomp le
h ir
Ġs el
A R
i vers
an til
ĠpolÃŃ tics
Ġcul tura
a mb
Ġpr Ã²p
Ġpob laciÃ³
fic ar
ograf ia
Ġjorn ada
Ġalg una
ĠcÃłr rec
Ġs em
ob jectiu
Ġsab er
Ġn ens
Ġn Ãº
Ġman if
Ġdesc ob
b a
Ġpla Ã§a
A C
l at
Ġjo ves
ĠM us
ai gua
Ġi d
Ġt oc
ad al
er at
ar en
Ġ201 5
Ã© n
u it
Ġ2 5
Ġter ra
du Ã¯
form aciÃ³
en ya
ĠT er
Ġllen gua
ri en
ĠM ol
Ġaj ud
ĠC o
Ġa t
Ġt or
ĠVal Ã¨ncia
n at
d s
Ġc irc
minist ra
Ġseg Ã¼
d em
Ġpl ant
Ã¨ ri
Ġv ic
ĠE x
Ġ1 1
Ġtot hom
og rÃł
ĠQu an
ĠmÃł xim
Ġass egu
qu er
Ġcomun icaciÃ³
er ta
Ġp in
Ãł l
tu res
oc rÃł
v ista
tar Ãł
duc ciÃ³
ÃŃ em
tr Ã²n
Ġpres enta
vesti g
Ġf i
il la
Ġseu a
Ġacom pany
Ġdi umenge
Ġd en
Ġ Z
Ġdi rig
ĠEs panya
ven dres
form a
ibli ot
Ġgrup s
Ġgaud ir
ac c
A N
tu dis
ĠpÃº blica
v ent
Ġsegu ir
Ġf ebrer
Ġf os
b il
or ca
Ġo fici
ac ord
Ġdiss abte
Ġe duca
u ari
Ġper m
Ġespeci al
Ġfut ur
Ġt ex
ĠS anta
Ġm ort
b li
Ġd ones
Ġalgun es
Ġdesenvolup ament
d en
ris me
Ġob res
Ġcomp rom
ci n
truc ciÃ³
Ġten ia
an g
ĠC or
glÃ©s ia
Ġan im
Ġd ub
Ġcons er
Ġaf ec
Ġr Ãł
Ãł m
Ġaf eg
Ġme va
Ã¨ m
ĠGir ona
Ġr om
pa i
Ġno us
Ã¡ n
ri d
labor aciÃ³
Ġcatal ans
oc up
en dre
Ġf esta
u ria
ĠD Ã©u
Ġempres es
res p
voc at
Ġall Ã²
tic le
an ia
Ġloc al
res siÃ³
ĠG ran
rim oni
iv il
d er
Ġrec erca
Ġtreball ar
ĠP S
Ġfaci li
Ġf ou
Ġdar rer
m s
Ġ #
Ġa mp
. [
Ġmitj anÃ§ant
Ġpod eu
Ġdiss eny
ĠC l
unda ciÃ³
os os
Ġcon junt
Ġta s
ort un
c h
ĠĠ ĠĠ
os ta
ĠJ es
Ġm erc
Ġcon tac
ĠM as
ÃŃt ol
Ġp opular
is teix
z e
Ġvis ita
ĠC entre
Ġserv ir
Ġj un
a gra
ĠR eg
Ġt eu
ob ra
Ġsec tor
Ġj ust
Ġ k
ĠfÃł cil
c o
Ġ eren
gu Ã©s
om b
er e
Ġt ecn
ven ciÃ³
c ola
m Ãł
Ġf ora
Ã¯ sos
Ġc inc
mb it
ĠAix Ã²
ĠD E
ĠAv ui
Ġcon fi
Ġfam ili
Ġs um
ix a
Ġin icia
ĠMar ia
es tat
Ġ2 1
Ġg en
Ġ201 4
ist Ã¨ncia
Ġ19 9
ĠP od
Ġmat ÃŃ
Ġn it
Ġlloc s
ar ca
au la
ĠCas tell
Ġe uro
titu t
ter min
Ġs on
ta gon
li es
Ġdec lar
Ġmod el
Ġcat eg
Ġpar la
Ġvi ure
Ġprofession als
Ġinc lo
Ġequip s
ĠF undaciÃ³
Ġrespec te
ab or
Ġcos tat
Ġelec trÃ²n
Ġpass a
Ġ qÃ¼
Ġcomp l
g rat
O N
ĠP P
Ġtorn ar
Ġl iter
ic le
Ġesp or
Ġn av
ost en
es tar
âĢ¦ ]
e ts
Ġla bor
in ar
Ġmin uts
ab ril
Ġt ema
ĠN a
Ġprobl emes
Ġpro tagon
Ã Ģ
Ġve Ã¯
Ġacab ar
Ġmillor ar
ĠT arra
os es
Ġab s
Ġ[ âĢ¦]
ĠS ol
Ġcons ell
al t
Ġes ti
an i
Ġdi vendres
Ġcomen Ã§a
E N
t ecciÃ³
Ġtra di
Ġparticip ar
ĠM i
ĠJ u
ĠCatal ana
Ġsegu retat
Ġmitj ans
Ġin d
Ġlli bres
ing Ãº
Ġprom o
a j
Ġs u
Ġde dic
Ġres ol
Ġg ol
Ġprim ers
Ġc ur
ĠM ad
Ġcons um
Ġresul tats
r Ã©s
Ġid enti
Ġres id
Ġrec ursos
Ġcamp anya
ca da
Ġdes tin
ĠJes Ãºs
g ona
Ġcla ss
ÃŃ fic
Ġref lex
t Ã²ria
Ġim m
Ġf ons
Ġmili ons
ac ter
Ġnat ural
Ġmol ta
Ġtex t
li da
ĠD urant
ot el
Ġ201 2
ed ir
a tiva
Ġ â
Ġper i
Ġcor resp
minist raciÃ³
tal la
Ġi gual
tÃł n
Ġde u
ĠA d
ĠprÃłc tica
Ġmo tiu
u aris
Ġpot ser
Ġcontr ol
car reg
Ġmost ra
Ġrealitz ar
Ġv ul
Ġsi mp
reb Ã©
Ġdon cs
Ġd ur
fic at
or ganitz
Ġcre aciÃ³
al tra
ĠF er
os s
la cions
Ã¨ tica
Ġesp a
ĠpÃłg ina
n et
da vant
Ġrec om
aques ts
Ġmus ic
Ġrela cion
ĠS egu
ÃŃ a
itz ar
Ġres pos
Ġdoc u
lic aciÃ³
Ġcom enta
Ġest em
Ġf re
ĠlÃŃn ia
ĠR a
e z
ab ilitat
Ġnav eg
Ġ ...
Ġm ed
Ġvol em
Ġdem ost
A L
Ġaut or
c ciÃ³
ac ciÃ³
ga f
Ġor ig
Ġd it
Ġcon ven
ĠPer e
Ġpara ules
Ġdirec tor
c rip
l an
h er
ti ga
Ġp es
ĠÃ Ģ
Ġ2 4
rib u
Ġs uc
Ġm ot
Ġur b
on al
it Ãłria
Ġsig ni
ist re
Ġpens ar
si m
Ġ201 3
Ġcre ar
Ġcul tural
Ġespeci alment
v os
Ġs is
ĠC iu
1 1
Ġtrob a
ĠMar t
Ġlle i
ÃŃs tiques
Ġd ol
Ġcon dicions
Ġdif ÃŃ
tu al
qu ÃŃ
ĠF ran
ĠD ep
Ġcom b
Ġsol s
ss a
Ġcar acter
e fici
Ġp le
x e
Ġpar l
Ġc ob
Ġsal ut
gu any
Ġexp lica
Ġmo vi
Ġcorresp on
Ġtin gut
ĠTarra gona
Ġmunicip al
Ġoc up
Ġpos i
Ġcre ix
ĠnÃº m
an ar
ent ment
ĠH a
O R
Ġmill ors
Ġc ot
Ġs ap
Ġll u
m enta
ĠR o
ĠO r
Ġv ist
ĠP rim
2 00
e tes
Ġen ll
Ġesp er
p ort
Ġex periÃ¨ncia
Ġt ur
Ġcontra c
ĠSer ve
Ġenti tats
ad ora
Ġofer eix
ten ciÃ³
Ġ tit
Ġn ingÃº
ĠF ranc
Ġtar da
l les
ec u
1 0
Ġob ra
g en
Ġcom erci
ap ro
Ġprincip al
Ã§ at
Ġgai rebÃ©
Ġresul tat
E C
ĠEn s
Ġesta va
el a
Ġm il
Ġm emb
oll ir
is i
Ġf as
Ġfut bol
Ġdem ocrÃł
Ġqu in
Ġbas e
Ġper ÃŃ
Ġre gu
Ġg l
tin a
os pi
ĠC at
di o
Ġprobl ema
ov int
ÃŃn im
Ġha urÃł
ÃŃs tic
ĠL li
Ġ y
Ġxar xa
ĠCom un
Ġcons titu
i tal
Ġt emes
Ġser ia
Ġde termin
Ġespec tac
ĠT or
vi at
Ġe uros
Ġlli ber
gu da
Ġpro u
Ġaqu ells
Ġpa Ã¯sos
Ġf ac
p re
Ġf igu
Ġb i
Ġpod rÃł
Ġim atge
at Ã¨g
el i
Ġpres entaciÃ³
gu er
ĠT e
Ġ2 2
Ġform at
Ġg as
Ġan at
Ġtra s
Ġconeix ement
Ġmar ca
Ġsor tir
ibliot eca
Ġmemb res
ĠR am
ĠS an
Ġcons ci
Ġg aran
Ġac cep
Ġar t
Ġ .
Ġll um
Ġpod ria
qu it
Ġcent res
Ġbar ri
x it
Ġp an
Ġque da
Ġd ic
Ġe vi
emp resa
bl ement
Ã³n a
ap ar
Ġlli ure
Ãłc ter
v em
Ġv ia
Ġcar Ãłcter
E uro
ĠT erra
Ġpu gui
p oca
v eu
Ġen f
mp oc
Ġf ranc
tiv al
d o
d it
Ġm ÃŃnim
Ã¨ ria
Ġinc or
Ġfe ia
Ġpe tit
ten ir
Ġan omen
v ors
Ã¼ es
v oca
Ġdi m
ĠMad rid
ĠfamÃŃ lies
Ġbl oc
Ġesde ven
Ġcar a
ĠAn t
ĠC i
ĠS up
Ġaqu ell
cion ar
Ġpor tar
Ġm ira
m aciÃ³
er ic
Ġnom bre
Ġelec cions
Ġespa is
Ġcontin guts
o di
Ġoc as
Ġe di
ren ys
Ġc r
Ġval enci
i ments
Ġd Ã³na
Ãł leg
anc es
I ns
Ġv ig
Ġtrac tament
i em
Ġque dar
ĠP au
Ġvi ol
Ġ Y
Ġv o
gu em
ili tats
Ġc ert
h ab
Ġm ob
ÃŃ de
.. ..
Ġvi atge
Ġf arÃł
pe a
es tudi
ĠP rem
ĠM or
ĠG ra
Ġmal al
Ġs an
tan ya
t o
Ġad ministra
Ã¨ri e
Ġs ob
Ãł mbit
Ġpropos ta
Ġc rÃŃ
um e
Ġ rob
Ġinterna cional
Ġesta bl
Ġactu al
Ġprem i
e ducaciÃ³
Ġmanten ir
Ġp ort
fer Ã¨ncia
tiva ment
u als
Ġs ur
Ġha uria
ca pa
Ġcapa citat
E ls
Ġcas os
l le
Ġ Â·
ĠpolÃŃ tic
jo us
Ġf ru
Ġtin drÃł
Ġimp os
Ġpo gut
gu en
Ġceleb rar
Ġmerc at
l or
es tiu
ta ri
Ġnecessi tat
ĠprÃ²p ia
s si
acc Ã©s
Ġ201 1
Ġmom ents
ar tament
ĠPu ig
ĠMus eu
Ġg ols
Ġprincip als
Ãł tica
ĠMun icip
Ġlleg ir
ca p
Ġus uaris
Ass ociaciÃ³
g er
Ġcan Ã§
lus iÃ³
Ġas pec
l ÃŃc
p ro
Ġcateg oria
Ġrec ol
Ġcons trucciÃ³
ĠPar lament
Ġdifer ent
Ġcon te
Ġreg id
Ġm ul
Ġt re
Ġdecid ir
Ġsem bl
Ġsub s
Ġcaus a
s up
as i
Ġo f
di al
Ġres er
ÃŃ cies
Ġg rat
tin t
ĠDep artament
o cia
Ġre m
Ġvi la
ess in
I N
ent rada
ÃŃ fica
ĠM ont
Ġna cional
Ġprofession al
Ġs Ã¨rie
ĠCa p
Ġte va
ĠLle ida
at en
ĠdifÃŃ cil
Ġfun ciona
ok ies
Ġcontac te
ĠR ep
ĠpolÃŃ tiques
Ġa gaf
Ġm em
li tat
ĠG ar
ĠV ol
ca d
Ġdirec ciÃ³
Ġre bre
olÃ²g ic
Ġt ÃŃtol
in i
re ga
ĠA b
Ġpot s
Ġcl ub
Ġide a
Ġdefens a
es pai
Ġn ord
Ġpar es
aut or
e ig
Ġmo di
Ġloc als
Ġf alta
Ġpres Ã¨ncia
i ble
ci al
op era
Ġha gi
Ġcol or
Ġtel e
Ġrec orre
ĠGener al
Ġexplic ar
Ġsor p
Ġguany ar
ĠeconÃ²m ica
a vi
Ġt rÃł
Ġdi gi
Ġp il
Ġpl at
Ġsor tida
Ġciutad ans
t ora
ĠR es
p s
Ġs ovint
ĠF in
Ġfot o
in aciÃ³
ici pi
Ġcomp eti
Ġhab itu
b ert
Ġex per
Ġvol en
Ġg erm
tic ular
ĠEs c
Ġv inc
av ia
Ġcre u
Euro pa
Ġgrat uÃ¯
c er
in ici
it en
ĠM Ã©s
Ġgu erra
ĠD el
Ġ2 3
ir ar
o fer
g Ã¨ncia
ĠV il
Ġin teg
entat ge
ĠperÃŃ ode
ĠB en
Ġser an
quit ec
A M
Ġin vestig
Ġnecessi tats
Ġs Ã©
Ġre i
aques tes
Ġv ari
Ġpar e
1 8
es per
Ġint el
ospi tal
ĠV er
ĠSeg ons
g ia
os c
res id
ĠM al
ĠQu e
Ġrepres en
Ġcor reu
w w
es tr
Ġta ula
Ġa ug
Ġper dre
ĠC ultura
Ġrecon eix
e qÃ¼
us uari
Ġdesc on
Ġsegu it
Ġrespos ta
ĠE m
al tre
Ġ2 7
Ġfill s
Ġim atges
olÃ²g ica
Ĥ ¬
ĠLle i
tin g
Ġmun icipi
Ġarrib a
Ġcons ul
tit z
Ġconsid era
Ġl im
Ġ5 0
ĠJa ume
Ġde r
Ġb Ãłs
Ġben efici
ĠMon ts
Ã³ r
Ġv ÃŃde
Ãł ss
Ġimpor tants
ol es
ĠEn tre
Ġha vien
ag ost
Ġpeti ts
ric s
Ġrepres enta
Ġlliber tat
ĠD ia
ĠB ale
Ġperi od
t ec
Ġorig in
Ġb at
ob le
va da
ĠM o
Ġpres sup
Ġvol tant
Ġcomun itat
id e
Ġcap ital
Ġconc ep
Ãº l
Ġter min
Ġpu guin
Ġ19 8
Ġdeman ar
Ġdeb at
r ats
Ġc ient
ing Ã¼
alitat s
t em
Ġprofess or
r ont
Ġa hir
Ã© ixer
Ġh ora
Ġex pos
Ã² ries
Ġte atre
Ġproduc ciÃ³
Ġl o
enti s
da p
Ġsup os
Ġd Ã¨
tal l
enci al
Ġofer ir
Ġvisi tar
ĠsegÃ¼ ent
Ġimp ort
ĠpÃºblic s
os sos
Ġob jectiu
Ġhom es
Ġcons tru
Ġdon at
Ġm ans
us ta
Ġcons eqÃ¼
er ts
Ġcada sc
Ġf ra
Ġcla ssi
g rÃ©s
Ġel la
d ora
Ġf ona
Ġsi guin
alitz at
Ġh or
Ġdi jous
ĠÃºltim s
Ins titut
Ġ ord
Ãº blica
E bre
Ġmar xa
Ġp al
ĠC h
Ġpat rimoni
Ġ201 0
ĠA m
jec te
Es cola
Ġm iss
al um
Es panya
Ġs essiÃ³
ti que
Ġpre u
hi b
qu el
Ġc i
ra des
Ġevi tar
ĠN om
Ġpa is
Ġmen jar
Ġreb ut
Ġenll Ãł
Ġ er
Ġc ivil
on at
Ġel ements
âĢ ¢
Ġf ar
lla Ã§
Ġsal a
Ġcont emp
Ġrel ig
Ġproc ess
ĠDi pu
ro p
ĠU s
O r
qu erra
ĠIn terna
Ġrefer Ã¨ncia
A ques
ien tal
Ġterc er
ul tat
Ġcan di
es truc
ĠM all
Ġcontin gut
Ġver itat
Ġpar ticular
ris ti
ĠTot s
un ta
Ġciutad ania
Ġper fec
Ġac ord
any s
Ġperson als
ar rib
ll uns
ĠEuro pa
Ġsegu r
ĠP re
Ġent orn
Ġe vid
Ġ1 00
as t
Ġp ed
ĠX X
s ic
Ġa dap
Ġta mpoc
Ġcanvi ar
gl Ã¨s
Ġp ost
ĠP at
Ġcomp ta
Ġmateri al
Ġdi lluns
Ġan terior
Ġdar rera
all es
Ġmateix os
Ġpropos tes
Ġ ris
ĠDi rec
ĠNa cional
ri t
Ġimp uls
Ġindi vid
en da
ti es
Ġtra m
Ã²n ica
Ġcu ina
ĠCl ub
j at
li ment
Ġcla u
is c
Ġes tudis
Ġfe ts
Ġval ors
Ġam ics
ĠSoci al
titu d
Ġvolun tat
Ġv ista
Ġpro por
ĠF a
g o
r ant
u ix
Ġll ista
ens e
enc s
Ġj ur
Ġp ec
om f
ec res
Ġex erci
Ġav anÃ§
Ġri u
g res
id ar
Ġquan ti
ĠIn ter
Ã¨ t
tra c
Ġob s
Ġtar d
Ġ ul
Ġan unci
tis ta
ta des
Ġm is
Ġcon vocat
Ġaf ir
Ġdin ers
ĠP arc
Ġpeti ta
Ġcompar tir
Ġllu ita
en ari
in cid
Ġrep ar
ĠM ed
Ġca m
ur als
ĠG rÃł
e us
Ġca b
tur als
A S
Ġcar rers
Ġd ura
is b
Ġcon vi
ĠLl u
cal de
Ġs osten
Ġco ordin
Ġ Ãºs
Ġfamili ar
h avia
ĠâĢ Ķ
Ġobjec tius
ĠCar les
I S
d ria
Ġa viat
leg i
Ġsen z
ĠMunicip al
eix i
Ġp is
ĠB o
Ġpressup ost
Ġris c
r ent
ur an
Ġpl an
Ġcri si
Ġlec tura
Ġper ill
qu ia
Ġdi fic
Ġoc ulta
Ġa i
Ġconf lic
ĠA ss
ĠVal enci
Ġcomp et
Ġcon vid
Ġd ata
Ġespany ola
Ġcon n
Ġs im
Ġbaix a
Ġp ren
Ġpos a
Ġen davant
ĠG rup
Ġlla vors
c e
ĠN adal
Ġvi at
Ġtrob ada
versi tat
Ġtreballa dors
ĠBale ars
Ġf on
Ġg esti
ĠF es
Ġinicia tiva
Ġmar e
um s
dor ra
Ġfun ciÃ³
Ġbl og
va dor
ha ver
Ġmes ures
Ġtin c
esp ec
egu t
ni ques
la da
organitz aciÃ³
or da
Ġf oc
Ġimport Ãłncia
Ġmes ura
Ġpossi bilitat
Ġagra da
Ġf ÃŃs
Ãłn ica
te gra
Ġjo ve
Ġnov el
Ġrespons able
ĠM arc
Ġtri omf
Ġfavor ita
Ġel abor
ens a
Ġimp res
Ġneg oci
Ġrecorre gut
ĠF ac
Ġsel ec
ĠAnt oni
1 5
l oc
Ġ2 6
Ġan ti
ĠP en
Ġcan vis
Ġdefin i
Ġde p
ĠP ot
Ġll uny
ĠH o
Ġmal grat
bli ques
r or
ĠIn s
Ã²n ia
Ġsenti r
Ġajud ar
ĠMall orca
e v
ĠS ab
Ġpro tecciÃ³
qu il
Ġten iu
ex c
ris t
er Ã§
gu Ã©
Ġutilitz ar
I T
Ã ĵ
Ġpre fer
c le
ĠT ra
aten ciÃ³
Ġes tim
ĠP or
Ġent endre
tat ge
ust ri
Ġpoc s
Ġceleb ra
Ã² bil
ograf ies
ti on
tis tes
Ġcor rec
ri u
Ġex tra
Ġpr Ã²
Ġcontinu ar
lic ar
f a
ĠA ut
Ġder ro
p eu
Ġi r
Ġv aren
da cciÃ³
Ġinf antil
ortun itat
Ġmitj Ãł
met re
Ġalg Ãº
Ġjoc s
emÃł tica
ot es
Ġm er
g el
Ġvi u
Ġtreball s
ĠveÃ¯ ns
Ã§ ada
I B
ĠC er
ĠÂ »
Ġv ir
Ġincor por
ed eraciÃ³
Ġdub te
Ġ *
Ġcre a
Ġco okies
Ġsuper ior
Ġabs ol
Ġc icle
o ti
Ġdis p
Ġdar rers
ĠS Ã³n
ĠPS C
Ġpre ocup
Ġjug adors
Ġcl Ãłss
Ġg e
ran s
tor n
ex posiciÃ³
Ġnecess ari
cad Ã¨m
ĠE mp
ic ar
teri ors
Ġe qui
ist Ã²ria
Ġsegu eix
Ġmovi ment
Ġc ost
ĠF el
Ġemp resa
Ġve h
Â» .
Ġmem Ã²ria
ĠMi quel
Ġmusic al
Ġdim ecres
si on
Ġarrib at
Ġparticip ants
Ġinteress ant
Ġrespons abilitat
Ġp ub
Ġrel le
ula ciÃ³
fi ques
it x
Ġent rar
Ġmunicip als
d ats
Ġm as
Ġin no
Ġ2 8
Ġmill ora
Ġa dre
ÃŃ m
Ġest ran
Ġa de
in at
olog ies
ĠÃº nica
Ġjug ar
n ia
Ġp rendre
ĠP r
Ġrec la
Ġamb ient
ĠH em
Ġaspec tes
is tir
ĠL leg
ĠT en
Ġass ol
1 7
ed at
ci e
Ġmet res
Ġ19 7
Ġdeix a
Ġamp li
ĠL e
Ġconc ert
Ġterc era
am or
l ot
Ġten d
1 2
Ġpro va
Ġresp on
ĠelectrÃ²n ic
z a
âĢ ĵ
Ġmat Ã¨ria
Ġinf ants
Ġdescob rir
Ãłn im
Ġestr atÃ¨g
Ġsigni fica
Ġpar aula
Ġgl ob
ir an
Ġac tes
Ġpod ia
Ġpu blica
du eix
vi ar
Ġconc urs
Ãłl isi
Ġtradi cional
Ġb all
for Ã§
Ġperm an
i cions
re ix
ĠC ent
Ġdi ver
ogrÃł fic
ro c
Ġ200 9
ĠC ada
ĠP l
Ġpro teg
Ġhom e
N o
Ġf ran
Ġen erg
da ment
ĠM edi
Ġ2 9
Ġg anes
Ġmen a
Ġtas ca
lec tiu
umen tal
ĠInterna cional
A D
R E
ren entatge
Ã¨ l
Ġex peri
Ġap or
Ġleg is
Ġtor na
ĠPrem i
a pos
Ġc rec
Ġesp Ã¨
Ġsetm anes
Ġd reta
ĠP el
us ti
Ġinstitu cions
- -
Ġvi v
Ġtrob em
Ġra Ã³
el ec
gu lar
ĠM en
v Ã©
em ble
Ġestudi ants
qu et
Ġpl ena
Ġjorn ades
Ġ >
si va
il ar
Ġac cions
ĠDipu taciÃ³
Ġac os
es taciÃ³
Ġob ert
Ġmateri als
f on
Ġre al
Ġh as
Ġfin alitat
ĠX V
Ġade qu
Ġre t
ĠB aix
Ġsa tis
Ġp leg
Ġal hora
Ġconte x
u a
Ġdi ari
Ġpod ran
Ġ4 0
Ġconf ir
om es
Ġb al
ĠM at
enti tat
am unt
Ġdiu en
en cia
ĠB i
av ui
Ġcos ta
a cab
tor al
Ġdem ana
p id
Ġrec ep
ĠX avi
Ġmun tanya
Ġbl anc
Ġf al
Ã¨ dia
Ġescri t
ĠFranc esc
ĠT V
essi ons
Ġtrans port
Ġex ig
ca des
aqu ÃŃ
Ġcli ents
Ġclass e
Ġdigi tal
Ġcastell Ãł
Ġhum ans
Ġxar xes
Ġtall er
is mes
k i
ic at
ta ris
ori al
ĠNom Ã©s
c on
z ar
rib un
Ġs ort
Ġz ones
ĠR ib
ex periÃ¨ncia
Ġm ec
ĠT u
t ria
us iÃ³
i va
Ġcom arca
Ġqu ina
gi ques
A P
n ics
qu em
or ig
Ġj ut
ret era
Ġg Ã¨n
ĠS a
Ġrel acions
Ġproduc te
Ġrecup erar
Ġrecord ar
inter Ã¨s
es es
un es
ĠUn iÃ³
Ġconver tir
b i
Ġtra diciÃ³
Ġprem sa
c an
h ores
Ġciu tats
Ġ200 8
Ġqu ar
ita ciÃ³
U P
ci na
Ġcontinu a
Ġbus car
gun s
Ġren o
duÃ¯ t
d al
l ÃŃ
ta forma
Ġvic tÃ²ria
qu in
Ã¨ via
Ġfin als
ĠAques ts
Ġperson atges
Ġdirec te
Ãł b
ĠB er
Ġdeci siÃ³
Ġs op
Ġgu st
Ġint ro
Ġlabor al
Ġse par
Ġcons ol
ĠJos Ã©
b o
f il
Ġcom Ãº
Ġaqu ella
Ġqu ad
ĠC ul
Ġfin alment
ĠTe atre
ĠRam on
Ġfunciona ment
5 0
qu is
Ġdi pu
ĠF ira
Ġmitj ana
Ġcomprom ÃŃs
c ul
ĠP ed
ĠI lles
Ġpob les
Ġcamp anes
Ġprincip i
Ġtall ers
lÃŃc ula
C I
ĠEuro pea
ist ents
ĠnÃºm ero
tic les
ament s
agra da
ĠB a
Ġform ar
ita ri
Ġsen si
Ġcomenta ris
ta va
ent orn
Ġpar c
ĠR om
alitz ada
Ġprimer es
mar ts
m on
an im
Ġm asc
Ãł p
Ġaqu elles
Ġi ma
ĠF or
Ġdesenvolup ar
ci o
Ġob tenir
Ġapro fi
er tes
Ã³ c
ĠT erc
Ġceleb raciÃ³
anÃ§a ment
ĠL la
ÃŃs si
Ġdisp oni
ĠCon tin
at es
Ã¨ rica
Ġpos at
Ġs o
es glÃ©sia
in o
ĠLlu ÃŃs
Ã² leg
Ġdes tac
omp l
Ġva c
Ġfun da
ĠeconÃ²m ic
ĠprÃ² xim
Ġdi marts
ri ure
Ġin au
Ġacab at
Ġp i
ada ment
Ġma gn
Ġent ren
enya ment
Ġb ones
Ãº ltim
Ġob ser
Ġcar retera
ĠX ar
ĠtÃ¨c nic
Ġcin ema
Ġcent ral
capa citat
ol ÃŃ
te u
Ġpos iciÃ³
ĠtÃ¨c nica
lec ciÃ³
Ġtermin i
Ġfona men
Ġall Ãł
Ġsel ecciÃ³
Ġdocu ment
E ducaciÃ³
on g
Ġf ix
in f
Ġco incid
Ġllar ga
ĠP as
Ġrec ull
por ts
Ġreun iÃ³
O S
Q u
Ġv uit
Ġar ticle
ura ciÃ³
Ġcul turals
ion at
e jar
ra ment
Ġes truc
Ġb la
ĠS ec
Ġri t
ĠqÃ¼ esti
Ġes s
Ġres s
Ġsitu at
Ġescri ure
Ġrecom an
Ġju di
crip ciÃ³
Ġex cep
ĠqÃ¼ estiÃ³
c he
ĠRe i
eg a
Ġjun tament
ĠEs p
an isme
gu raciÃ³
ĠNo u
p es
v o
Ġdifer Ã¨ncia
emÃł tiques
Ġconstru ir
Ġpec es
Ġreg ist
ol esc
Ġdis pu
Ġtran quil
Â» ,
x iu
Ġdeix at
Ġcot xe
E M
Ġb ons
Ġpar ts
v all
ĠM erc
tan a
Ġprem is
Ġescol es
ĠB l
form e
r g
Ġf el
Ġsol u
Ġcont ribu
it or
Ġindepend Ã¨ncia
Ġconegu t
1 4
u el
Ġde ri
Ġun iversi
ĠâĢ ¦
v el
x i
li citat
Ġpa ga
Ġconc ent
a mp
Ġno ta
Ġfes tes
O E
Ġd amunt
Ġp sic
Ġre vol
Ġpres entat
ĠpÃº bliques
A d
Ġb ra
Ġpa ci
ĠpÃłg ines
ĠServe i
ĠvÃŃde o
C om
e tats
i tar
Ġpla ces
Ġcontinu aciÃ³
Ġofici al
Ì ģ
in formaciÃ³
Ġpl u
Ġgu ard
er ior
Ġs Ã²
Ġs il
Ġtrob en
Ġde ia
Ġal t
ell Ãł
Ġpos terior
Ġexp ress
Ġfun cion
Ġcompany s
Ġl id
tin gut
es tÃł
Ãł vem
Ãłs tic
Ġactu acions
Ġprincip is
t on
Ġapro f
Ġe ix
ĠD on
ĠD av
ĠprÃłc tiques
v ats
Ġde dica
Ġr uta
Ġver siÃ³
ib ilitat
ĠM in
Ġcompany ia
Ġnot ÃŃcia
a bles
en tal
ĠH e
Ġtit ular
O M
c l
' s
Ġt he
Ġf om
Ġv esp
gra f
Ġnom b
dre u
Ġfot ografies
Ġs ud
Ġ19 3
1 3
Ġno ve
esc rip
Ġmost rar
Ġ :
ĠCatal Ãł
os iciÃ³
Ġal ta
ĠF ins
Ġpublic at
Ġcurs os
Ġquanti tat
es ia
al u
ĠMa j
Ġpr Ã¨via
reb all
Ġem b
Ġc risti
ell ot
ĠF orm
Ġn enes
va des
Ġfot os
k a
Ġm Ã²bil
ti p
ĠlÃŃ der
O L
ĠPer quÃ¨
resid ent
Ġresta urant
Ġtre ure
Ġg ar
mÃł tic
re di
ĠCons titu
Ġcreix ement
ona da
Ġseny or
E T
d ran
e f
mb its
ĠR i
Ġcontex t
Ġf l
Ġactu alment
r in
Ġ19 6
Ġtu risme
Ġind ustri
t t
en f
in iÃ³
Ġpass ant
ĠX I
ĠSal ut
Ġacc edir
Ġgai re
Ġs ant
Ġob rir
m an
ar ticle
Ġf ront
Ġen g
Ġorganitz a
Ġin dic
actu al
Ġm ic
res es
ur ar
activitat s
b uix
ic les
Ġb osc
id ors
Ġpre t
ĠSal a
Ġp eu
Ġv ers
op a
Ġpregun ta
ĠE c
Ġcomp or
iv in
Ġtoc ar
Ã¨ tic
olÃ²g ics
Ġvost ra
ĠEs tats
Ġdirec tament
r arÃł
us a
Ġfigu ra
ĠA p
Ġb ici
Ġtreball ant
Ġdesp la
ocia cions
e qu
ĠCom issiÃ³
Ġanim als
e da
re es
ĠPol ÃŃ
Ġb e
Ġha gut
si ques
ĠG o
rib uciÃ³
ĠQu Ã¨
ĠsegÃ¼ ents
ĠTerra ssa
Ġexperi Ã¨ncies
c ant
ĠP ob
Ġvol ta
ĠNo va
ĠtÃ¨c niques
ĠTerc era
en Ã§
Ġt oca
Ġvis c
Ġpossi bles
. -
Ġb ell
Ġrep e
P er
Ġal terna
Ġar reu
Ġh eu
Ġcas es
Ġpl anta
Ġprogra mes
Ġpromo ciÃ³
ĠF ederaciÃ³
Ġac te
ca ment
Ġex tre
ĠAques tes
Ġaconsegu it
ĠS et
Ġca min
ter s
Ġex isteix
Ġform es
Ġvis iÃ³
Ġconvocat Ã²ria
Ġv Ãł
Ġvol s
met res
U n
er rat
oc s
ai re
Ġmod ern
Ġdesta car
emble a
Ġdes itj
ad ministraciÃ³
Ġexc lus
re us
Ġre torn
Ġcomen Ã§
ran ca
gin y
II I
ĠFran Ã§a
Ġrepresen tants
ĠCiu tad
u f
Ġd orm
Ãº n
Ġap rendre
Ġpass ada
Ġdesc ens
Ġvost re
Ġfas e
Ãłn ia
ac h
ĠPal au
alum nat
Ġima gin
g ent
j ada
de f
arc al
hom e
m em
Ġdon en
ĠJ orn
ĠP i
vis tes
m it
u des
en ar
Ġre alment
Ġorganitz at
Ġk m
ĠT an
Ġsi gut
Ãºs tria
Ġsig n
Ġtotal ment
Ġefec tes
Ġre ivin
ĠN at
ĠAc tu
che z
Ġs us
Ġrep ro
ribun al
tr uÃ¯
ÃŃs tics
Ġexc el
Ġp rac
ti des
Ġb an
tal ls
Ãº nic
Ġpa gar
Ġver m
Ġplat ja
I D
ul tats
Ġvol ia
ĠCas a
ĠBar Ã§a
Ġprocess os
Ġl ingÃ¼
Ġfacili tar
Ġeuro pe
Ã³r rer
Ġa ma
Ġque dat
fici ent
Ġfot ografia
um entaciÃ³
Ġass eny
edi fici
Ġaj uda
udi o
ĠDav id
Ġten ien
Ġinclo u
Ġul ls
â Ĥ¬
ec onomia
Ġcomp rar
ota ciÃ³
ĠMart ÃŃ
ĠgÃ¨n ere
ĠL u
Ġan d
Ġr u
Ġmar x
ĠCom p
Ġsab em
h or
i Ãł
Ġqu il
Ġqu art
Ã² giques
era cions
Ġco opera
Ġnecessi ta
Ġ ub
Ġun ivers
L es
enci ar
Ġ200 7
Ġviol Ã¨ncia
/ /
1 6
Ġp ac
Ġes tic
tir ar
lici tu
Ġsatis f
b ilitats
Ġdi buix
ĠI I
Ġexplic at
s es
Ġpa u
Ġconc re
Ġnot ÃŃcies
ĠXar xa
a tiu
i tants
r Ã²
or k
Ġjust ÃŃcia
A c
Ãł dio
ĠÃł mbits
g ers
on or
Ġb a
Ġpropi etat
Ġâ Ĩ
v Ã¨ncia
Ġ3 1
Ġapar eix
z z
Ġ +
dor es
Ġperd ut
Ġfel ici
k e
os p
Ġpor tes
Ġide es
Ġliter atura
Ġp ista
ĠB iblioteca
Ġcar ta
ĠCon c
Ġesta ven
Ġinc l
voc ar
Ġcontr ari
Ġconfi anÃ§a
Ġs of
si u
ĠV an
Ġcol ors
Ġedi fici
Ġsubs titu
I A
Ġe ines
ĠB or
ano va
ĠhistÃ² ric
Ġb ri
ĠS ÃŃ
Ġesc rip
Ġinter pre
Ġconeix ements
Ġpro ves
Ġem oci
Ġcu ri
m o
Ġen d
ĠprÃ²p ies
Ġreconeix ement
or ies
Ġv ull
men tar
Ġescol ar
Ġdin ar
Ġconsell er
i re
âĢ ľ
Ġf ab
ĠUn its
v ist
Ġ Ð
Ġn eu
ul at
itz at
Ã¨c t
of f
Ġdocu ments
Ġf res
ĠP ep
ica cions
Ġpu jar
til s
Ġx erra
Ġme itat
Ġtrac tar
Ġrealitz at
ĠMart ÃŃn
Ġcatal anes
Ġcurs a
teix en
carreg ar
orig en
: //
E mp
Ġd oble
Ġpre c
A B
itat ge
Ġtrob at
Ġmod er
Ġref ug
al calde
ĠC orn
ĠD oc
Ġ6 0
u mp
Ġf ort
Ġin fer
Ġcon tes
Ġ19 4
Ġsup osa
ĠRe dacciÃ³
!! !
Ġcaracter ÃŃstiques
ĠFin alment
Ġre vista
ĠM ari
Ġme us
R C
Ġm embre
Ġll ic
obre gat
ĠlÃŃn ies
Ġt ens
Ã¨ poca
Ġg ir
Ġe ta
era ment
ĠU E
tament s
ap licaciÃ³
Ġgu ia
Ġform en
Ġem o
Ġfe ta
Ġmo tius
Ã² c
ĠS e
ĠB on
itz a
of ia
ĠGu erra
Ġvost res
Ġfranc Ã¨s
al es
ĠI s
ĠFes tival
i rem
p ora
t ÃŃ
ĠG e
Ġab and
que ts
Aques t
m its
ent en
Ġpro hib
ĠLl obregat
Ġacab a
ĠT he
ĠR ub
ble ix
ivers ari
l ent
ĠP os
ĠAl bert
Ġsec reta
Ġcer ta
Ġdispos iciÃ³
Ġgaran tir
om Ãł
Ġrec orda
Ã¯ t
Ġsist emes
Ãºl tima
Ġa cadÃ¨m
Ġen guany
ĠC ivil
ad ell
Ġass um
Ġgra u
Ġinteress os
Ġhabitu al
ĠTu risme
Ġl os
ĠT reball
Ġpo esia
Ġdes apar
Ãºs ica
Ġjur ÃŃ
ĠA quÃŃ
Ġobs tant
g Ã¼es
ĠE tique
Ġcar n
Ġcer ti
Ġmunicip is
ans a
Ġven ir
Ġclass es
op eraciÃ³
Ġdoc umental
ĠMed iter
Ġai gua
t el
Ġg reu
Ġcon vers
od es
ĠN i
gi da
Ġsor g
Ġrepres entaciÃ³
ĠPa ÃŃs
ĠÃ¨ xit
ar r
Ġqu ant
Ġn uc
Ġdes ig
ĠB ra
Ã¨n d
Ġcer ca
actu alitat
ĠVall Ã¨s
Ġne te
Ġreflex iÃ³
estruc tura
m or
Ġf ul
Ġb anc
Ġinf lu
x ill
ven cions
Ġpri or
Ġen vol
ÃŃ p
Ġcon ta
cion at
ĠcanÃ§ ons
Ġnomb ros
ĠF ern
Ġpres Ã³
Ġpu c
Ġref or
Ġtecn ologia
ci t
Ġap lica
Ġque d
Ġf ira
Ġn atura
Ġprogra maciÃ³
Ġrit me
Ġper me
Ġca d
ĠD ec
Ġmin istre
ĠrÃł pi
Ġtele visiÃ³
Ġpais atge
Ãł rea
le ga
Ġcons ulta
ĠEn cara
cip l
Ã į
ro t
Ġan em
Ã¨ ries
ĠB e
ĠJ ust
Ġescol tar
v ells
Ġob erta
ogrÃł fica
ĠCul tural
Ġv ÃŃc
ul ts
Ġter res
Ġsol id
p en
Ġp ell
âĢĻ ,
Ġin ver
ĠR os
Ġar ticles
ita cions
Ġtin gui
Ġproc ed
esp era
Ġven da
ta cions
Ġf usta
ad o
Ġterc ers
Ġfem en
ĠP rat
Ġ8 0
actu aciÃ³
Ġtras lla
O C
is teri
de z
Ġnat urals
Ġsenz ill
qu ad
Ġel im
ol Ã²giques
Ġcomp lex
Ġmen or
Ãłm ica
Ġfamili ars
Ġp on
ili b
Ġc ant
gu eu
la s
ur g
Ġelec toral
ĠPot ser
U R
Ġs ac
on Ã¨s
gu era
Ġdi v
Ġan tic
Ġtrans form
Ġsec ciÃ³
l en
Ġc Ã²m
ĠCa mb
ÃŃs sim
Ġtan car
lle u
ĠC ab
ĠF esta
Ã¨g im
h um
l em
is cal
fica cions
g aciÃ³
in y
Ġcal end
Ġvac ances
E x
ĠA renys
Ġoc tubre
Ġocas iÃ³
er al
Ġque den
ap renentatge
Ġden unci
Ġmiss atge
Ġpret Ã©n
b ia
Ġp eix
Ġv ot
ĠR od
du ra
it ges
ĠD em
ig Ã¼es
Ġpregun tes
Ġacos tu
r us
en ca
Ġb iblioteca
ica ment
ĠServe is
Ġg ens
Ġex posiciÃ³
du a
Ġvol gut
Ġad qui
Ġcamp ana
Ã²n im
cis ament
Ġj usti
Ġacc Ã©s
ĠdemocrÃł cia
2 5
lic at
Ġse x
Ġdel eg
ĠF igu
Ġsitu acions
Ġpeti tes
Ġd alt
Ġcon duc
Ġsol uciÃ³
ĠÃ¨ poca
ĠGrÃł cies
Ġv aria
Ġcomp ro
ĠĠĠĠ ĠĠĠĠ
ar ques
Ġf ont
ĠG al
Ġap orta
v ic
Ġnom s
Ġop cions
Ġtrobar eu
Ġag ents
Ġdisc urs
Ġclar a
Ġd ra
av or
ĠPod em
e diciÃ³
Ġt ret
Ġre quer
Ġg al
si ble
ĠCon grÃ©s
Ġnorm ativa
Ġgas tr
Ġp Ã¨r
Ġv esti
Ġper fil
la b
Ġpres ents
ven il
Ġdefens ar
Ġindepend entis
Ġdesta ca
ĠMonts errat
) ;
ĠT rans
Ġtra ves
Ġten int
ĠÃº nic
ĠSeg ona
Ġmed ia
ĠMaj or
Ġrec ollir
Ġvalenci Ãł
Ġf aran
Ġdi Ãłleg
oc al
Ġpers pec
Ġvisi tants
e bre
os ofia
ĠB at
ĠcrÃŃ tica
h es
Ġcons tant
Ġinici ar
en at
Ġt r
Ġr at
Ã¨ x
Ġtel Ã¨
ĠhistÃ² rica
Ġdeci sions
ĠJu an
h t
ĠM Ãºsica
que ta
19 9
m ig
Ġp ena
Ġca ure
ona ment
Ġpre vist
ess or
201 8
Ġdom ici
t ells
ĠP ass
ĠR Ãłdio
Ġent rada
ĠÂ ¿
oll it
Ġpossi bilitats
Ġrecup eraciÃ³
Ġorigin al
Ġin tegra
ca mp
Ġha guÃ©s
Ġvol eu
Ġcomen Ã§at
Ġmant Ã©
Ġconsid er
ra s
Ġens eny
ĠPer s
ĠPS OE
Ġresol dre
Ġx if
Ġnecess Ãłria
Ð ¾
is sions
ĠC osta
ĠM ag
Ġcli ent
Ġmalal tia
Ã¨nd um
Ġcin qu
es tre
Ġm ad
Ġman ca
Ġesc ola
Ġhab itants
E L
ĠS ense
Ġj ard
l ine
en atge
Ġm ir
Ġqu asi
Ġe ina
ĠI mp
iÃ³ s
Ġcient ÃŃfic
un cia
Ã¨ xit
ren y
Ġreg al
Ġim me
Ġllen gu
Ġhum ana
ĠCiu tat
Ġsop ar
Ġp ess
si gn
Ġparticip at
tis me
Ġmor ir
e uros
Ġm irar
Ġre ci
Ġb any
ter es
Ã²n oma
Ġpublic ar
Ġa tenciÃ³
Ġs ot
at ori
Ġcomp ra
ris tes
Ġcre at
Ãłn ic
Ġmun dial
Ġapro xim
gat z
ĠMun dial
Ġm Ã¨t
Ġap un
ÃŃt ols
Ġp itj
Ġs Ã³c
re z
Ġb ol
ĠT ribunal
Ġjug ador
2 4
I Ãĵ
Ġpar ella
tin er
Ġvol er
Ġcor rup
pany ol
Ġrespons ables
Ġreser va
udio vis
Ġs essions
Ġf rac
Ġdel ic
id or
Ġdon ant
tim es
cid ent
Ġprogra m
Ġdispos a
rg ell
xill erat
Ġn aix
Ġseu es
Ġpo ca
Ġpo di
os ament
Ġan glÃ¨s
rer e
Ġtrans par
ĠconseqÃ¼ Ã¨ncia
ĠXavi er
Ġde par
Ġt esti
Ġt ru
Ãº nica
ĠCorn ellÃł
l Ãł
v ÃŃn
Ġf itx
ĠP o
Ġprim Ãłria
Ġsoci s
Ġqu ants
ĠN e
Ġinter venciÃ³
j ant
in ari
ĠJ un
Ġsin dic
Ġmili tar
Ġcompeti ciÃ³
f ranca
ig a
fer Ã¨ncies
t ri
Ġpre veu
Ġconsul tar
Ġvesp re
Ġc ru
tu als
eix o
ĠJ ap
Ġr on
obre ix
Ġr Ã¨gim
Ġpermet re
Ġobli gat
Ġmira da
em anya
Ġar gu
fici na
ĠPla Ã§a
Ġprofess ors
Ã²r um
Ġconn ec
Ġv osaltres
tar an
Ġinter Ã¨s
ĠO c
Ġent en
tÃłn cies
Ġel e
Ġh tt
Ġtin dre
Ġdif usiÃ³
Ġel les
Es glÃ©sia
Ġprop is
Ġfes tival
l ement
Ġmitj a
Ġactu als
cal des
Ã¡n chez
Ġcomerci al
Ġinvestig aciÃ³
c el
it em
Ġcom erÃ§
ĠA g
mat eix
ĠP ort
lus tra
ĠMa tar
ĠRep Ãºblica
D es
gu essin
Ġamb iental
Ġin dica
Ġe vol
Ġpar ell
. ,
r ants
Ġa juntament
Ġv int
Ġcon ferÃ¨ncia
Ġtra jec
ari en
Ġnaveg aciÃ³
j ament
Ġel Ã¨ct
Ġar tistes
Ġproc edi
Ġempres ari
Ġmanten iment
ĠVil anova
v as
Ġ ompl
Ġper tany
all ar
... ]
ĠQ ui
ĠcanÃ§ Ã³
ora ment
Ġcor re
Ġllen gÃ¼es
espec tac
I M
u rien
Ġesti gui
Ġper c
Ġb oca
ĠF ont
Ġpa ti
Ġped ra
Ġcon di
ĠO b
Ġsil enci
Ġdomici li
vent ut
ocup aciÃ³
EN T
Ġrelacion ats
Ġfre qÃ¼
f ÃŃ
on ats
âĢ Ķ
Ġdi versitat
ul ari
Ġpermet en
ĠmÃłxim a
ĠC UP
ĠS Ã¡nchez
Ġesp era
Ġresul ta
Ġeduca tiu
' ,
r Ã³
es querra
Ġcon jun
ac om
fic ats
Ġlli ga
Ġfor ces
Ġte us
Ġaut ors
Ġbar re
Ġparl ant
Ġci Ã¨ncia
c en
og le
esc ol
Ġprop era
Ġpropi eta
ĠPal ma
Ġrelig i
Ġglob al
ĠD iss
Ġenti tat
Ġen ca
Ġe dit
ĠU r
ĠPro f
Ġcapa Ã§
Ġdecid it
Ġinterna cionals
ĠespÃ¨ cies
u ti
u ri
ĠM ir
ĠD is
Ġma pa
Ġfin anÃ§ament
Ġtradi cionals
ĠFac ultat
Ġd o
Ġn Ã©ixer
it e
Ġan teriors
Ġpla y
Ġinici al
Ġinten ciÃ³
C AT
Ġf en
ĠB as
Ġni vells
Ġdem Ãł
Ġprotagon istes
Ġresol uciÃ³
ia s
Ġar quitec
Ã²s it
Ġdedic at
om s
ri ques
ĠR ip
Ġinter ior
ĠÃł rees
g Ã³
or aciÃ³
Ġen llaÃ§
tat ges
Ãº ria
ed Ã¨s
Ġma g
T V
d el
Ã² graf
ĠT el
Ġvi atges
Ġ7 0
tÃłn cia
ĠMal grat
gatz em
ĠL i
Ġfin anc
ns it
Ġconcep te
R A
p ot
ist ent
alitz a
Ġsegu int
Ġx i
Ġinten tar
Ġconsci Ã¨ncia
Ġdific ultats
Ġ ÃŃn
Ġman eres
ĠIn f
Ġmal a
Ġsuper ar
ec uciÃ³
ran a
Ġmar ge
ĠO ri
Ġespany ols
Ġren di
Ġv el
li quen
Ġvis ites
Ġhum Ãł
ĠPod eu
Ġexper im
Ġc ura
ĠS om
ĠEs tÃł
itu d
ĠAn dorra
Ġconegu da
Ġespectac le
Ġagaf ar
6 0
g les
w it
gu is
Ġre ac
ĠR ic
ĠCi Ã¨ncies
Ġrecol lida
Ġa ten
ĠD ret
Ġll o
Ġcar reg
Ġmar es
Ġneg re
ĠTer ritori
cin di
Ġespectac ular
Ġrefug i
Ġ @
Ġf la
ac tes
Ġres um
Ġpre us
Ġpo eta
Ġorganitz ar
Ġleg al
ĠVila franca
Ġsur t
Ġdefini tiva
E U
e ques
s ia
in terior
Ġcon form
eix in
Ġpod reu
Ġ[ ...]
ĠA f
Ġconver tit
Ġcontemp or
m i
Ġp end
ĠC urs
ĠD om
Ġurb an
c k
Ġde tec
os sa
ra b
ĠB la
Ġcar rera
au di
Ġfran qu
Ġcalend ari
Ġm el
Ġv ots
ĠC opa
ĠS erra
ĠR ob
Ġconc ret
Ġgener aciÃ³
Ġro d
ĠtÃ¨c nics
Ġfonamen tal
B arcelona
or g
or at
Ġg o
Ġdis capacitat
Ġlleg int
Ġbus ca
Ġregid or
Ġperman ent
e val
es os
er tura
Ġre duir
ab s
ĠN ord
Ġrefer Ã¨ndum
ĠgratuÃ¯ ta
ĠPen edÃ¨s
e ja
er os
Ġm era
Ġv ent
Ġn arra
Ġpre ten
Ġcamp s
ĠMan lleu
ĠSoci etat
Ġcur t
Ġperiod ista
qu ina
ĠP res
Ġsegu iment
Ġtan ts
jo y
ale tes
Ġestabl ir
ĠfÃŃs ica
ĠPolÃŃ tica
T A
h em
Ġcom mem
Ġqual i
Ġesdeven iments
Ġllengu atge
I L
Ġc ita
ar e
li Ãł
Ġdes per
Ġseg les
Ġfun cions
Ġdoc umentaciÃ³
igu al
Ġtas ques
ĠO n
Ġsens aciÃ³
Ġ200 6
Ġtecn ologies
p l
Ġf u
ĠP e
rÃŃ em
a y
Ġf eu
Ġcol la
Ġinc re
Ġtar ge
Ġpleg at
Ġinau gu
ĠpÃ¨r dua
ĠD ani
Ġcomp tar
Ġvi uen
Ġ19 5
Ġinform a
ecu tiu
Ġmob ilitat
arrib ada
Ġfon ts
b ar
Ġap ren
Ġdesc ans
Ãłs tica
lec tius
Ġbas es
j udi
ĠE L
Ġre forma
Ġe ducaciÃ³
dar ia
Ġafeg it
. âĢĿ
Ġ ol
ĠF il
Ġtar dor
en Ã§a
Ġde talls
Ġn en
ri Ãł
ĠP opular
ĠM ic
ac cep
rÃł nia
Ġesde vin
Ġpopular s
ĠMen orca
ĠE S
ud it
Ġdist ribuciÃ³
p o
ta dor
Ġen rere
ran i
ric ultura
ron tar
vestig aciÃ³
ĠComun itat
Ġfru it
Ġexclus iva
ĠMatar Ã³
or ar
is tat
ter n
Ġoc t
Ġocas ions
Ġvo tar
Ġaprofi tar
Ġquil Ã²
E D
i res
j ol
ĠE RC
era da
Ġan iversari
tÃł ria
Ġcompl ir
Ġprotagon ista
Ġasseny al
e fec
Â º
im entaciÃ³
ex erci
pr om
Ġorganitz aciÃ³
ĠRa joy
h otel
Ġ ordin
Ġa tor
ĠL A
Ġcons ta
Ġreg istre
wit ter
ell Ã³
Ġfin es
Ġpla taforma
Ġproper s
Ġpromo ure
ĠEtique tes
Ġa vis
Ġh er
ĠEl l
ter is
arcel on
Ġmen ors
xim itat
ĠActu alment
it o
ĠP ir
Ġfer ro
ord Ãł
Ġproc la
Ġam ic
4 0
t ro
Ġm ent
Ġf ant
ob li
Ġlli ura
Ġadministra cions
Ġsosten ible
ĠT ur
Ã§ al
rib uÃ¯
Ãłs ter
aj uda
ĠqÃ¼esti ons
j ud
u blic
Ġc Ãł
ĠL o
tan s
mp lia
Ġan ava
Ġll ui
Ġdis tin
Ġter mes
alitz ats
enci als
Ġreg iÃ³
Ġdist Ãłncia
cle ta
an itat
ĠR el
Ġpa tir
Ġpol icia
men ys
ĠAn dreu
Ġop ciÃ³
Ġveh icles
s in
Ġf id
de ven
ĠEs per
eb o
Ġrep te
ĠDon cs
ĠtelÃ¨ fon
Ġv ins
ĠMan uel
Ġconflic te
Ġderro ta
Ġindustri al
k s
ed it
am eric
Ġdarrer e
Ġsum ar
c ula
f ons
Ġes tiu
ĠM e
Ġprepar ar
an Ãłlisi
Ġin cid
ord re
Ġass oci
Ġperson atge
Ġbl an
Ġresid us
licitu d
I U
m ana
Ġde pend
Ġcomp liment
tad ors
Ġdoc tor
Ġorganitz acions
Ġafeg ir
op ortunitat
Ġpo ques
Ġdispos i
Ġmus eu
ĠInter net
ĠValenci ana
os itat
Ġre gi
ĠT rob
Ġac us
Ġar r
hi vern
Ġ9 0
Ġsimp le
) :
Ġpro vÃŃn
Ġca vall
av era
Ġpaga ment
C O
e qui
n is
el abor
ass ociaciÃ³
Ġtin guin
Ġlle is
lec tual
Ġqu ines
ent ura
Ġf lu
Ġpro ximitat
tic ar
Ġpe da
Ġtrans c
ES O
Ġind Ãºstria
f e
Ġs ug
ĠA juntament
Ġab ril
ĠPar tit
Ġplant es
ĠrÃł pid
Ġmalal ties
Ġnove tats
d ers
es til
Ġh otel
ĠC la
Ġsol a
Ġad op
Ġactu aciÃ³
Ġcla us
Ġide al
Ġdeclar acions
ĠSab adell
Ġextra ordin
Ġtrajec tÃ²ria
Ġi s
it Ãł
ĠP ri
Ġcons truÃ¯
egu da
Ġplant ej
Ġtext os
Ġdestac at
Ġeta pa
i o
si tat
Ġmateix es
ĠTer res
á ĥ
Ã¨ cia
ĠT oni
Ġcomp on
Ġben estar
ĠSal vador
idar itat
Ġ Ãłnim
gu des
ĠS u
jec tes
gun es
Ãłr rega
Ġint era
Ġrelacion ades
H ospital
m er
Ġal es
us siÃ³
ĠS or
Ġdi men
ĠF ar
Ġsec und
Ġmarc at
Ġassegu rar
Ġcorrespon ent
Ġvisc ut
ĠMartÃŃn ez
Ġpitj or
Ã īs
Ãł tic
Ġx oc
onÃ²m ic
Ġpresent en
Ġc Ãłn
ĠM itj
Ġinter p
Ġrep tes
Ġins tru
Ġrel at
Ã¡n dez
ĠconseqÃ¼ Ã¨ncies
oti di
op osiciÃ³
ren ed
Ġtreball en
Ġguany at
Ġcirc ums
m ad
en llaÃ§
Ġm ass
Ġe p
Ġpl ani
Ġmovi ments
Ġsolu cions
Ġa tur
si l
Ġar ran
aix Ã²
Ġdu el
Ġpri vi
Ã± a
a juntament
t Ã²ries
Ġb ut
Ġcre ure
ĠCom arcal
ĠDes envolup
ĠRe us
Ġqu ins
Ġes forÃ§
Ġb ot
ĠJ unta
Ġfe ien
ion ar
Ġregu lar
ĠGo ogle
ĠFigu eres
A renys
m ac
Ġcal or
Ġam or
ĠeconÃ²m ics
Ġnorm al
Ġcandi dat
ĠFel iu
S S
Ġp ic
ti gi
ĠC lar
ix es
ques ta
Ġac um
ener gia
Ġass istir
Ġpor tal
Ġpe us
Ġa trac
am ar
Ġconc erts
Ġver ita
evol uciÃ³
ĠtrÃł nsit
Ġimpres cindi
Ġassol ir
8 0
l tima
ar da
Ġf ron
di ques
ĠT ant
Ġ3 5
Ġmod els
Ġop ortunitat
Ġpropos a
Ġconser vaciÃ³
Ġdol or
Ġsecreta ri
m issiÃ³
ĠF ab
Ġpe Ã§a
cid ental
ros s
Ġa tac
Ã² lic
ĠP le
ones tir
Ġter reny
Ġte at
ĠPro gra
ĠPob la
ÃŃ fiques
Ġimp lica
Ġcon ten
ur at
Ġac ciÃ³
Ġcomp tes
ĠCar los
Ġtorn at
ros sa
Ġbo ti
Ġidenti tat
Ġrob a
Ġcam ins
Ġabsol uta
Ġdedica da
r als
Ġvol um
Ġmig dia
An dorra
S i
al g
Ġv ide
Ġins c
Ġcompet Ã¨ncies
ellot ge
G T
p at
Ġd ob
Ġqu otidi
Ã² l
ĠS ub
ĠD esc
ĠB al
ari ciÃ³
Ġmen j
tany es
lab ora
A ra
d on
Ġpre ci
arÃł s
Ġexp res
Ġarrib en
Ġav an
Ġrealitz aciÃ³
Ġevid ent
ĠDirec ciÃ³
ĠValenci Ãł
n gel
Ġt es
Ġf arem
Ġcom arques
Ġutilitz a
Ġfre d
can vi
Ġ ï¿½
un di
Ġpro duir
Ġpod rien
ĠEs tat
ĠH er
at ÃŃ
ĠG er
Ġfa ig
Ġar que
ĠPro tecciÃ³
Ar t
Ġdirig it
ĠâĨ Ĵ
C on
Ġ &
Ġp et
Ġf ic
ĠE ra
ac onsegu
tr at
Ġdis f
ĠLleg ir
Ġdorm ir
prom ÃŃs
on ia
Ġsin gular
form es
Ġju venil
Ġinteress ants
Ġdom in
Ġjun ts
gres sos
Ad ministraciÃ³
P A
p ir
Ġd ot
Ġva ix
Ġpol ici
ĠAl s
Ġrecon Ã¨ixer
Ġestar Ãł
Ġâ Ĥ¬
Ġconven i
Ġsuc ce
ĠSup erior
fÃŃ cie
Ġpeda g
ĠM u
Ġpre cisament
Ġcomun itats
Ġaut Ã¨n
Ġorganitz ada
vell es
inter ess
ĠVa ig
ĠReg ne
Ġconflic tes
l el
Ġeduca tius
c ons
Ġin dre
eg ant
tin s
Ġpa g
Ġcos tu
In ter
Ġindepend ent
ĠÃºltim es
ĠXI X
O T
b an
Ġha gin
Ġf iscal
Ġen lla
ĠS r
Ġte ves
Ġsec tors
vat ori
Ġcon dem
ĠG estiÃ³
Ġcons isteix
am ÃŃ
Ġgener als
AC IÃĵ
Ġt eix
Ġes til
Ã¯ tat
Ġmes tres
pi ra
Ġnorm es
Ġobjec te
Ġsuc c
gu ard
og a
Ġins cripciÃ³
Ġpro du
ĠI C
Ġtra ducciÃ³
Ġass ociacions
Ġest ona
Ġanomen at
2 1
A g
es ca
Ġentre vista
Ġve iem
ĠnÃº vol
Ġdura da
Ġ oli
Ġm Ã¨
Ġres tes
ĠH an
Ġcri da
ĠW eb
Ġserv eix
Ġfom entar
ost os
all s
Ġpre venciÃ³
Ġass istents
ĠX ina
Ġinicia tives
ĠFer ran
ĠCat ÃŃ
- ,
ent es
Ġpro voca
ul ats
ĠF ot
ĠI N
Ġnecess aris
Ġdom ini
Ġdub tes
Ġmob il
Ġir re
ĠPed ro
Ð µ
ĠP Ãº
Ã²n ic
Ġmal ament
Ġnecess Ãłries
ti ts
ti rÃł
it y
Ġcon juntament
Ġcomp os
Ġcomp ren
Ġtrans formaciÃ³
Ġprincip alment
ĠSer gi
exp ressiÃ³
ĠJust ÃŃcia
Ġa udiovis
al guns
ĠA qu
Ġb omb
Ġan tiga
Ġon line
ĠÂ ¦
Ġporta veu
ĠSegu retat
Ġmot or
Ġen carreg
Ġen viar
Ġun itat
Ġin j
Ġcap davant
Ġpr on
Ġlle ug
Ġresta uraciÃ³
ĠF re
Ġfil osofia
ciona da
Ġcomerci als
Ġvari etat
Ġclassi ficaciÃ³
2 7
a ti
Ì Ģ
ĠT ar
Ġimp ar
Ġsitu ada
ĠprÃłctica ment
Ġajuntament s
Ġi ta
or is
la des
all er
Ġtan ta
Ġw ww
oll ers
Ġmanif esta
ortun itats
alu aciÃ³
O lot
Ġf orn
Ġv et
ri ls
ÃŃ g
Ġre talla
ĠI m
ĠH um
Ġcol l
Ġra ons
ĠÃł mplia
ĠRec ord
n er
da c
ĠB adal
ĠR af
ĠG av
Ġpens ament
Ġperspec tiva
I R
a ma
Ġha urien
ita ris
ĠIn d
ĠIn depend
Ãłr dia
Ġcapa Ã§os
es tan
Ġv ess
Ġal i
Ġpro ve
Ġtan tes
Ġgener ar
Ġcul pa
Ġceleb rarÃł
Ġref lec
Ġmanif est
ĠquilÃ² metres
j os
Ġel ement
ĠE ducaciÃ³
Ġre per
ĠM ossos
ĠT ri
any es
ĠTot es
Ġgol ej
Ġindivid ual
Ġgesti onar
A m
g ada
r Ã©
Ã Ī
Ġt ut
Ġf als
gu ll
Ġb arcelon
Ġin g
ĠS empre
Ġpro ba
Ġdirec ta
Ġefec te
Ġcomple ix
Ġcadasc un
o re
es forÃ§
li m
Ġve us
Ġvig ent
Ġord re
Ġf ol
li gÃ¨ncia
ĠT ort
Ġpres siÃ³
ĠCas al
Ġterritori al
Ġeduca tiva
Ġperm Ã¨s
i ents
Ġin vesti
ĠL on
Ġha uran
Ġcons enti
ĠLl en
ĠhistÃ² ries
ĠCent ral
ÃŃssi ma
Ġplu ja
espectac le
ebo ok
Ġc og
Ġb and
et re
ada p
ĠU R
Ġform ulari
Ġmin ut
onÃ²m ica
Ġexemp les
Ġsent Ã¨ncia
ĠVic ent
Ġde tall
at Ã³
ĠF C
Ġman tin
que tes
ĠCon f
Ġrealitz a
Ġmedi eval
dem ont
f Ã¨
Ġa u
Ã² rica
Ġo per
ĠS eny
ones a
ĠMar ta
Ġtin dran
Ġapro vat
Ġlleg it
Ġnete ja
Ġdepar tament
E ns
d ol
Ġt emÃłtica
ĠEs te
Ġor gan
fici al
ĠLl or
cep ciÃ³
Ġestudi ar
er op
Ġc ic
ur ants
il s
ter ia
im ag
Ġob tin
Ġcomple ta
Ġgar ant
ĠvÃł rem
Ġg aletes
ĠT i
op ciÃ³
lar s
Ġfor en
Ġobli ga
Ġcli mÃłtic
Ġxerra da
o ciÃ³
Ġa sc
Ġl u
ci als
ĠC Ãł
ĠS E
ens enyament
Ġmes tre
men tat
Ġdedic ar
Ġbenefici s
Ġcient ÃŃfica
Ġp acte
Ġes for
Ġb reu
Ġr os
all Ã²
Ġpl ats
ĠMar e
ĠMol t
Ġsum a
ĠLli ga
m ant
Ġs ang
Ġes te
oci tat
ex iÃ³
Ġconsid erar
Ġrecom ana
ĠAb ans
es deven
Ġac tiva
ĠV is
ĠPuig demont
Ġconta min
2 3
ci ls
ti cip
âĢĻ .
in al
ri ts
ĠD r
ĠN av
Ġpass en
Ġter ror
Ġcor rent
Ġam ena
esp ort
Ġceleb rat
201 5
Ġsimp lement
ĠvÃŃc times
ĠBadal ona
I V
g ica
ic al
Ġal eg
ĠT al
ĠU N
Ġveg e
Ġbas tant
Ġutilitz aciÃ³
ER C
Ġbell esa
Ð °
ĠS obre
ĠEs ta
Ġdis min
ina m
ĠO li
Ã²n ies
Ġparticip a
Ġam eric
ĠÃº ltima
pe z
Ġsuper fÃŃcie
Ġfil la
U na
in depend
gu st
Ġre ducciÃ³
ĠT om
Ġdem anda
Ġmaj ors
Ġbo tiga
ĠAut Ã²noma
er ies
ĠS itges
Ġdes car
Ġint ens
Ġden om
Ġcot xes
isb e
ĠclÃłss ic
O b
f rica
Ġtreball at
Ġdesc omp
ll at
Ġpens at
Ġnecess iten
Ġprepar at
Ġconser va
ĠPr incip
Ġcorrup ciÃ³
at ur
ĠS in
ĠS ud
Ġe qu
rim ir
ex istÃ¨ncia
tÃł lia
Ġent ra
Ġapro var
no vaciÃ³
labor ar
Ġdeclar aciÃ³
Ġdemost ra
Ġmer eix
Ġnaix ement
P C
Ġt ÃŃp
ac o
ĠV I
Ġpens o
Ġdemost rar
Ġafir ma
f era
m un
u alment
ol o
Ġes ca
Ġre vis
Ġpar al
fer m
Ġesta d
Ġfor ta
Ġdarrer es
Ġvul gui
Ġfra g
Ġer r
Ġmasc ul
Ġd ut
Ġal em
Ġg el
ĠM od
Ġser i
Ġsab en
and o
Ġrefer ent
Ġobli dar
Ġeuro peu
ĠPrim era
Ġmil ers
ĠMor ella
ĠForm aciÃ³
b e
ia da
Ġesta bli
Ġespeci als
Ġcri teris
Ġespec ÃŃfic
Ġpin tura
ĠComun icaciÃ³
Ġsorp resa
ĠavanÃ§ ar
U rgell
Ġf eli
Ġh Ãłb
ĠC re
Ġcon v
ĠAl guns
Ġmarc ar
ĠRip oll
f es
h ar
Ġp ont
Ġes tats
Ġpro tes
ad re
Ġpermet rÃł
Ġdiv ul
Ġales hores
Ġproba blement
U N
ĠS ar
tiv ar
Ġvic tÃ²ries
Ġlabor als
4 5
g or
l lar
ĠT Ã©
Ġsi mb
au rada
Ġdeix em
esp eci
aqu ells
ĠSet mana
quad ra
ĠDesenvolup ament
Ð ¸
Ġf ug
ĠP D
Ġdi vid
tes a
Ġpar rÃ²
Ġpos ici
Ġor i
Ġvost Ã¨
ĠPrim er
Ġport en
lÃŃc ules
Ãłp ia
c or
e des
Ġa tra
an tic
ĠM et
ĠM Ã³n
Ġpre vis
fica da
ĠRec erca
def els
ĠNat ural
e vi
ĠCom erÃ§
ien tals
Ġri ques
Al t
Ġvin ent
Ġmed iter
Ġsorp ren
ĠTort osa
E c
P S
Ġ tirar
el com
al i
Ġpro dueix
itat ges
ĠCom promÃŃs
ador es
ĠCar me
ĠelectrÃ²n ica
Ġvul guin
Ġmusic als
Ġcontrac te
Ġimpos sible
Ġequi pa
Ġpub licitat
ĠTan mateix
Ġc ans
on dre
re tes
âĢ ĺ
Ġen vi
ĠA hir
ĠS el
Ġe dat
li des
Ġdi ri
Ġ3 00
esc enari
ĠAn na
m os
en g
ol ar
ĠC oll
Ġdi aris
ĠV e
Ġr ural
Ġent rades
ĠCer d
p ass
Ġdi g
Ġan ual
ĠEs pa
Ġsitu a
Ġcop s
aqu ell
Ġeurope us
Ġpodi en
da d
ĠC D
Ġre cap
Ġpar lat
ven ir
ĠAl tres
versi ons
Ġtorn ada
201 7
Ġlec tors
ĠVall s
Ġobjec tes
b it
ĠP Ã©
ĠM es
Ġpar ar
ĠD os
Ġparti da
Ġlli ures
Ġco di
ĠGran ollers
o x
en guany
Ġla s
ĠA C
Ġno ti
Ġe ts
Ãº p
emp or
Ġ20 00
Ġveu en
ofer ta
Ġinno vaciÃ³
Ġquar ta
xi us
Ġm ur
at er
ĠC rist
Ġha v
Ġfa Ã§
du es
Ġsegu rament
ap ariciÃ³
ĠPar ÃŃs
Ġ200 5
ĠEuro peu
Ġigual tat
ĠdemocrÃł tica
ĠRei al
, ...
y es
Ġl og
in form
is tit
ĠP ens
ĠB ern
ĠR oc
Ġcons ens
ed ral
ĠIn formaciÃ³
Ġvis tes
via ment
Ġparticip en
ĠDe f
Ġdec ret
ber g
Ġmet od
ala guer
ĠConstitu ciÃ³
O c
o w
t oc
Ġt ros
ĠC reu
it ors
Ġcom issiÃ³
Ġin n
Ġpers egu
Ġactu ar
Ġmanif estaciÃ³
ĠContin u
Ġhtt p
Ġa igÃ¼es
Ġl Ã²g
Ġf lor
ol lida
ĠC u
Ġb ru
ĠM igu
Ġpro vin
ell er
ha vien
am Ã³s
ĠIn ici
Ġacompany at
Ġprofessor at
Ġuniversi tats
h istÃ²ria
Ġm ida
Ã³ pez
ĠR oca
Ġad olesc
Ġag ost
h n
an omen
ĠP rom
ĠA pro
Ġha ur
Ġdes carregar
ss ia
Ġcar b
Ġpor tat
Ġsal uda
Ġcomun icar
Ġurb Ãł
Ġlliura ment
m oni
en o
ta s
Ġrec ent
cion ari
ma gatzem
Ġdifer Ã¨ncies
Ġsor tit
ĠCi U
er atura
ar quitec
in er
ul t
Ġan alitzar
Ġall ot
Ġdeman at
Ġvalor ar
ĠlÃŃ mits
Ġinstitu ciÃ³
2 8
Ġc ens
ot els
eg ar
Ġesp ort
ĠCa ixa
Ġresta urants
ĠCastell defels
Ġ os
ĠE N
ĠL Ã³pez
ĠS eu
Ġe tique
pr Ã¨s
Ġcal drÃł
Ġhom enatge
Ġespor tiva
Ġconven Ã§
Ġconvi da
Ġproteg ir
elabor aciÃ³
es tal
Ġi gn
ci tats
Ġser vid
crip cions
Ġemo cions
Ġd ansa
ĠM ill
Ġpres tigi
ed eix
ug at
Ġdeix ant
ĠAr t
Ġconver teix
Ġgerm Ãł
Ġn asc
ĠM il
ĠT Ã¨c
Ġan tics
tor is
Ġ4 5
Ġlle t
Ġacompany ar
Ġnatural esa
h ist
Ġc Ãłm
Ġcon diciÃ³
ĠS im
alitz ades
Ġtan cat
pany ola
ĠAmb ient
Ġlec tor
ĠprovÃŃn cia
% .
e i
Ġv as
Ġpod rem
av al
Ġap licaciÃ³
Ġap licar
Ġimp ressiÃ³
Ġpl antil
Ġpo emes
Ġassegu rat
Ġcr Ã©ixer
hab ili
Ġgerm ans
Ġcompro var
r Ã¨s
en ament
itz ada
ĠâĢ ¢
Ġesta bleix
ĠmÃºs ics
Ġeuro pea
Ġexerci r
Ġrespon dre
ĠMin isteri
Ġimme dia
d ec
l is
an tiga
or ci
Ġal menys
it Ãłries
ĠP R
ĠL ocal
Ġdes g
ĠT orre
ĠR og
Ġma tin
Ġtran si
Ġdesc rip
Ġro da
Ġgen era
Ġconvi vÃ¨ncia
giny eria
Ġvel ocitat
U S
Ãł cia
Ġg ira
Ġja ci
ure m
Es tudis
Ġve ig
Ġbaix ar
Ġassegu ra
osp ita
ĠMigu el
Ġa gu
on e
Ġaf avor
Ġpas siÃ³
ĠAr rib
m ats
Ġc lic
ti ment
Ġt orre
Ãł lia
Ġal li
ĠA si
ĠD u
Ġinf ra
estruc tures
Ġcompet Ã¨ncia
Ġtend Ã¨ncia
ment era
Ġdi ent
Ġpob lacions
Ġofer ta
Ġ9 3
Ġdescob ri
Ġart ÃŃstica
ĠGra u
Ġpaci ents
ĠJorn ada
Ġnuc li
d Ã³s
Ġal iments
Ġre ti
va cions
ĠB alaguer
Ġtan ca
Ġfaci n
Ġdesp eses
ww w
Ġconsenti ment
g ats
l um
ĠC in
Ġcons truc
titu ds
Ġcanvi at
Ġproper es
l Ãłn
v ang
ĠT res
ĠN osaltres
Ġesp erar
ess orament
Ġaix ec
Ġpeti ciÃ³
vin guda
Ġparl em
O P
d om
e va
Ġi gu
ĠT ecn
ĠG arc
ig n
Ġcomp let
cion alitat
Ġad ults
anÃ§ ar
voc ats
ON S
esper it
exerci ci
Ġs ou
ĠEl ec
gra m
Ġsol idaritat
Ġapar eixen
ĠeconÃ²m iques
ĠLleg eix
ta ble
Ġun iversitat
ĠM entre
Ġrec urs
op iniÃ³
Ġpos ant
Ġsu ficient
Ġregu la
Ãºl tip
ĠPat rimoni
5 00
I F
i bles
Ġc im
ĠR oma
ĠV ia
Ġdis cipl
Ġdesenvolup at
Ġmost ren
Ã²p ia
Ġrecon egut
ĠPal amÃ³s
Ġofici als
Ġesti guin
Ġposi tiu
Ġlim ita
Ġinterpre taciÃ³
Â Ń
ĠS embla
tu a
Ġcomp orta
rÃł s
Ġja p
Ġpl ans
Ġdisc rim
Ġvul n
ĠFer rer
ĠGav Ãł
2 6
A v
Ġv all
Ġpos en
ibliot eques
Ġrelle v
Ġinver siÃ³
l let
t ric
ent ren
Ġv ell
Ġv id
Ġob ertes
Ġtemp eratura
Ġciutad ana
Ġfac tors
Ġempresari al
. )
n ou
Ġqu elcom
Ġf ed
Ġes tre
ĠS osten
ĠUn iversi
Ġsegu eixen
Ġx ic
Ġam unt
Ġcont Ã©
ĠGu ill
Ġas sign
lici tar
ĠbÃłs ics
Ġimprescindi ble
0 5
c Ã³
Ġp op
on als
Ġt em
ĠC E
ĠS on
ĠV ir
fer s
Ġcamp ionat
Ġtri ar
ĠMol tes
Ġexper ts
Ġmiss atges
ĠFor mentera
Ġfelici tat
m Ã©s
ar ro
Ġi tiner
on z
ent endre
ĠP resident
us tr
Ġpro duÃ¯t
ut ri
im enta
Ġ201 9
reg ist
Ġcli ma
ĠConsell eria
Ġimm ig
Ġesper em
ĠRub ÃŃ
ĠDec ret
gu eren
ĠP Ãºblica
ĠD ra
ĠF on
emp reses
ĠEs por
ĠMar es
Ġsub sc
Ġbar ris
Ġdispos ar
Ġvisi tant
ĠCamp ionat
Ġcomple tament
Ġcadasc Ãº
Ġmec an
Ġreivin dic
Ġedifici s
Ġcircums tÃłncies
ĠLon dres
Ġs enc
le ts
Ġesc al
Ġinc los
Ġcat Ãłleg
Ġdefin ir
Ġesfor Ã§os
ĠAsi Ãłtica
ti g
Ã² f
Ġg est
ĠL eg
ĠEn ric
Ġter ri
ĠO p
Ġte oria
imp acte
ĠrÃł dio
Ã³r m
ĠContin ua
ĠUR V
ĠPÃ© rez
A b
i e
v era
ar reu
Ġv ora
ĠM ob
te d
ĠSan ti
ilib ri
! .
z o
om un
Ġb u
us s
ob ser
tan ta
Ġcontra s
Ġpla er
Ġdirec tora
sc o
ĠvÃŃde os
Ġselec cion
Ġcontribu ir
Ġdiri gida
Ġr ere
Ġdeix en
Ġmor ts
Ã¨r cit
Ã± o
Ġcompl em
Ġperfec tament
ĠespÃ¨ cie
Ãºn cia
l ant
ar tista
Ġes tal
Ġo pos
ĠJ ocs
ĠN orm
Ġcap ÃŃtol
Ġvi es
Ġman ip
ĠCatal ans
Ã²n iques
ric te
Ġprof unda
Ġconfi guraciÃ³
Ġcompor tament
Ġmarx ar
ĠFern Ã¡ndez
Ġllo guer
x ar
ĠI II
Ġpo ema
Ġcomun icacions
ĠfÃłcil ment
Ġcreix ent
Ġposterior ment
l ista
u ig
ĠS ants
ĠR osa
Ġpres a
Ġar tes
Ġpens a
201 6
Ġsom ni
agra daria
Ġcomenta ri
titz aciÃ³
Ġveh icle
Ġtranspar Ã¨ncia
0 6
v et
Ġc erc
in ada
as a
Ġmar ques
Es pai
Ġ5 00
Ġop in
Ġtren car
Ġesdeven iment
Ġsembl ant
Ġrepresen tant
Ġfra se
ĠProgra ma
' t
el im
Ġt op
os tal
Ġen car
Ãł tics
ĠE U
Ã² tica
Ġdes f
ĠH istÃ²ria
ĠÃ ģ
ing s
Ġnorm a
Ġconcep tes
Aques ta
Ġrelle u
acom pany
efec te
erop ort
A p
Ġd inam
Ã² ric
ĠT o
ĠG r
des a
ĠH ist
Ġpass eig
Ġri val
Ġpas si
Ġsig nat
ĠSer Ãł
Ġcateg ories
Ġparl en
Ġestruc tura
Ġv es
Ã¨ dit
Ġcom anda
ĠB Ã©
Ġex ac
ist ema
Ġpos ada
Ġcan al
Ġsegu ida
Ġra dic
Ġju ga
Ã¡ s
ĠgratuÃ¯ t
arrib ar
ĠÃºnica ment
Ġlegis laciÃ³
Ġjudi cial
Ġintera c
i k
Ġ Ã²p
Ġdi Ãłria
Ġdes tÃŃ
ĠD ol
ĠÃł mbit
ĠMan resa
ĠdÃ¨ cada
ĠlingÃ¼ ÃŃstica
Ġllui tar
A gÃ¨ncia
Ñ Ĥ
or ts
Ġca igu
ĠB ell
Ãº ssia
ost ra
eu re
cion alment
Ġreun ir
Ass emblea
Ġaug mentar
Ġdespla Ã§a
Ġmoder na
Ġprove Ã¯
' .
3 6
is tia
Ġre quis
ĠD avant
Ġr us
Ġcons ells
Ġprim avera
Ġall uny
Ġespec ÃŃfica
Ġtoc s
Ġrespos tes
ĠY ork
Ġinteg ral
Ġpublica cions
Ġmic ro
Ġtesti moni
2 9
A mb
U s
x o
Ġd ro
Ã² lica
Ġpro vocar
Ġac ollir
au g
Ġrep ublic
Ġfe tes
Ġmo da
ĠÃº til
Ġhab itacions
Ġutilitz ant
asc ens
Ġespor tiu
Ġdep en
Ġm Ãºltip
Ġf ir
Ġg rec
ĠT orn
ĠT Ãłrrega
Ġhi p
Ġap osta
ard o
ĠPro jecte
mar ca
Ġdin Ãłmica
Ġcaus es
Ġdic ta
Ġdific ultat
ĠSec reta
Ġconvers a
d ard
j ats
ol la
te t
ĠI gual
Ġrec ti
vi ra
ris ta
ĠDi ari
Ġprom oci
ĠPu jol
Ġvolun taris
Ġafec ta
Ġlid er
Ġbici cleta
Ġba talla
Ġinfer ior
I s
s ol
Ġd a
Ġcon voca
Ġca mb
tes i
di at
ĠEn guany
ha uria
Ġ3 6
Ġofer eixen
Ġdirig ir
ĠPrim Ãłria
Ġplan eta
l otaciÃ³
Ġi b
Ġm unt
og ia
lo u
lus ions
Ġtur ÃŃstic
ĠdÃ¨ cades
Ð¾ Ð
O B
or tar
Ġf it
Ġre als
ec ess
ĠT witter
Ġcap s
Ġmo tiva
lia ciÃ³
Ġbas at
igu es
Ġanunci at
Ġadre Ã§a
ĠTen im
ĠMerc at
ĠLu is
f um
Ġl Ãº
al ÃŃ
it Ã¨
Ġno ies
Ġe fica
ĠG ab
ĠV am
ici s
ex tre
ĠPar ticip
Ġint ent
est ran
Ġpri va
duÃ¯ da
Ġapor tar
Ġconcent raciÃ³
mor zar
ĠGarc ÃŃa
b al
ant erior
Ġcon ferÃ¨ncies
ĠB anc
ĠEs tem
Ã¯ m
Ġcontinu Ã¯tat
ĠPro c
Ġciutad Ãł
ĠlÃŃ mit
Ġvinc ula
Ġdipu tats
Ġdisponi ble
Ġevol u
ĠFab ra
ĠRog er
2 2
Ġ3 3
lec tiva
Ġconfi gu
ĠrÃłpi da
Ġverita ble
Ã¨ d
ost re
Ġar bres
Ġme ves
Ġgovern s
Ġautor itats
Ġviat jar
Ġfic ciÃ³
a ig
is os
ĠM ai
ica da
ass istÃ¨ncia
Ġpres os
Ġinform ar
Ġpregun tar
Ġindependentis tes
Ã¨x ic
Ġinterp reta
U E
d Ãł
Ġm onestir
in forme
Ġre dac
Ġex t
Ġcomp licat
ĠEs cola
na u
Ġrep or
Ġco operaciÃ³
ĠFac ebook
Ġobser var
hes iÃ³
Ġprocedi ment
n ar
in eu
la u
Ã² d
ha gi
leg is
ĠQu in
201 9
ĠPla taforma
ĠsÃŃ mb
Ġtren ta
ĠSoci als
Ġemoci onal
Ġmera vell
alg una
% ,
J o
m ina
w s
Ġd ates
gu ez
id al
ĠN Ãºria
du res
per s
Ġperson alitat
Ġ200 4
Ġrepres entar
ĠmÃ¨t ode
Ġron da
Ġfid el
C E
l and
Ġ Ã²r
Ġqu ÃŃm
Ġv ides
Ġal um
Ġb Ãł
di da
Ġpu jada
Ġesc en
rem i
Ġofer im
Ġrom an
.... ....
Ġmodi ficaciÃ³
g ol
Ġm all
in vestigaciÃ³
ĠS c
ĠS ard
li d
Ġac ull
Ġex terior
enta da
Ġsenti ments
Ġbloc s
Ġpil ota
Ġru tes
Ġexclusiva ment
undi tat
C a
e a
l atura
Â ª
Ġa tre
at ures
Ġn eix
ĠC F
ĠC ris
ob res
Ã¨n cer
ten a
ten siÃ³
ĠAr ts
Ġclar ament
ĠcÃłrrec s
Ġcadasc una
adre Ã§a
b rer
h as
Ġc m
qu ines
ĠC el
ÃŃ tim
us os
le ta
Ã¨n ia
Ġpol s
Es p
Ġmun tanyes
Ġil les
ĠJap Ã³
g al
ĠM ira
ĠEs panyola
Ã¯ lla
Ġinter net
ĠUn ivers
Ġtur ÃŃstica
Ġfigu res
Ġmodi ficar
Ġdisponi bles
ĠBl anc
ĠRi era
Ġtarge ta
Ġriques a
es pa
Ġde gut
re p
ĠA s
ĠS t
Ġpar ada
arc ar
Ġma tar
Ġri gor
Ġag rup
ĠJa vi
ĠGrÃł cia
Ġampli ar
_ _
ĠP lat
Ġac tors
Ġcomp e
Ġlle tres
ion al
ĠPol icia
Ġconsell era
Ġsur ten
Ã²leg s
Ġnombros es
Ġnombros os
Ġhav ÃŃem
0 9
c os
ĠN O
Ġimp lan
Ġform ada
ĠO s
Ġfin alitzar
Ġinc rem
Ġdesp esa
Ġrecord at
Ġpri vat
Ġdigi tals
Ġvir tu
ĠJorn ades
ĠMediter rÃłnia
Ġplantil la
o od
r y
Ġt rib
ĠG R
ĠV ella
ĠPar e
Ãłr rec
Ġbon ic
Ġutilitz at
Ġescri ta
ĠPa Ã¯sos
Ġreun ions
ĠCastell Ã³
Ġpan talla
-- --
Ġreivin dica
Ġescrip tor
Ġllic Ã¨ncia
Ġretalla des
qu eu
Ġen orm
is sa
Ġaut Ã²n
Ġpens ant
ĠMun tany
Ġmor al
Ġconegu ts
Ġnaveg ant
Ġnaveg ador
Ġespectac les
Ġrecla ma
Ġerr ors
r ari
re al
ĠC li
ques tra
ĠB ona
ĠG as
av an
Ġimp lic
ĠAn d
Ġcontinu en
Ġsembla va
Ġinstitu cional
Ġvic ep
Ġaccep tar
Ġcrea tivitat
ĠIC V
I G
g Ãłnica
à ¸
Ġ )
Ġ titu
Ġf um
Ġn er
Ġre vel
Ġb lo
Ġpres er
Ġesc enari
Ġinform e
ular s
Ġaut om
Ġven dre
Ġcandi dats
Ġaporta cions
ĠRob ert
P ar
S ant
Ġg ossos
ĠV en
Ġrec ons
Ġem bl
Ġrecon egu
Ġplant ejar
Ġcompl ement
Ġcorrespon ents
atÃ¨g ia
estr ena
Ġrepe tir
ĠrÃłpi dament
Ġdot ze
U L
U ni
u alitat
Ġ ;
Ġi di
Ġf eix
Ġper judi
Ġh onor
ĠC ugat
ĠP on
Ġb ur
Ġpro gres
Ġex ecu
im n
ins tal
ord en
Ġtemp le
Ġop tim
Ġguany ador
ĠcomenÃ§a ment
Ġsob iran
Ġaug ment
Ġaudiovis ual
J a
at e
gu s
ĠE r
Ġpro te
Ġpos em
Ġmat emÃłtiques
Ġesc ollit
fic ant
pr Ã¨n
Ġfil m
Ġcirc uit
Ġaspec te
Ġxif ra
Ġjard ÃŃ
b um
r ell
Ġes tu
Ġin dis
Ġo bre
ĠD eix
Ġj ub
ĠB lan
emp le
itz acions
Ġar ren
erm ita
Ġliter Ãłria
Ġhabitu als
Ġparticular s
Ġjur at
Ġestran y
in di
ol uciÃ³
ĠC IU
Ġe dicions
ĠF em
ab ast
all ars
Ġesc ollir
leg ir
ĠCo opera
Ġidenti ficar
Ġpropieta ris
ĠLlor enÃ§
ã ģ
al Ã§ada
in d
Ġpar lament
ĠD ades
Ãº lia
ĠG onz
Ġpod rÃŃem
Ġpass os
Ġcan ta
Ġgu itar
Ġsor tides
Ġtrac te
Ġguany a
ĠAc tivitat
ogrÃł fiques
ĠInf antil
ĠMares me
8 8
A ut
r ons
Ġm enti
Ġal iment
Ã¨ u
gu e
li g
Ãº r
Ġtra duc
Ġpl ens
Ġ3 4
Ġad ver
Ġver d
Ġimpuls ar
t ol
ra el
ĠN ot
ÃŃn s
Ġ9 7
Ġmet ge
Ġplant eja
apro vaciÃ³
hab itatge
Ġconn exiÃ³
Ġalterna tiva
Ġfen omen
e ib
o fici
Ġl uc
ĠC os
Ġg ru
id at
Ġvis ual
Ġco her
Ġpresid enta
Ġconsid erat
Ġcontrac taciÃ³
Ġconcre tament
en carreg
ĠG l
og ra
ĠJo aqu
omb ra
Ġpes ca
Ġposi tiva
ĠestratÃ¨g ies
Ġjut ge
Ġfl ors
0 4
r int
Ġl e
ĠB us
ĠF amÃŃ
Ġrec entment
ĠEs t
ess a
Ġprojec ciÃ³
ll ant
ĠfÃł b
Ġess ent
Ġg ro
Ġva ga
Ġpot enciar
Ġinc on
que ologia
Ġcomen cen
ag o
Ġpun tu
Ġna cionals
Ġnot es
Ġsum at
d Ãłc
g ma
Ġc ris
Ġm os
Ġt rim
Ã² tic
ĠN acions
Ġpos s
Ġcomun s
Ġprepar aciÃ³
Ġmarca dor
Ġdipu tat
Ġeurope es
ĠfaÃ§ ana
i ar
Ġt ÃŃtols
ĠA t
Ġdi gn
Ġac oll
ins cripciÃ³
all ot
av aluaciÃ³
Ġrespons ab
Ġleg als
ĠMol ts
Ġvalenci ans
Ġadap tar
ĠfÃŃs ic
ĠclÃłss ica
Ġinau guraciÃ³
Ġexpress ar
Ġsecund Ãłria
er na
an glÃ¨s
Ġn aciÃ³
Ã¨ p
le z
ex per
pi raciÃ³
Ġsab eu
Ġop iniÃ³
Ġverm ell
Ġmall or
D e
O ficina
Ð ½
an al
Ġel eg
Ġb r
Ġpass ej
Ġinter vencions
Ġcan tant
enci at
Ġesde vÃ©
Ġord en
Ġpressupost os
caldes sa
ĠDiss eny
ĠbÃł siques
I P
Ñ ģ
Ġs amar
Ġper o
Ġg os
Ġac tiu
Ã¯ da
ĠbÃ© ns
Ġhist oria
201 4
Ġtren ca
aj ud
Ġexpos icions
ĠXX I
ĠXV III
Ġpleg ats
Ġcamin ar
Ġaproxim adament
ĠUr b
ĠProf ession
ĠparrÃ² quia
" :
7 0
m ada
ec ta
ĠM er
id s
bl o
Ġvi tal
ĠAl emanya
Ġav all
Ġsitu ar
Ġsab ia
Ġresid Ã¨ncia
Ġelabor at
Ġinflu Ã¨ncia
ĠLlen gua
U M
Ã¨ tics
as ti
ĠB el
ĠI V
Ġpol Ã¨m
Ġtan cament
Ġcent en
Ġreflex ionar
ĠOr ganitz
Ġpis cina
Ġsensi bil
Ġrevol u
Ġbosc os
Ġompl ir
Ġrendi ment
ĠmÃºltip les
I gual
h ol
y er
Ġc rim
on en
Ġt h
Ġen gan
Ġes cap
ĠL lo
ĠD rets
Ġac titud
ĠI l
Ġres istÃ¨ncia
Ġar ts
... )
ĠUn ides
Ġinc omp
Ġinvestig adors
Ġanti gues
ĠBat xillerat
Ġdelic te
ĠRaf a
eib ol
. "
Q U
y o
Ġt rip
Ġf us
Ġre dacciÃ³
Ġin qui
ĠM ac
ĠF l
Ġll it
all Ãł
Ã¯ n
ĠAl ta
Ġweb s
ĠmÃł r
Ġti p
Ġmanten en
Ġvalor aciÃ³
ĠcrÃŃ tic
Ġrisc os
Ġball ar
Ġenlla Ã§os
Ec onomia
Ġd anys
Ã§ ades
ĠR Ãºssia
ĠI tÃłlia
de x
Ġad di
Ġsor oll
Ġloc alitat
emÃł tic
ĠgrÃł fic
ĠPÃº blic
C ons
b es
i ri
li ar
Ġdi dÃłc
te or
ui da
Ġcomen tar
Ġaconsegu eix
rÃŃ cul
Ġexc ur
Ġcomprom et
Ġanim al
Ġcoordin aciÃ³
f ra
i eu
is h
Ġno ia
ĠL ic
eix ement
Ġdia da
ĠAl lÃł
Ġtempor al
Ġconsci ent
Ġsim il
Ġconsol ida
enf ron
Ġeng any
Ġmenj ador
3 9
i la
ĠP ic
Ġdes it
di ent
ĠUn it
Ġrep eti
ĠJo ventut
ĠCon t
Ġtrans metre
Ġop ortunitats
Ġhab ilitats
unci ar
Ġocup a
Ġaccep ta
Ġperfec te
Ġincl Ã²s
T E
ĠE du
us ias
ĠD iu
Ġfer m
ĠEs ports
ĠDi visiÃ³
Ġ15 0
Ar xiu
Ġvin gut
Ġpess ebre
Av ui
om e
Ġen mig
ĠC icle
Ġcom iss
ot o
Ġdi al
ver na
Ġap os
Ġpob resa
ĠQu im
Ġ200 3
inter canvi
Ġdona va
ĠRec ursos
An t
Ġgen i
ĠPrem is
cl op
Ġsex ual
ĠOri ol
Ġterri toris
Ġdign itat
i ors
Ġf ull
ĠE t
ĠT ota
ĠI b
Ġcar tes
Ġimp lem
Ġ3 2
Ġneg ociaciÃ³
aut o
Ġinteress ats
Ġconsci ents
Ġfru ita
ĠFel ip
Â Ĵ
an ista
re ci
is a
ĠG en
Ġcomp osiciÃ³
Ġhi vern
Ġpr os
Ġform ats
201 2
Ġbus cant
ĠGar cia
Ġcorrec te
Ġlegis latura
Ġquar ts
ĠmÃ²bil s
ĠCiutad ans
Ġpend ent
guard ia
ĠEU A
P ro
c ol
l er
Ñ Ģ
Ġc lo
at erra
ĠS ols
Ġac redi
Ġcar re
Ġpl atges
Ġcor pora
Ġcamp iÃ³
Ġrealitz en
Ġbaix es
Ġagra dat
Ġsosten ibilitat
Ġenerg ia
Ġaplica cions
Ġxoc ola
H otel
O ri
Ġper du
Ġre vistes
ec h
ec s
ot er
Ġb it
Ġta xa
Ġad m
Ġprof unditat
ĠmÃł quina
Ġcont und
Ġ15 5
Ġinici at
quer res
Ġanomen ada
Ġagrada ble
ĠAntoni o
Ġcinqu anta
Ġopin ions
3 5
e o
an ti
ti en
ri da
ĠS o
Ġpro var
Ġpo guÃ©s
Ġra s
ĠCons orci
ĠGu Ãłrdia
Ġart ÃŃstic
Ġanunci ar
Ġbal anÃ§
ĠAf eg
A V
es qu
ti ss
ĠC OM
Ġre acciÃ³
Ġg reus
Ġo velles
ĠB r
Ġll istes
Ġta ules
Ġob tingut
Ġcre iem
Ġcor da
ĠestÃł s
Ġsal var
Ġhab itatges
Ġmost rat
ĠMan el
ĠTer esa
Ġbat xillerat
Ġjudi ci
Ġcad ena
Ã ī
ĠC ard
Ġca di
Ġj unt
vi es
tor als
ĠlÃŃ ders
udi Ã¨ncia
Ġesper ant
ĠpodrÃł s
ĠAss ociaciÃ³
Ġdenunci ar
Ġfines tra
Ġmecan ismes
0 8
L E
j ades
ð Ł
Ġdi visiÃ³
ess os
Ġsegu idors
ĠIn ferm
Ġme ta
Ġsor te
ĠCas als
eri ors
Ġven en
Ġcomple tar
Ġsap s
Ġpropor cion
ĠBer ga
Ġsatisf acciÃ³
ĠcientÃŃfic s
ĠSeny or
Ġdon arÃł
Ġass ass
Ġacab en
ĠprÃ¨via ment
Ġfemen ÃŃ
Ġtraves s
0 7
d os
l li
ĠÃ©s ser
oc ar
ĠU AB
Ġcar tell
Ġimp licaciÃ³
til la
Ġins cripcions
Ġmo ure
Ġcamp an
Ġver gon
Ġro ck
tru ir
ĠhistÃ² rics
ĠEx p
Ġespor tives
ĠVan guardia
Ġgir on
Ġbarre ja
h el
l it
p h
in ats
ĠC rec
ist ori
ves a
Ġvi va
Ġesc la
ota cions
men tal
inc or
Ã¨c d
eri al
af eg
Ġpri vada
Ġacompany ats
Ġhor aris
ĠavanÃ§ at
Ġai re
sion ant
ĠConc urs
Ġvaix ell
D i
o est
Ġn utri
ss ar
Ġcer car
Ġacc essi
Ġdefin iciÃ³
Ġgaran tia
Ġadequ at
Ġblan ca
aconsegu ir
Ġfeli Ã§
Ġh id
Ġg all
ĠD ins
Ġrec Ã³rrer
ab el
Ġesc Ã¨n
Al bert
Ġprepar a
apar tat
Ġregid ors
esper anÃ§a
Ġmis sa
Ġrevol uciÃ³
Ġindependentis ta
c u
c oles
l Ã¨ncia
Ġt reu
Ġen cap
ad ia
il at
ĠN eg
uc h
Ġcor por
ĠQu ina
esta bleix
ĠPro duc
ĠÃł l
Ġsig a
Ġdemost rat
ĠnÃºm eros
Ġsenz illa
u ment
Ġs als
an tar
Ġm ens
Ġf isc
ri el
Ġh otels
da m
ĠS en
Ġan irÃł
ac k
Ġll atÃŃ
ins titut
Ġesc ala
Ġcan cel
Ġsol en
rat ge
ÃŃn ic
Ġsal es
ag rup
Ġfot Ã²graf
Ġpropos ar
Ġ7 5
emÃł tics
Ġgen eracions
Ġcur rÃŃcul
entis me
ĠestratÃ¨g ia
Ġviv int
ĠcÃłn cer
Ġestabli ments
T R
g ress
om ena
ĠL iter
Ġan gles
de es
ĠCom pany
ĠNo guera
rer es
Ġemp rened
fi quen
Ġexerci ci
Ġgastr onomia
Ġenca ix
Ġing redi
ĠhÃłb its
A t
i le
m ol
Ġ tir
ob ertura
il ia
Ġpres en
ed or
Ġcas tells
ĠMar ina
esc al
Ġmo ciÃ³
Ġve ient
Ġdin Ãłm
Ġconser var
Ġexcep te
Ġextre m
Ġsus p
Ġsug ger
ĠGr Ã¨cia
U C
a hir
en car
in icia
ĠC irc
ul en
ĠG aud
id enti
vi ure
ex pos
Ġsol ament
que ting
Ġcomun icat
dic ciÃ³
Ġ6 5
Ġop era
Ġreb en
Ġdesta quen
Ġcristi ans
ĠacadÃ¨m ic
Ġplani ficaciÃ³
O s
Ġ $
an n
Ġm ÃŃ
Ġm Ã¨ri
ĠP unt
ut bol
ĠEs tudi
ed ia
Ġpot encial
Ġsol ar
vis sa
Ġcamp anyes
Ġescol ars
19 8
Ġnorm alment
AN C
ĠReg lament
Ġcontrol ar
Ġfac tor
Ġhor ari
Ġaprofi tant
ĠMerc Ã¨
Ġnove tat
T S
en des
Ġt rop
Ġf Ã²rum
le tes
ĠT in
ig ht
eg at
ĠUn s
Ġcal ia
Ġcal dria
Ġpla ta
ll er
Ġdesenvolup a
Ġreb el
Ġdisc u
Ġenf ron
Ġesdeven ir
Ġacord s
Ġfunda ciÃ³
Ġconduc tor
i us
n om
Ġm u
Ġv oca
Ġes qu
ĠM ass
ul ant
Ġpar elles
Ġan aven
ĠG el
vi la
ĠCom Ãº
ĠO l
Es quadra
Ġsab ut
Ġsenti ment
201 3
ĠCol oma
ĠLli bre
ĠmÃŃnim a
ĠVol em
Ġclub s
Ġorigin als
Ã Ĵ
or ge
Ġn et
ĠC V
Ġno is
Ġg audi
ir at
ĠD ic
Ġvol tes
Ġpl ana
Ġvis u
end er
Ġ4 00
Ġapar Ã¨ixer
Ġespanyol es
Ġmis teri
Ara gÃ³
Ens enyament
a tac
k ing
Ġes querra
Ã¨ ric
as tre
Ã§ Ã²
Ġcomp tarÃł
Ġpre vi
Ġgu er
Ġpob res
Ġprop Ã²sit
Ġporta da
dis cipl
Ġperm ÃŃs
ĠCor ts
ĠRo vira
ĠCi Ã¨ncia
Ġsembl ar
ĠVer da
Ġperiod istes
ĠPor tu
Ġenseny ar
Ġlu xe
ĠGuill em
h ospital
k y
al imentaciÃ³
Ġal lar
ĠP ER
ĠM em
Ġac tiv
Ġass ociaciÃ³
Ġesta tal
Ġsor ra
Ġrealitz ades
onÃ²m iques
Ġhum anitat
Ġpri vades
Ġinten sitat
Ġparla menta
Ġperc entatge
i at
l var
z ena
Ġl ema
on ant
in en
us tament
Ġca fÃ¨
Ġtrob ades
fici ents
Ġbon ica
IC V
ĠGra ma
Ġdep Ã¨n
Ġpub lici
Ġreno va
habili taciÃ³
Ã³rm ula
ĠInferm era
0 3
G u
O G
Ġm als
al umnes
Ġt ro
Ġal tes
ĠC ru
ĠP oble
Ġno i
si us
Ġan Ãłlisi
ĠR amb
ĠMar tin
Ġor gull
Ġparticip atiu
Ġve ter
Ġ200 2
Ġag rÃŃ
201 0
ĠSol er
ĠJu li
Ġsim ilar
loc ar
7 6
v ella
Ġc Ã³rrer
Ġen ri
ĠC ha
ant en
le y
ĠM Ã¨xic
Ġac ol
ĠN ic
Ġmat rÃŃ
Ġdis ting
Ġsup era
Ġjo ventut
Ġfacili tat
Ġinfantil s
Ġvir tual
Ġviv im
ĠEsp eci
Ġelim inar
ospita let
d ics
Ġm ac
al em
Ġn adal
ro vis
ĠP in
le ix
up aciÃ³
ac titud
eg o
ĠJ er
... "
Ġ3 8
Ġcamp anar
fec ciÃ³
Ġmin ist
Ġint enta
Ġtu ristes
ĠDE L
Ġvalenci ana
Ġpublica da
Ġfonamen tals
Ġcoopera tiva
Ġboti gues
Ġcic l
E m
T Q
s el
an unci
Ġla ter
al li
Ġun itats
ĠT ru
ort en
Ġexp lor
Ġra mad
Ġ200 1
ĠTa mpoc
rÃŃ guez
aqu elles
ĠMas nou
Ġinclo ent
Ġsigni ficat
Ġquin ze
Ġrelig iÃ³
ĠDirec tiva
Ġfemen ina
Ġep is
7 9
f re
Ġg er
Ġpro b
ur t
Ġdi p
Ġdes igual
ĠF lor
Ġac ud
ĠG ol
ĠJ ard
im a
Ġtra dicions
ĠMar atÃ³
ĠIn c
Ġesta da
Ġneg ativa
Ġdeman en
Ġdif ondre
ĠTor ra
Ġmul ti
Ġrem un
Ġclassi ficat
alum ne
Ġer ror
Ġinno vador
ĠjurÃŃ dica
Ġcontamin aciÃ³
Ġtransi ciÃ³
Ġjaci ment
Ġefica Ã§
R e
en di
qu Ã©
Ġf ili
ol ls
is tan
od is
eg ants
Ġens enya
Ġvis itat
Ġconsid eren
ĠgrÃł cia
Ġpresentar Ãł
Ġcur ta
Ġcomb ina
Ġperman Ã¨ncia
ĠRib era
lÃŃ mp
Ġbla ug
Ġquant es
Ġarquitec t
Ġvuln era
3 4
g ic
m ica
is enda
ĠS eb
Ġma quin
Ġform acions
ĠÃ Ĵ
end emÃł
Ġdesc obreix
Ġve ÃŃ
Ġhab ilitat
Ġneg a
Ġinclo ure
Ġsuc re
Ġsolid Ãłria
Ġtraslla dar
ĠRod rÃŃguez
Ġinstru ments
Ġcostu m
aug ment
f ar
Ġp istes
ic ats
Ġb isbe
ĠG in
eg en
Ġman dat
Ġcos sos
Ġsub vencions
Ġneg ra
Ġreb uig
Ġestudi ant
ĠFran ci
Ġposi cions
Ġprac ticar
Ġindre ts
Ġgarant eix
qu Ã©s
qu era
an des
at x
Ġin versions
Ġo posiciÃ³
als evol
Ġrec op
Ġcap ella
Ġpl Ãłstic
esta bli
Ġrepres siÃ³
Ġprofess ora
Ġtele vis
Ġsensi bilitat
Ġdestac ats
Ġservid or
] [
g ades
Ġa ules
Ġf ÃŃ
Ġh ospital
ĠE D
di es
ad r
ĠR esp
Ġcre uen
ĠMar ÃŃa
Ġmen tal
Ġad onar
Ġus uari
Ġbas ada
Ġsocial ista
Ġgra us
ordin ador
Ġpen al
amb ient
Ġpin tor
Ġdeu te
Ġcr Ã²nica
Ġsupos at
olesc ent
Ġavan tatges
ĠEste ve
Ġalem any
d atura
Ã¨ tiques
Ġg ris
Ġca u
ĠF Ã²rum
Ġmat rimoni
Ġesc ena
Ġsup eriors
Ġinform acions
Ġec onomia
Ġdoc ent
Ġ18 9
labor adors
Ġcin quÃ¨
Ġafec tats
Ġfranc esa
Ġpais atges
Ġabsol u
Ġrepro ducciÃ³
hum or
Ġtindre m
l ats
v Ãł
v itat
Ġs ÃŃn
Ġn ar
ĠC rea
Ġno c
Ġin gressos
Ġpro vis
ĠB ot
ĠLa bor
ed ic
Ġver da
Ġdoc ents
Ã²s tic
ĠCan al
Ġrecord s
Ġorig en
Ġregid ora
Ġindivid uals
ogrÃłfic s
Ġrecoman em
Ġexisteix en
ĠDem ocrÃł
Ġintegra ciÃ³
Ġxif res
Ġdimen sions
Inter net
E P
H i
i laciÃ³
m ans
t Ã©
om et
ĠC O
ass os
Ġpa tit
leg ar
esti ma
Ġent rat
Ġmillor es
ĠJo ve
Ġrepres enten
aqu ella
imp uls
Ġleg i
Ġmanif estar
Ġparla va
ÃĢ rea
Ġpis os
Ġnegoci s
ĠclÃłss ics
cadÃ¨m ia
Ġbla u
Ġadqui rir
Ġprivi legi
Ġvide o
Ġequipa ments
Ca tal
3 1
Ġs Ã¨ries
Ġf ren
ĠD uran
av in
Ġpass ava
Ãłn cies
Ġ- -
lo ca
Ġsec ret
Ã¡ lez
Ġagra ir
exp lica
Ġimm ob
Ġcob rir
ĠIns titu
Ġxi quets
Ġxocola ta
ĠcurrÃŃcul um
os i
Ġre visiÃ³
ĠLa ura
Ġcons ecu
Ġar tista
ex terior
ĠestÃł n
ĠCons er
Ġsocial istes
Ġmajor itÃłria
ĠveÃ¯ nes
Ġdestin aciÃ³
Ġdetermin ats
Ġsob ir
Ġrecol z
Ġreno vaciÃ³
Ġbri tÃł
Ġprogram ari
Ġmanifesta cions
Ġvess ant
ĠRipoll Ã¨s
Ġcenten ars
H ospitalet
d ir
f f
Ġ ?
Ġm Ãłster
ol er
Ġin ven
Ġpro toc
ora ma
Ġcan als
Ġmen Ãº
Ġinform at
Ġtal ent
ĠJo hn
Ġtrans por
Ġpropos at
Ġcont ÃŃn
exp lotaciÃ³
Ġmul titud
Ġviat gers
mon is
ĠPas qu
Ġfrac Ãłs
Ġalli ber
ĠCris tina
A G
E B
ti ve
Ġtrob o
Ġincorpor ar
Ġfab rica
Ġcerti ficat
ĠSel va
0 1
m al
r ents
s ha
it eu
ĠS em
Ġpar ades
ĠV ill
ĠU B
ha m
Ġfe ines
ĠCon ferÃ¨ncia
Ġben e
Ġri ure
Ġescri ts
Ġfem in
cis me
Ġcirc ulaciÃ³
Ġintro duir
Ġargu ments
ĠGonz Ã¡lez
Ġgru ix
Ġnoc tur
A tenciÃ³
M ar
b on
Ġa ta
Ġc ir
Ġm Ãº
Ġt omb
in ers
Ġal calde
Ġse xe
Ġre cin
ĠA M
ĠM c
Ġe dats
ĠD ig
ĠV idal
Ġinter n
Ġdesc end
Ġdoc umen
Ġserv it
Ġinici s
Ġdecid eix
Ġseny al
Ġfacili ta
exc el
Ġcorrec tament
ĠMediter rani
Ġrequer eix
e tu
Ġa vi
Ġm oss
Ġb uit
ĠL os
Ġha urem
Ġar ti
Ġimp ostos
Ġja zz
ĠQu ant
Ġpaper s
Ġrom ana
rop oli
Ġpropor ciona
Ġincorpor aciÃ³
Ġviv Ã¨ncies
escrip tor
Ġtrim estre
ĠmatrÃŃ cula
4 8
on ades
ro g
it h
Ġcom una
la m
ĠS elec
ĠF e
emp s
Ġcomp rendre
ut x
Ġmun tatge
Ġjo gu
esp Ã¨
Ġbaix ada
Ġpropi etats
Ġvolun tari
Ġresid ents
ĠDia da
Ġpreocup aciÃ³
Ġenvol ta
Ġsac ri
ĠPir ineu
3 2
u gu
Ġa C
al gunes
Ġf ib
Ġf aria
Ġen regist
Ġse p
ĠD ones
av ellÃ³
og ar
ex ecuciÃ³
Ġem erg
lo ure
Ġemp a
Ġsab or
Ġren da
ĠcÃłr rega
Ġvolun tÃłria
Ġdestin at
Ġestabl ert
Ġpropieta ri
ĠcÃłm era
es tudis
us ter
Ġpar Ãł
ĠD im
ver siÃ³
Ġvol dria
Ġsoci etats
Ġem magatzem
Ġav alu
Ġprof und
aran ta
Ġfor ts
ĠLl ull
Ġmanif estat
Ġincor pora
Ġconfir mar
bo iÃł
Ġalterna tives
Ġrequis its
ÃŃns ula
ĠJoaqu im
3 8
a eroport
Ġ Ã©
ar xiu
Ġm issiÃ³
ic h
ĠP allars
ĠM Ãłster
ass egu
Ġta st
ura da
Ġfin alitats
Ġesta cions
Ġsal vaciÃ³
Ġtrans vers
Ġgovern ar
Ġinf in
ĠCamp us
mÃł tica
Ġsu au
tÃłn ia
Ġcomb inaciÃ³
Ãłnim a
Ġmagn ÃŃfic
Ġita li
Ġband era
esdeven iment
ĠMuntany esa
i di
t h
Ġv otaciÃ³
Ġse ix
Ġca i
ĠR iu
itz ats
Ġrec oll
Ġpass arÃł
Ġ3 9
Ġpla u
Ġoc cidental
gl aterra
Ġnova ment
Ġneg ar
Ġrefer Ã¨ncies
Ġrecord o
Ġcontrac tes
estr atÃ¨gia
Ġelabor ar
Ġrecep ciÃ³
ĠsÃ² l
Ġtransform ar
Ġdetec tar
Ġteix it
Ġinj ust
Ġnasc ut
Ġmatin ada
7 5
Ġp ur
ci clop
Ġn u
Ġpar et
Ġimp acte
Ġsens acions
Ġgu ar
Ġcurs es
Ġespec tadors
Ġcompany ies
Ġafeg eix
odi versitat
Ġsupos ar
Ġcost os
ĠConstitu cional
Ġunivers al
Ġpeix os
Ġhaur ÃŃem
Ġl it
ĠP oc
li ques
te x
ac e
ĠJ an
ĠEs tic
Ġus os
Ġec olÃ²gica
Ġcer im
ĠÃł rab
Ġpat ro
Ġcandi datura
Ġderro tes
Ġsign ar
ump te
ĠLic eu
c ats
l d
en tals
in ant
em erg
Ġpar cial
ĠR esta
um a
Ġparti d
ili ar
egu des
gra u
Ġpens ava
ĠmÃł quines
Ġcompar tit
Ġpat eix
ĠdifÃŃ cils
Ġconvid at
acab a
Ġperme ti
Ġconsider em
Ġedit orial
Ġexpres sa
ĠPrincip at
Ġsaluda ble
U B
ar ts
Ġm m
Ġn ena
ro qui
ĠP ilar
Ġpar ets
av o
Ġcar es
Ġpu ja
ĠAl g
ĠX III
ĠQu alsevol
Ġver sions
Ġlle ure
Ġinteress ades
Ġreflex ions
Ġenll oc
ĠbÃłs ica
equ ilibri
Ġend ins
Ġmedia ciÃ³
ÃŃg ens
ĠFranci sco
A ten
N I
Ġde di
Ġc ÃŃ
Ġt rets
Ġf anta
ur b
Ġca ixa
ĠF o
Ġac tituds
Ġex hib
op ista
Ġpos se
ĠEs panyol
Ġpu guem
Ġcol les
Ġveu rem
Ġprof essiÃ³
ĠmÃł gia
Ġelec torals
ĠCol om
ĠEx c
ĠRo ig
Ġsembl en
Ġmedia mb
Ġrefugi ats
Ġadolesc ents
Ġd av
ĠE duca
ĠT h
ĠB rus
emp at
Ġcre ada
Ġtrac tat
truc cions
Ġcent ra
Ġmod alitat
Ġprom ou
Ġcapa citats
Ġprotagon isme
oss es
Ġurb ana
Ġvig il
Ġdiver tida
Ġreci cl
Ġevol uciÃ³
ĠGab riel
oter Ãłpia
7 8
s eg
or gan
in et
Ġen via
Ġb ro
Ġar ross
Ġvi ta
tor ia
Ġrep ass
Ġem issions
ĠCas t
ĠÃł rea
Ġrefer ents
ĠPu blic
Ġret rob
Ġful les
Ġfant Ãłstic
ĠSeb asti
C ar
Ġt ron
at g
te in
ĠF utbol
ed rÃł
Ġdon em
Ġexp ecta
Ġver dures
Ġtrans missiÃ³
Ġespeci alitzada
Ġpun ta
Ã²s its
Ġdin tre
Ġat Ã¨s
Ġrom Ãłn
Ġmerc ats
Ġdeclar at
Ġconvid ats
hor ari
ĠSE O
Ġdiscrim inaciÃ³
ĠMob ilitat
fum et
ĠSard enya
Ġingredi ents
A la
C at
c em
g s
o a
u cions
Ġc eb
al eg
Ġper n
Ġun i
Ġb iblioteques
Ġdi ria
ĠB os
ĠF om
ĠF ons
Ġmat Ã¨ries
Ġcol Ã²nies
ĠO fer
ĠO lot
Ġrel ats
Ġrealitz ada
Ġlle tra
Ġtota litat
Ġapro par
ĠMa fumet
Ġguany adors
IC I
Ġmedi cina
Estat ut
Ġdescob ert
Ġat emp
ĠAm Ã¨rica
Ġenerg Ã¨tica
Ġintro ducciÃ³
ĠnÃºvol s
Ġcompren siÃ³
Ġluc re
ĠFamÃŃ lia
o da
t era
er als
ci Ãł
Ġper tin
in ten
ĠP orta
ĠS h
ĠM ent
ĠT re
Ãº ries
ĠR u
ill o
Ġtemp erat
ĠAl gunes
ĠCar rer
Ġcent enar
Ġrecup er
ĠCol la
ĠelectrÃ²n ics
Ġliter ari
Ġdetermin at
Ġpil ot
Ġregi ons
Ġexac tament
Ġcaigu da
ĠfÃłb rica
Ġvoca ciÃ³
D E
H istÃ²ria
n dia
Ġcom odi
ĠP ont
ĠA par
Ġg at
Ġ( âĢľ
ĠF ou
tin o
Ġcomp lica
Ġap unta
Ġdis par
tÃł ries
Ġman ual
Ġpot ent
Ġ4 8
Ġtar on
Ġcompar teix
Ġsorp rendre
ĠEmp resa
Ġrecep ta
Ġconsol idar
CI Ãĵ
escrip ciÃ³
ĠCamb ra
Ġpedag Ã²g
Ġmetod ologia
Ġlider atge
0 2
C N
d in
n al
v an
Ġ u
Ġa tura
Ġp ion
or ld
Ġm erca
Ġcon ci
Ġdes emb
ĠT R
itz en
Ġrec or
pos ar
Ġtrob ava
ĠÃº nics
Ġaj udes
Ġperi Ã²
menta da
ĠcrÃŃ tiques
Ġfal tar
ĠBe at
ĠTel e
Ġesdevin gut
Ġirre gular
Ġdicta dura
g em
i vissa
l in
s ers
Ġs ons
Ġm ons
ĠC any
Ġr ellot
enti tats
Ġpor tarÃł
esc ena
esta bl
Ġri v
Ġinf Ãłncia
Ġnecess item
Ġrela cionada
lu Ã¨ncia
Ġdist ribu
Ġcirc ular
ĠtrÃł mits
Ġestruc tures
Ġub icaciÃ³
Ġtesti monis
Ġdisposi tiu
Ġdro gues
Ġblo que
Ġl ici
on y
Ġes b
ĠP an
ĠP lan
ĠT ec
Ã§ ats
any ola
Ġcap ÃŃtols
ĠH otel
Ġcomun ica
ine us
Ġtreballa dores
Ġefec tiva
ĠSegu r
Ġfru its
Ġrecoman able
Ġsorg ir
ĠCamb rils
gust ÃŃ
U T
j u
re ment
al iciÃ³
Ã© r
Ġes glÃ©sia
us e
ĠS il
mp osta
Ġex istents
ĠUn itat
Ġcre ant
am i
cid ents
ĠRe f
Ġtorn en
ĠLl oc
Ġbas a
Ġrespec tar
Ġrespec tivament
Ġdist ribuÃ¯
Ġafir mar
Ġrecep tes
Ġaprof und
Emp ordÃł
ĠFern ando
Ġarr el
Ġautom Ãłtica
6 5
A E
O li
g as
p in
as iÃ³
ĠM essi
Ġva gi
ona ments
Ġcons istori
Ġta ri
Ġpre vista
Ġlli brer
Ġexp liquen
Ġtal lar
Ġsal v
terior ment
Ġna z
Ġlla c
vin gut
ĠBar ris
Ġ199 9
ÃĢ frica
Ġtend Ã¨ncies
uti litat
ĠNot ÃŃcies
Ġsimil ars
Ġcarre teres
m el
en ques
tat u
Ġal ter
Ġan eu
ĠCa mÃŃ
Ġpot enci
Ġass ocia
Ġgu arda
ĠSant boiÃł
Ġpla s
Ġrealitz arÃł
Ġconeix em
Ġespor ts
Ġconsul tes
Ġadequ ada
Ġfront era
Ġbri llant
ĠvÃŃc tima
Ġconjun ta
Ġaten dre
Ġcontempor Ãłnia
Ġfranqu isme
Ġteat ral
Ġquotidi ana
ĠPortu gal
? ?
Ġ ï
Ġ om
Ġn au
is p
Ġh ar
ĠC od
Ġg roc
si ves
Ġpar ad
ĠB isb
Ġan uncia
Ġvi us
Ġpass ejar
Ġaf rontar
Ġcri teri
Ġsuper at
Ġempres aris
vin guts
Ġbus quen
Ġconegu des
ĠVic enÃ§
Ġconstitu ciÃ³
ĠTor res
Ġuniversi taris
Ġdescrip ciÃ³
Ġrellev ants
Ġencap Ã§al
3 3
j e
k er
an os
Ġqu aranta
ti ran
Ġen amor
ri ment
res tant
it ori
Ġamb dÃ³s
ĠP sic
Ġb oni
Ġpro duÃ¯
Ġha vent
di m
ob s
ob rir
Ġan Ã²nim
itz ant
vi vÃ¨ncia
Ġpre g
Es panyol
ĠJo ves
Ġperson alment
sc Ã³
ES T
Ã²s of
Ġpat ri
Ġfam Ã³s
ĠFranc o
Ġadministra tiu
ĠXV I
ĠLla vors
ĠBl og
Ġimagin ar
ĠâĨ ĳ
Ġincre ment
Ġassoci ats
Ġtemperat ures
A ran
I mp
m ons
u x
Ã ¶
Ġen vers
ĠP ons
as sign
ĠA lex
Ġdi eta
ĠB ur
Ġser ien
ĠG ent
ac es
ut en
Ġar eny
les i
vol uciÃ³
Ġsegu ra
essi va
Ġcul tures
Ġsub ministra
ser vatori
Ġlle vat
Ġpropos em
Ġrela x
ĠCan vi
ĠPa pa
ĠSup rem
Ġmul tip
Ġvari etats
ĠEmp ordÃł
ĠfÃŃ siques
c as
ta ven
res c
Ġre tirar
Ã² x
ĠA L
Ġb ars
ĠL lar
ĠD ar
mp a
ĠG re
tr ol
ĠCa m
Ġcap itÃł
Ġob erts
Ġvol tants
Ġcan via
Ġpor ter
Ġve ia
Ġver tic
Ġneg res
Ġdec ora
imp ort
An y
ĠMus ic
Ġcontac tar
Ġinclo uen
ĠAd olescent
Ġdispu tar
Ġlid erat
Ġfab ric
ĠproveÃ¯ dors
Ġenri qu
E G
I X
g is
Ġt ec
Ġf o
ra gon
ĠP h
ĠA N
Ġin vi
Ġesp iri
Ġten siÃ³
ÃŃn ica
Ġad rec
ĠDi umenge
Ġofer tes
Ġdec oraciÃ³
iss es
Ġcu a
ĠZ ap
ĠdemocrÃł tic
ĠbÃłs ic
ĠIns titut
Ġess encial
Ġtr ens
Ġdisposi tius
ĠconstruÃ¯ t
Ġrecomana cions
Ġpriva citat
incor por
Ġrecin te
4 9
? ,
L A
p te
Ã ļ
Ġs emb
Ġv arem
Ãł u
ĠD a
id esa
Ġcomp tat
Ġar xius
Ġten ÃŃem
ÃŃs ica
Ġpa ges
ex Ã¨rcit
Ġx ines
Ġra di
Ġtorn em
utilitz ar
Ġcer e
ĠW ill
Ġjug ant
Ġclar es
Ġapar tat
Ġ0 8
Ġdedic aciÃ³
Ġcob erta
Ġimpos ar
Ġpropor cionar
Ġcorrec ta
ĠAut or
Ġsindic ats
ĠProfession al
n cia
Ġde talla
Ġs ard
Ġen em
Ġdi pl
ĠT x
Ġcomp ens
Ġpre ven
Ġass istÃ¨ncia
Ġconc reta
Ġdesc riu
ĠRe al
Ġint ensa
Ġbaix os
Ġporta va
Ġmus eus
Ġvisi ble
Ġfill es
In terior
In formaciÃ³
ĠVila ssar
ĠCat Ãłleg
ĠCat edral
Ġvig or
ĠRes oluciÃ³
tegra ciÃ³
ĠPl ana
Ġindustri als
ĠcomenÃ§ arÃł
Ġatur ar
Ġobliga cions
Ġafavor ir
ĠRamb la
Ġblaug rana
n ec
w n
ti ble
ent e
Ġf lex
Ġre tar
Ġdes a
ĠT IC
Ġr ellotge
Ġpre cip
arc at
Ġap renentatge
ord ar
Ġcan tar
ap or
Ġpor c
ÃŃn cep
Ġconc lusions
Ġemp le
Ġpresid Ã¨ncia
ron at
Ġjug at
Ġmet ges
Ġpen jar
Ġadministra tiva
Ġanterior ment
Ġdiver tit
ĠjurÃŃ dic
Ġele vat
Ġpend ents
ĠDani el
Ġorgan ismes
qu ing
ti onal
Ġf ur
Ġes morzar
Ġca va
ĠT aller
ĠR ap
im atges
Ġpod ers
ed ents
ex pe
Es ports
Ġor ÃŃgens
Ġec olÃ²gics
Ġop tar
Ġz ero
Ġag res
iv era
Ġexemp lars
Ġajud en
Ġden Ãºncia
Ġsan itÃłria
ĠĠĠĠĠĠĠĠ ĠĠĠĠĠĠĠĠ
Ġmir ant
udit ori
ĠBrus sel
] .
l lo
w are
Ġa fici
ic o
ĠC ub
Ġamb ientals
Ġcon grÃ©s
ĠS istema
Ġe ficient
li gent
tu ar
ĠF orn
Ġac lar
ĠU tilitz
Ġap lic
fic ades
Ġpol i
ĠAl b
Ġco hesiÃ³
Ġtrans met
anc e
Ġsub rat
Ġsub jecte
Ġsenti ts
Ġinf ant
Ġserv eixen
Ġrespec tu
Ġdesp atx
Ġmet ro
Ġefec tiu
AN T
Ġofici nes
vo quen
Ġban des
Ġdibuix os
Ġacoll irÃł
Ġexpecta tives
T ot
es tu
ar es
al caldessa
Ġb uf
ĠL L
Ġcon eixen
Ġdi pos
ĠB re
im on
entre ga
Ġpr Ã©s
Ġman tingut
Ġconc lusiÃ³
Ġgener alment
enc es
Ġafir mat
Ġxerra des
Ġbanc s
Ġaixec ar
gram unt
ĠmÃłr queting
establi ment
r el
or b
Ġre me
ĠP ress
le i
ĠS L
li ds
ad equ
Ġdeix e
ag ricultura
Ġpat eixen
ĠCor al
vang eli
llet ÃŃ
Ġrepor tatge
S A
i gua
o ficina
t Ã©s
ĠC ant
gu ed
ia des
la va
Ã² rics
Ġpre visiÃ³
ĠEs pai
ha urÃł
Ġtreball em
fici Ã¨ncia
Ġven ia
Ġpri vats
Ġlec tures
Ġseny ora
Ġdeclar ar
ĠÃĢ ngel
Ġexplica cions
ĠTor rent
Ġinno va
Ġapor taciÃ³
itor al
Ġcoopera tives
Ġreligi osa
accep taciÃ³
Ġtes i
ĠLlo ret
u ments
w ork
Ġd urÃł
Ġp ale
Ġque di
in k
Ã©s ser
Ġre d
ĠA les
Ġg imn
ĠS ch
Ġpro pa
Ġdes trucciÃ³
ĠT hom
ĠR oss
Ġser ra
eu ro
ass ol
Ġab ra
Ġinform es
Ġsal ari
Ġcomun itÃłria
Ġben vinguda
Ġreg ne
Ġpens en
Ġtorn eig
Ġtempor ades
Ġdeb ats
Ġhabitu alment
ĠdÃ¨ fici
Ġexpress ament
ĠconvenÃ§ ut
ĠCast ella
6 8
g els
l y
p res
es quÃŃ
Ġv alles
Ġn ad
Ġre form
ĠM ur
ur ÃŃ
Ġex ha
ex t
Ġform al
Ġtar ragon
Ġmost res
Ġpat rÃ³
Ġespec ÃŃfiques
Ġtracta va
Ġsom riure
Ġdefin eix
Ġregu laciÃ³
Ġconstitu eix
Ġpan orama
ĠAm ics
Ġrepar timent
Ġequi val
ĠMat eu
Ġsus pen
Ġfres ca
Ġfitx er
Ġgo verna
Ġinclos os
avo reix
Ġa men
Ġp s
Ġc Ã¨l
Ġn as
Ġn um
Ġg egant
ĠT rac
ter o
ac ollida
rÃł cia
ĠEs tr
ĠMar ag
ne y
Ġrela tiva
Ġagra Ã¯
Ġped res
IT AT
Ġcoincid int
licitu ds
Ġfres c
Ġdimen siÃ³
Ġdismin u
Ġequ ilib
ĠBern at
arquitec tura
Ġign or
Ġfisc als
t riu
el e
Ġs ag
Ġque ix
ra cions
Ġcom arcal
as ta
Ġdi em
ĠR ellotge
Ġac cident
Ġex ter
ab ans
ed o
Ġter renys
alitz en
rob a
Ġlli Ã§
Ġexp ressiÃ³
Ġparticip ant
Ġdirec tes
Ġdef en
Ġconf id
Ġfil Ã²sof
ĠPa blo
Ġrelacion at
Ġfas es
ĠVol eibol
ĠRes id
ĠDel ta
Ġfuncion aris
Ġeix os
Ġproced ents
Ġtr uc
Ġinstru ment
Ġvergon ya
Ġabsolu tament
en e
Ġper que
em at
ĠS ag
Ġpro grÃ©s
ĠÃ©s sers
Ġan uals
ĠR em
bl anc
ed ors
ĠO ficial
ĠO lÃŃmp
ĠÃ ļ
Ġme teor
eta pa
Ġro des
Ġmon itors
Ġdom Ã¨s
Ġafec ten
ĠCl ÃŃnic
ĠbÃłs icament
anim als
Ġpaci ent
Ġfom ent
Ġvesti t
ĠEsper em
americ Ãł
Ġextraordin Ãłria
Ãºp iter
omun icacions
Ġcomplem enta
Ġresponsab ilitats
ĠRafa el
Ant oni
m as
p ÃŃ
Ġa Ã§Ã²
el ecciÃ³
Ġal imenta
Ġre duÃ¯t
Ġin tu
ĠF u
ex ili
fic Ãłcia
essi bilitat
Ġ5 5
Ã¨c nica
ori als
ori entaciÃ³
Ġhum anes
201 1
ĠmÃºs ic
Ġrecord em
exp licar
ĠReg id
co hol
Ġmodi ficacions
Ġrei al
ĠDirec tor
Ġdeleg aciÃ³
ĠmÃ¨t odes
Ġenten em
ĠestÃłn dard
d f
w a
Ġ !
en i
ent ures
Ġes men
ĠB art
mp t
ĠF ol
Ġta b
Ġta mb
ĠU GT
Ġseg ell
Ġ3 7
Ġass aig
Ġespeci alitzat
Ġcanvi ant
Ġhab itaciÃ³
Ġprepar ant
Ġfos sin
ĠSol id
gen tina
Ġdetermin ades
Ġcr Ã¨dit
Ġrelig iÃ³s
rot xa
Ġbol ets
ĠelÃ¨ct ric
Ġcommem ora
po ques
ĠTom Ãłs
Ġinfra estructures
g na
r Ã¨n
on is
Ġg ros
ĠS te
di rec
ĠD els
Ġr osa
Ġesp eren
Ġpres taciÃ³
Ġcar tells
Ġemp at
Ġval ora
Ġpens em
ĠAmb iental
Ġgra du
Ġacompany ada
ĠAd riÃł
ĠÃĢ rea
200 7
Ġesper it
apro fi
Ġart ÃŃstiques
Ġconvid ar
ĠFes tes
Ġabsol ut
Ġquad re
ĠTrob ada
Ġacum ula
Ġindre t
ĠsÃŃmb ol
4 7
d eu
m us
Ġc ro
ent rar
ac cions
ĠI r
ĠU PC
Ġvi an
Ġvol ien
Ġtrob arÃłs
ĠIn forme
Ġver b
Ġ6 00
ĠRe is
Ġdisc ussiÃ³
Ġdisseny at
Ġtit elles
Ġaug menta
Ġimpuls at
Ġestran g
lÃŃ ci
Ġrefor Ã§ar
Ġmag ist
Ġcompon ents
Ġvicep resident
Ġner vi
ĠMarag all
E F
h u
Ġ ric
Ġv il
om ba
ĠP ots
Ġpro tec
Ġex ca
ĠV ÃŃc
Ġaj us
Ġcat edrÃł
gn asi
Ġconver tint
Ġajud at
Ġocup ar
Ġbi odiversitat
ĠY ou
ĠEsc olar
ĠXV II
ÃŃssi mes
Ġordin ador
Ġcostu ms
ĠAqu ell
ĠParticip aciÃ³
Ġimplan taciÃ³
Ġestu dia
ĠVerda guer
roqui al
U D
a gu
e an
v ora
Ġde gus
Ġc ine
Ġper cepciÃ³
in Ã¨s
Ġes g
Ġal dees
ĠC op
Ġre habilitaciÃ³
Ġin capa
Ġg egants
ĠB omb
Ġap as
Ġdia gn
Ġor ien
Ġdifer enci
Ġent usias
Ġinform ativa
Ġarrib i
Ġav ant
Ġaut ob
ĠCar men
utilitz a
Ġreb aix
Ġdisc ursos
omp eu
Ġtri at
Ġsent o
Ġdirig ents
acab ar
ÃŃssi ms
Ġbra Ã§os
Ġtarge tes
Ġgolej ador
ĠCerd anyola
ĠlÃ²g ica
Ġprogres siva
C C
Ġi lla
te b
Ġac ons
ac s
ĠJ Ãºpiter
vi ment
ĠEn erg
Ġpos teriors
ord s
Ã¯ na
Ġcre ma
ap lica
Ġad her
Ġcul min
Ġcont ents
ĠPol it
ĠCo ordin
200 8
ĠtrÃł mit
ĠPodem os
Ġapun tar
Des prÃ©s
Ġita liÃł
Ġprotes ta
ĠVir g
Ġsals a
Â «
Ġ rib
Ãł t
ĠC ÃŃ
ĠP aco
ĠS p
ĠU IB
Ġap rÃ¨s
ĠH ab
Ġab und
Ġconc essiÃ³
Ġsal t
Ġdirec tors
Ġrealitz ant
Ġcent rar
Ġcer ts
uÃ¯ ssa
Ġhum an
ĠCal des
aut onomia
Ar queologia
Ã©n en
Ġjun ta
Ġdetermin ar
Ġtractament s
Ġperiod isme
Ġmagn ÃŃfica
Ġuniversi tari
Ġcristi ana
Ġvers os
ĠJap onesa
Ag ricultura
Ġimmedia tament
Ġescen aris
Ġposs essiÃ³
Ġsamar reta
Ġseix anta
c ents
un ivers
in als
Ġal ts
ia ciÃ³
ĠA P
Ġb esti
Ġg r
ĠM ostra
tic at
Ġsegu im
ĠCom itÃ¨
Es per
Ġexp li
Ġexp edi
Ġent enc
Ġcul tiu
inc rement
Ġcri dar
ĠsÃŃ mpt
Ġdist ricte
Ġrom ans
Ġdisseny ar
Ġ199 6
Ġenf ront
Ġfar ina
Ġvir us
Ġexcep cional
Ġsolu cionar
Ġbra Ã§
ĠPos teriorment
Ġprocedi ments
Ġcog n
ĠCin ema
Ġigu alment
Ġcompe tir
esqu ena
h onor
Ġde g
er Ãł
Ġc oc
Ġm ural
os o
ri tat
ĠC ad
ons abilitat
ĠS ent
ĠS ÃŃn
ĠM el
ĠB all
tin es
tra da
ex emple
Ãºs tica
Ġgu iÃ³
rat es
ĠCar ta
eri ments
Ġbl at
ion ats
Ġdeman des
Ã¨r p
Ġedi tat
Ġlegis la
ĠIs abel
ĠPres entaciÃ³
ĠPir ineus
Ġfol k
Ġasc end
Ġdivul gaciÃ³
Ġvid re
ĠSecreta ria
ĠpolÃ¨m ica
R ec
p la
Ð »
Ġ %
Ġt ria
ol is
Ġes ten
ĠC ON
as pec
ĠA cab
Ġcon duir
Ġpro vocat
Ġdes ert
ran y
ĠF E
Ġex tensiÃ³
tr al
Ġimp edir
ita da
ap rendre
Ġsol em
Ġav entura
Ġra cons
Ġcer vell
Ġ10 7
Ġhab itatge
Ġ18 8
ÃĢ lex
Ġhor itz
Ġcab ell
Ġdefini tivament
Ġrecla mar
Ġincre Ã¯
Ġtransc end
Ġreper tori
ĠProm ociÃ³
Ġsorte ig
h ard
p ens
v il
er d
at ero
Ġen viat
ĠM estre
Ġpro voc
ac tor
um na
ab and
entre vista
alitz ant
Ġesc enes
Ġinter can
Ġon ze
ĠNo v
iciÃ³ s
Ġfor at
ĠPro jectes
Ġro t
Ġport em
Qu an
def in
ales hores
Ġassum ir
ĠNe w
ĠNav arro
independ entisme
A F
I ES
T IC
d ant
Ã ´
an ca
on ga
Ġm ossos
Ã© us
ri ta
ro v
ĠC r
as e
ĠA la
ĠL lic
ĠL ingÃ¼
ĠT im
Ġan Ã¨cd
Ġex erc
Ġrec omp
Ġcons ecutiu
Ġhi pot
ili ats
Ġmar it
pa ment
Ġem bol
Ãłs tics
ĠPar k
Ġofer int
Ġescol tat
Ġcompar teixen
Ġgaud eix
In f
Ġdestin ats
Ġcaracter itza
Ġevid entment
Ã¨l gica
Ġunivers itÃłria
Ġfron teres
ĠSosten ibilitat
Ġvincula des
Ġsobir ania
ĠAles hores
5 5
? âĢĿ
es ten
Ġs es
Ġm ana
Ġt omÃł
Ġv ella
in Ãłria
Ġes teu
Ã©s sim
Ġse qÃ¼
ĠE d
Ġb ibli
Ġcon vocar
ul la
ĠB il
Ãº m
ĠV iny
ma il
Ġap reci
ĠH ospital
Ġter t
qui es
par tit
Ġav ÃŃs
Ġtrans ferÃ¨ncia
Ġ6 2
Ġec os
ĠMun tanya
Ġnorm alitat
Ġinten tat
Ġdirig eix
Ġmot ors
Ġfac tura
Ġfru ites
Ġimagin aciÃ³
Ġsign atura
Ġcinqu ena
aurada ment
Ġrecti ficaciÃ³
ĠJavi er
6 6
a gaf
b urg
i z
Ġ å
Ġm urs
un ts
Ġt emÃłtiques
ri us
Ġh ero
Ġg la
ĠT ran
ĠB any
Ġan ul
Ġcons tÃłncia
ss es
ven en
Ġass istit
que z
Ġsub jec
ĠMa ta
sc rip
Ġutilitz en
Ġdispos en
inter pre
af ir
tur ar
Ġmon eda
Ġsent en
glÃ©s ies
quer as
Ġconsum idors
ĠAd ministraciÃ³
Ġvinc ulats
Ġexpos ar
Ġentren ador
Ġfix ar
Ġdeleg at
ĠDiss abte
ĠRic ard
ĠespecÃŃfic s
lÃłn dia
ĠGaud ÃŃ
Ġmaquin Ãłria
ciclop Ã¨dia
ĠdÃ¨fici t
7 7
b is
h ort
Ġ ran
es querres
Ġs os
Ġf reg
Ġen ques
Ġre is
ĠP ompeu
ĠS ecciÃ³
Ġan irem
ĠF ra
ĠG il
ĠJ uny
du int
tr ats
Ġpl enament
Ġcal ma
Ġinc om
tim itat
Ġaf avoreix
ust ria
Ġven tall
Al b
Ġvin ya
200 9
Ġci Ã¨ncies
ĠPor tal
Ġpi ano
Ġcamin ant
Ġconvers es
Ġmass es
ĠFom ent
A udiÃ¨ncia
V al
f ab
i ria
Ãł f
ĠA na
Ġb osses
ĠM am
ĠB ol
ac cident
ist emes
Ġesp on
Ġimp rovis
ĠH ar
ga cions
qui da
esc la
Ġam ants
ĠSal ou
ĠPa ul
ĠReg istre
apro f
Ġreser ves
Ġconjun ts
Ġfranqu ista
Ġpolici al
Ġcamb ra
Ã¨d its
Ġadrec es
F M
o o
Ġc ron
al ada
Ġn its
Ġun iÃ³
res ari
Ġrec tor
me dia
Ġmo u
Ġfun cional
ĠDi vendres
Ġmin isteri
Ġcer tes
Ġestar an
ĠEuro pe
Ġeduca tives
Ġ199 5
Ġimm er
Ġocup aciÃ³
Ġrob ots
ĠGar rotxa
Ġguia da
199 9
Ġmilitar s
adap taciÃ³
ĠBlan ca
Ġrenova bles
Ġcai gut
ĠZap atero
en n
Ġp ir
ci nes
Ġs ona
Ġs int
al ar
Ġes tima
ĠC ient
Ġse tanta
Ġre ad
ĠA li
Ġpro vÃ©
Ġdes af
era p
ĠB es
ĠG all
Ġob ri
tor ns
Ġpa pa
Ġform ant
ĠAl fons
Ġtan cada
ing o
Ãłs tima
Ġespeci alitzats
Ġec olÃ²gic
Ġelec tr
Ġcop a
Ġven des
ĠCal ella
ĠCamp s
enes tar
Ġgerm ana
Ġperfec ta
Ġdefini tiu
Ġdisponi bilitat
Ġeta pes
Ġdesapar egut
ĠPers onal
Ġassenyal at
ĠPri orat
ĠUniversi tari
Ġenorm e
allot jament
. Â»
m f
Ġ ðŁ
es te
Ġde ures
Ġc Ãłl
ec tes
ĠA D
Ġca mes
ĠD isc
ĠB arcel
ĠB loc
ĠG i
Ġarrib em
Ġbar b
Ġbar ra
Ġescri u
Ġdeman ant
ĠBar ri
Ġreun eix
Ġpin tat
arca ciÃ³
Ġsis Ã¨
EC E
Ġdespla Ã§ar
ump tes
Ġjard ins
Ã²l oga
Ġdisf ru
Ġsensibil itzaciÃ³
Ġfili al
ĠP ost
Ġb ran
Ġb ull
Ġb ron
Ġo us
ĠD ata
ĠT elec
ĠR us
Ġcomp res
Ġll ana
Ġap la
ĠH ol
Ġesc ales
Ġpot Ã¨ncia
Ġpor tu
Ġec lesi
ĠW orld
Ġindepend ents
Ġenc er
AC N
Ġimpos si
Ġinteg rat
Ġcivil s
Ġretorn ar
Ġposici onament
Ġreti rada
Ġguitar ra
Ġceb a
Ġvian ants
% )
1 00
A no
O n
g il
g ans
i er
Ġf Ã²s
Ġv Ã©nen
ĠC risti
ĠL as
ul sa
ĠT aula
ĠB Ãłs
ĠF un
Ġlli urar
ĠO N
ĠO rien
min es
esc riure
ena ix
Ġfor tal
Ġpas ta
Ġas pira
Ġmus ul
Ġdesp lega
Ġmili Ã³
ĠPa per
Ġcin emat
Ġcomb atre
Ġgaran ties
ev ang
Ġregist res
Ġaprof ita
ĠBra sil
Ġqued arÃł
Ġhtt ps
Ġsug g
ĠHum ans
extre m
Ġinqui etu
ĠVirg ili
P V
a pa
e e
es tes
er ador
qu ins
al ia
Ġper jud
ot or
Ġin vers
ĠM erca
oc asiÃ³
Ã§ Ãł
Ġan o
itz ades
ac os
ĠU rgell
Ġimp rimir
Ġins tant
Ġreg la
Ġ199 2
arca ment
Ġidenti ficaciÃ³
Ġpreocup a
ĠXI V
ĠBra va
Ġtraves sa
Ġreper c
ĠmajoritÃłria ment
Ġjogu ines
c ular
h op
en tament
en viament
Ġp ecu
Ġv ui
gu r
ĠP resid
Ġin vol
ĠS ens
ĠS ara
ma g
ili ari
Ġad ministraciÃ³
Ġmitj an
Ġloc alitzaciÃ³
Ġhum or
efici Ã¨ncia
ĠSan itat
ĠSup er
Ġsan itari
ĠEsc ol
Ġsubstitu ir
Ġescrip tors
ĠMari ano
Ġsolid ari
ĠDis pos
Ġestad ÃŃstiques
Ġsorpren ent
ĠLeg is
ĠPlat ja
ĠActivitat s
gued Ãł
Ġcogn oms
! âĢĿ
er ciÃ³
Ġt rist
Ġre ina
Ġre tre
Ġb ale
ant ena
Ġj usta
ĠG ui
int ro
Ġcomen tat
dic cions
Ġactu a
Ġorganitz ades
Ġdavant er
Ġllar gues
Ġro ca
Ġperd ent
AR T
Ġcaracter ÃŃstica
Ġtras llat
Ġsatis fer
Ġaband onar
ĠPass eig
ĠJun queras
Ġconnec tar
Ġespectacular s
Ġdepend Ã¨ncia
Ġprodu eixen
ĠSin dic
espa is
Ġcerim Ã²nia
6 9
o ur
Ġ ull
Ġ omp
Ġa ven
Ġc Ãłs
Ġs af
Ġf ita
ciÃ³ s
ÃŃ b
ĠS Ã³c
ĠM Ãł
ĠT rib
Ġan t
Ġfa una
Ġta ul
Ġpl ural
Ġconc er
Ġresul tar
Ġagra dar
Ġpen sions
ress ar
ĠÃ¨ poques
Ġrom Ãłnica
Ġsimp a
Ġconstitu cional
ĠRib a
Ãį ndia
Ġatac s
Am Ã¨rica
Igual ada
Ġacol li
Catal unya
Aten eu
ĠRegid oria
O D
Ġs ostre
an Ã¨s
re tament
Ġla c
Ġla menta
Ġen giny
as h
ĠA gu
Ġin capacitat
Ġg reix
Ġcon fer
ĠS ur
ĠS and
ob al
ĠB asc
ĠI S
ut or
Ġar mes
Ġass ist
Ġpublic ats
Ġreg lament
mes os
Ġest ric
Ġlleg enda
Ġsom nis
ĠprÃłc tic
Ġinten tant
Ġ25 0
Ġafec tar
Ġdescon egut
Ġevid Ã¨ncia
Ġrelle vant
Ġadre Ã§at
anim aciÃ³
Ġress Ã²
Ġguard ar
ĠPers ones
Ġdesper tar
Ġarr els
Ġaleg ria
Ġxic ot
ĠprÃ©s tec
' m
4 3
k m
n ing
p ats
u mb
Ġ ort
Ġd its
Ġp ica
Ġc Ã²pia
an siÃ³
in aris
em bl
ĠC AT
Ġg am
ĠL ec
ĠS am
ĠB Ã¨lgica
ĠB enestar
fer ent
ĠPer i
egu es
ex tra
tiv als
Ġrep resa
ap s
Ġsol itari
Ġarrib ant
Ġpo etes
Ã²m ens
Ġpas tiss
lec cions
Ġall ÃŃ
Ġdeb atre
Ġpresent em
Ġconsell ers
Ġfranc esos
Ġadre Ã§ada
Ġacos tar
dal us
Ġcomplex itat
Ġrod ona
Ġencarreg at
Ġconv Ã¨ncer
ĠSanti ago
Ġmotiva ciÃ³
ropoli tana
ĠSebasti Ãł
Ġrellot ges
Ano ia
b erament
m erc
u es
Ġp obre
Ã³ ra
Ġv or
Ġes tes
Ġh ui
Ġles ions
Ġpar cs
ĠR uta
Ġcomp ati
Ġll istat
ess Ã¨ncia
Ġma tis
Ġcor al
Ġins truccions
Ġcal Ã§
Ġcamp us
Ġra ona
Ġinteress a
ĠgrÃł fica
Ġdefens at
ĠRec on
Ġfas cin
Ġvo tants
ĠMonts eny
ĠPat ronat
âĢĵ ,
arr Ã²s
lustra cions
ĠMir Ã³
ĠGer ard
evi tar
Ġimmedia ta
Ġcontund ent
6 1
9 9
j aments
k o
l ules
r Ã³s
s ense
t ware
Ġm Ã²d
al gun
ra va
ĠC ort
ĠS ota
ca u
ĠD am
ad ministra
Ġan dor
Ġac ÃŃ
ĠG a
ĠV ell
Ġform ular
alitz acions
Ġesta ble
Ġinc lus
Ġinc lusiÃ³
Ã²n ics
Ġtorn arÃł
Ġur g
Ġllum s
Ġmalal ts
iten ca
Ġcontemp lar
Ġconcre tes
ĠDoc umentaciÃ³
Ġperspec tives
Ġfitx ers
Ġfines tres
ĠautÃ¨n tic
Ġmascul ina
Ġinn oc
ĠExc ur
ĠBos ch
ĠPolit Ã¨cnica
k et
r Ã²s
s car
u ela
Ġ Ãłn
Ġde gra
la i
us uaris
Ã§ ant
Ġcas ar
ha gin
Ġform atge
Ġass essorament
Ã¼ l
lo qui
Ġmun tar
Ġproduc tors
anÃ§ at
Ġtrobar em
Ġserv irÃł
Ġmanten int
Ġfavor able
Ġpresenta da
Ġcob ertura
Ġpan tal
Ġsob res
Ġpal au
quis iciÃ³
Ġnuc le
Ġprior itat
ĠInd ustri
Ġimmig rants
estran ger
ĠDig ital
m ona
ã ĥ
en ys
qu eria
an omena
Ġes tant
Ġh os
ĠE bre
ĠP et
Ġ1 20
ĠF ÃŃsica
ac tiva
Ġpr ol
Ġab ast
âĢ¦ )
ni vell
Ġsenti m
Ã¡ r
Ġcont ent
Ġrela tivament
ern itat
Ġespecial istes
200 2
Ġpil ars
Ġcoordin ador
ĠMedi cina
Ġtitular s
Ġcuri ositat
Ġobligat Ã²ria
Ġcorre dors
ĠfreqÃ¼ Ã¨ncia
Ġcarreg ar
Ġvege taciÃ³
ĠContinu e
Ġprob able
E vangeli
e ves
v ents
Ġp Ã¨l
ar di
Ġs Ãł
an ada
Ġf Ã³rmula
ĠE dit
Ġb rom
ĠL uc
ĠS ob
ĠM ora
Ġr urals
Ġmat ric
ÃŃn ia
Ġx er
eny es
Ġco re
Ġ4 2
ĠAn im
Ġaut Ã²noma
Ġsec rets
Ġju eus
Ġorganitz adors
Ġapro p
Ġcat edral
Ġrecon eguda
Ġinici alment
Ġnat ur
ixa mp
Ġson or
ĠperÃŃ odes
Ġassol it
Ġ193 6
ĠelÃ¨ct rica
Ġbarcelon ÃŃ
ĠCF G
ĠBisb al
E r
M S
S E
p al
Ġd ada
al ista
Ġre formes
ĠA ur
ĠD ist
ob a
od el
du car
Ġpor teria
ĠÃ į
Ġtin guÃ©s
Ġcomen cem
Ġver ds
Ġsin c
Ġsin Ã²nim
Ġdoc Ã¨ncia
entat ges
Ġpen ÃŃnsula
Ã²r dia
Ġtur ÃŃstics
Ġvo re
Or ganitz
Ġestim at
sion ista
ĠBi o
Ob servatori
Ġigu als
Ã±o z
Ġfabrica ciÃ³
Ġrecicl atge
3 7
4 6
d Ã³
u le
v int
Ä ģ
ã Ĥ
Ġde ien
Ġc icles
Ġm ots
Ġf esti
em enti
Ġes bor
Ġre utilitz
ĠA z
ca tal
ĠM ig
Ġpro gress
ĠD o
ĠB ru
Ġr up
Ġfa cil
Ġcap i
Ġpa ella
ure u
ota da
Ġdon i
ĠMar g
ĠIn tel
Ġor al
Ġor gÃłnica
ui z
Ġcontra st
Ġsetm an
Ġec onom
Ġrecord en
ĠMon tilla
imp eri
Ġna cionalitat
Ġvin tena
Ġsa vi
Ġ0 9
acc essibilitat
Ġ199 7
Ġenf oca
esper ar
cle tes
ĠprÃ²xim a
Ġindic ar
ĠCiutad ana
Ġcuri Ã³s
Ġdesapar Ã¨ixer
Ġintegra da
ĠClar a
ĠEspor tiu
ĠdinÃłm iques
apor taciÃ³
a fec
c Ã©s
i ona
m Ã¨s
Ġl itoral
al tar
al iments
at oris
Ġun ir
ro don
ÃŃ x
di u
ĠD NI
ell o
ĠF ed
Ġex am
ĠV eu
Ġpre venir
Ġpre dom
Ġpres sa
ĠEn ten
ĠEs tudis
Ġesc ul
Ġrep Ãºblica
am ics
ĠIn form
Ġarrib ava
Ġsitu ats
Ġrealitz ats
Ġcent rals
Ġdispos em
Ġprom eses
ĠSeg arra
Ġacom ia
Ã± ol
ĠCo operaciÃ³
Ġfos c
Ġespor tius
Ġrecom ano
Ġrecol lides
autor itzaciÃ³
Ġblanc s
Ġexcep ciÃ³
Ġperme tin
Ġjusti ficar
Ġperfil s
ĠFot ografia
imag ino
Ġdiscipl ina
ted ra
Ġradic al
lvar ez
emerg Ã¨ncia
A cciÃ³
R ES
T M
t ons
v ir
Ġc resc
Ġv ells
Ġen for
ĠA gustÃŃ
Ġg irar
ĠS us
ĠT inc
Ãłn dol
Ġcor reg
Ġins ta
gan da
ho w
Ġreg als
esta bilitat
Ġfun cionar
ĠPar al
ĠGu ia
Ġexemp lar
An na
AR C
Ġanim ar
Ġtecn olÃ²gica
ĠBen et
mon ia
ĠBl anes
ĠSet embre
iny Ãł
Ġconform en
Ġextraordin ari
Ġatrac tiu
Ġvaix ells
ĠIndepend ent
entren ador
Ġdip Ã²sit
ĠVÃŃc tor
ĠOrien tal
4 4
Ã ¤
er Ã§os
qu ill
Ġi c
in novaciÃ³
ĠC orre
Ġre trat
Ġcon gel
ĠV in
Ġres tric
Ġr ol
Ġcas c
Ġmar cada
am o
Ġtin dria
Ġdu en
Ġju ris
Ġsub venciÃ³
alla da
Ġaconsegu int
umen ges
labor at
actu ar
Ġenc anta
Ġtoc at
Ġcompl ert
ĠAd ministra
ĠFer ro
Ġurb ans
Ġdol Ã§a
Ġcomb at
ĠCent res
Ġregist rat
Ġregist rar
Ġrepe teix
Ġinterpre tar
ĠDoc tor
Ġpess eb
Ġfinanc era
Ġsubsc rip
Ġimplic ats
d ra
j i
r uc
em ma
Ġse ca
Ã² b
ĠP IB
Ġpar roquial
mp ing
Ġrec ents
ĠN it
Ġta p
Ġpre vistes
me di
Ġpl enes
Ġfin ca
Ġvis ibilitat
Ġad jud
ĠCon ca
ni um
ĠÃº tils
lec tuals
peri Ã¨ncies
Ġsig nes
Ġide ologia
Ġexplic aciÃ³
ress ol
Ġvalor at
Ġseny ors
ĠJu liÃł
ĠMont blanc
ĠGar ri
Ġtram itaciÃ³
Ġselec cionar
Ġprefer Ã¨ncies
Ġenerg ies
encia da
Ġinfer m
Ġgal eria
Ġcontempor ani
abs Ã¨ncia
ĠMu Ã±oz
Ġvet lla
Ġdepen ent
Ġincrem entar
Ġprovis ional
ĠPasqu a
Ġdeixe bles
5 9
6 2
Ġd ents
er va
ent Ã©n
Ġcom issions
Ġdes prÃ¨s
ĠD eu
ad Ãł
ell ers
ĠR eb
ĠF al
ig Ã³
ens es
rÃł cies
Ġcap tar
me z
ĠH ern
ĠIn novaciÃ³
Ġinform atiu
ag enda
ĠCons ul
Ġju guen
Ġinf o
Ġcer vesa
!! !!
ode termin
Ġacom panya
Ġdirig ides
Ġcontac tes
isteix en
ĠÃĢ n
Ġmot oci
ĠLli bres
Ġy ou
ĠmÃŃnim s
Ġestabl erts
Ġof en
ofer ir
Ġfra ses
Ġestim ar
Ġso us
Ġimme diat
Ġcommem oraciÃ³
ĠtÃŃp ic
Ġfrag ments
Oc upaciÃ³
ĠCu ina
Ġprotoc ol
roba blement
T T
d ell
Ġ q
Ġp Ãł
Ġc h
Ġc ass
ci ent
Ġb ud
Ġg ats
ĠB ut
ĠF M
ĠPer p
ex ig
Ġentre vistes
Ġesc oll
Ġcre ativa
ĠO ber
Ãłn ics
Ġgu ies
end is
Ġgener at
ĠQu atre
Ġprof it
ĠSi mp
Ġra Ã¯m
Ġam ar
Ġop eracions
ES CO
Ġprofession alitat
Ġcontr ols
Ġvin yes
ON U
Ġpil ar
ĠPre cisament
Ġexerci cis
Ġanti cip
Ġderi vats
Ġacostu ma
Ġmediter rÃłnia
Ġaccessi ble
ĠTele visiÃ³
ĠRap itenca
ĠPress up
aspec te
C al
w e
ľ ĵ
ti tats
ol f
Ġes tils
ĠP A
ĠM oss
ĠEl la
ĠJ im
all ers
Ġesp ero
Ġpos arÃł
eb le
Ġemp ats
quip Ã¨dia
ĠCon ven
Ġpo Ã¨tica
Ġra cÃ³
Ġri us
enc e
Ġceleb ren
Ġdispos at
Ġamp lia
Ġ199 8
Ġrelacion ar
OR T
Ġconstitu ir
Ġlliber tats
Ġanomen ar
Ġcompeti tivitat
Ġcreu ar
Ġexig ir
Ġsepar aciÃ³
Ġub icat
Ã²c rates
ĠDol ors
avin guda
Ġdocumen tals
Ġemple ats
Ġreme i
Ġå ľĵ
. ).
H em
b ara
c hi
t os
t us
z en
Ġm it
ti ons
Ġt ones
Ġh on
tat es
Ġb rossa
ĠB ri
ĠR ural
Ġac tius
ig s
ĠJ ac
Ġr Ã¨c
Ġtra jecte
cion es
ma ment
les a
rib le
Ġentre ga
Ġad junt
Ġaf ric
Ġpo guessin
Ġver i
Ġsec cions
ĠCons id
ĠÃ¨ x
ON A
Ġidenti fica
Ġcob rar
Ġcorrespon en
Ġsan itaris
ĠMonts e
Ġindivid us
Ġconfir ma
ĠcomenÃ§ Ãł
tri us
ĠmÃ¨ dica
estal vi
C ol
P F
l era
m ic
Ġd Ã©us
Ġc edir
ci da
an e
Ġre tra
Ġb ac
Ġcon ec
Ġcon vÃ©
ĠS ta
ĠS itu
ĠM arcel
ĠM oll
tal lar
ob lida
ran Ã§a
ĠR et
ĠV ida
Ġcomp ost
ess ors
Ġma gatzem
enta des
ĠSi gui
ĠAn glaterra
xa ca
Ġmin im
Ġag ro
Ġinteress at
Ġconsid eraciÃ³
Ġexc usa
Ġdeman em
En ric
Ġren unciar
erm an
Ã¨m ia
Ġ199 0
AL L
Ġtre p
AM PA
Ġanunci s
ĠBo i
ev illa
Ġmec Ãłnica
Ġtitular itat
Ġconstant ment
tri citat
Ġcondi cionat
Ġfla men
ĠRel at
ĠIndepend Ã¨ncia
lum inaciÃ³
ĠSols ona
ĠMent restant
Ġsuspen siÃ³
0 2019
M an
S er
l Ã³
l ÃŃn
o us
p reu
Â ²
Ġs oc
Ġcon vic
Ġva gin
Ġan ant
Ġex istent
Ġrec re
Ġesp l
Ġta pa
Ġcol umna
Ġass essor
Ġcor rents
Ġli ber
Ġco aliciÃ³
ĠCon ver
Ġcent rat
Ġmod alitats
ĠTot hom
Ġlleg at
Ġnecess ites
aut ob
Ġtreballa dor
Ġur gent
Ġindi gn
ĠGar raf
autor itat
Ġquanti tats
Ġcoordin adora
Ġdipu tada
Ġderi va
Ġdesitj a
Ġasseny ala
ĠacadÃ¨m ica
lega cions
ĠautÃ¨n tica
ĠCerd anya
ĠDu es
Ġdiscipl ines
Ġalum ne
Ġengan x
ĠmÃ¨ri t
Ġguer res
ĠNov embre
c re
d rien
f ort
Ġa dient
Ġp alla
Ġc ust
Ġc uida
Ġs umen
re gues
ra ta
Ġun eix
Ġin de
ĠM Ã²nica
ĠM anten
Ġdes apariciÃ³
ab tes
ĠN atura
Ġap orten
Ġsol dats
Ġexp l
Ġdeix ava
Ġtal la
Ġperson alitzat
Ġaut o
Ġcri ticar
Ġconf ess
aut opista
actu alitzaciÃ³
Ġobli gaciÃ³
Ġindi rec
Ġrom Ãł
Ġtas tar
Ġdol Ã§
ĠRo ja
Ġvo tat
Ġrepresenta cions
exc usa
AD A
ĠMat emÃłtiques
Ġquad rats
ĠprÃ²xim s
Qu Ã¨
Ġbe ques
ĠcÃ²m ode
ĠJun ts
lustra ciÃ³
CO O
Ã²lic s
ĠSosten ible
ĠÃ²r gans
Ġriv als
! ,
A uditori
X X
c Ãł
g nos
m nium
s ec
u ar
x os
en cara
Ġde guda
ti ficat
Ġt Ã²p
Ġf ia
Ãł tiques
gu ers
Ġre tor
Ġamb dues
us c
Ġdi us
eix es
ĠR ES
ĠR ivera
Ġtra ma
Ġvol te
Ġsoci o
ĠMar Ã§
Ġtan mateix
Ġexp uls
Ġtin guem
Ġco ix
Ġparticip ativa
rem ta
Ġcomun ic
ĠMa ciÃł
ĠMon ta
Ġmet Ãłl
Ġfes tiu
Ġtur Ã³
ospi tals
titz ar
Ġconvid em
Ġparc el
Ġpaci Ã¨ncia
Ġplu ges
Ġdra ma
Ġexperim entar
Ġcompleix en
Ġsenc er
Ġidi omes
Ġaprofund ir
H ostal
m entaciÃ³
Ġp it
ol let
is ca
Ġb isb
le u
ĠS eria
ĠS enat
ĠM au
li o
Ġdes de
ĠR espec
tin guts
ĠV illa
ĠJ orge
Ġar tic
Ġpass ades
Ġpl en
ĠÃ Ī
Ġad vers
Ġus ar
Ġdeix o
Ãłs tiques
fi ar
Ġpossi blement
Ġapro vada
ĠAr ticle
ĠW i
Ġmili tants
ine da
ĠBar ber
oli va
Ġterritori als
Ġestr elles
Ġenc an
Ġdescob erta
Ġsu ficients
Ġqueda va
Ġobs tac
Ġcrea tiu
Ġgust os
Ġaprof itat
Ġconform itat
Ġnarra tiva
Ġprocla mar
Ġfant Ãłstica
Ġconten en
Ġpet r
ĠSergi o
Ġmediter rani
dec ans
Is rael
Ġreconegu ts
Ġconsolida ciÃ³
ĠCont empor
Ġcere als
Ġdiagn Ã²stic
Ġread ing
S C
S al
Ġd Ã©u
Ġp p
Ġt on
em issiÃ³
ro ga
ĠC L
ĠA u
ĠS au
ĠG remi
Ġins pir
Ġent Ã¨s
Ġparticip aran
Ġsal va
Ġam iga
ne z
Ġceleb rada
Ġrecup erat
ĠJa zz
Ġas pir
ÃŃc ules
rac ciÃ³
Ġexplic ant
Ġestr enar
Ġperd eu
Ġespor tistes
Ġautor itzaciÃ³
ĠcrÃŃ tics
Ġlim itaciÃ³
ĠCh ar
Ġindivid u
isc op
exc ur
ÃŃm ica
ribun als
Emp resa
ĠOc cidental
Ġele vada
ĠES O
Ġpron unci
Uni versitat
Ġsacri fici
Ġvertic al
A ix
D el
b y
d oc
n ex
v im
Ġc obreix
Ġc ementi
or en
Ġm ix
un g
Ġn Ã©
Ġal imentaciÃ³
Ġcon fec
Ġe b
ĠD ÃŃa
ĠD aurada
ĠR ed
Ġpres tacions
Ġtra ms
Ġsobre viure
ili tar
egu ts
rec ciÃ³
Ġmar ÃŃ
Ġcre ador
Ġco ure
ĠQu alitat
Ġguany ant
Ġconeix ia
ĠMus ical
Ġpin tar
Ġpren en
ev als
Ġexig eix
ĠBer guedÃł
Ġfunda dor
hor ab
Ġdelic tes
Ġincid Ã¨ncia
Ġmobil itzaciÃ³
ĠInd Ãºstria
Ġros eg
Ġestad ÃŃstica
Ġaddi cional
Ġepis odis
Ġgam ma
4 2
A cadÃ¨mia
e te
r ug
s eca
» ¿
Ġp ul
Ġc essiÃ³
Ġc obra
un itat
un iÃ³
Ġv os
ol at
Ġn or
ri ol
ĠC erc
ĠE p
Ġcom Ã¨dia
ec te
Ġb eure
ĠS ovint
ĠB and
ac us
ĠU d
Ġnom enat
Ġrep Ãłs
Ġass is
Ġconc rets
ĠQu er
Ġdesc riure
Ġri d
Ġcontinu ada
Ġcri tica
imp ost
Ġfam osa
Ġsan itat
Ġsembl ants
Ġexper t
Ġcontemp la
Ġadap tat
Ġplan tar
espec tador
ĠBa ges
Ġnota ble
Ġindic at
Ġurban ÃŃstica
Ġfu tura
independ Ã¨ncia
Ġori entaciÃ³
Ġreivindic ar
Ġbr ut
Ġplata formes
Ġtaron ja
evang eli
! )
6 3
O CI
f al
j uÃ¯
l anda
m ob
r osa
Ġp uny
Ġc ig
Ġs ender
Ġt rem
Ġal im
Ã² tics
ot eca
ĠA ran
Ġcon vent
ĠS uÃ¯ssa
Ġdi umenges
Ġj ustament
ica ments
ĠR aval
ĠR uiz
ac osta
ass essorament
tiv isme
Ġacab em
Ġ6 8
Ġcent enari
Ġcontinu arÃł
Ġorganitz en
Ġdesenvolup en
uÃ¯ t
Ġutilitz ats
Ġfut urs
Ġgra ci
aut ora
Ġtor res
Ġrom Ãłnic
Ġdemost ren
Ġdetermin ada
ĠMor eno
Ġconsidera da
Ġjut ges
escrip tura
Ġtoca va
americ ana
ĠPens o
ĠMill or
ĠTÃ¨c nica
Ãºr cia
ĠEdu ard
Ġcadi ra
odetermin aciÃ³
H orta
L legir
p el
on er
on ze
al tura
Ã³ mez
em ociÃ³
Ġh ig
Ġcom erÃ§os
Ġin fec
tar ds
il lament
ver es
ac le
Ġcomp ten
ĠJ urÃŃ
Ġsi guem
Ġvi vien
Ġpos ava
ĠH el
Ã¯ nes
leg al
ĠX II
Ġval u
Ġaut Ã²c
Ġpens aments
ĠMa y
assa ig
Ġreun it
Ġestr ella
AR I
ĠOr gÃłnica
gen da
Ġpatrimoni al
Ġestran gers
Qu e
Ġincl osa
ĠFil osofia
Ġdescobri ment
Ġestal vi
ĠdesplaÃ§a ments
ĠBomb ers
ĠsÃŃmpt omes
, [
E du
g ant
Ġl ong
Ġs uÃ¯
Ġm Ãłs
Ġn egu
Ġal caldes
ĠC COO
Ã² lei
le j
ĠS agrada
si ls
ĠB au
ĠB ert
ĠF iscal
ili p
Ã§a ment
ones os
am istat
Ġsup orts
Ġarrib arÃł
Ġw ith
Ġofer irÃł
ĠW e
imp or
Ġseny als
Ġne vera
ĠMol ins
Ġpin tures
Ġespecial ista
Ġsis ena
ofer eix
Ġpren ent
Ġge ogrÃłfica
Ġglob us
apos ta
ĠlingÃ¼ ÃŃstic
Ġdenunci at
Ġreligi osos
Ġator ga
ribuÃ¯ t
Ġmascul ÃŃ
Ġpromoci onar
indi vid
agrup ament
Ġpreg Ãłria
Ġexha us
ĠcatedrÃł tic
Ġpecu liar
5 7
s ar
ta tiva
ĠC AP
ĠP robablement
Ġb ossa
Ġin ex
ĠS ER
Ġdes ena
ĠD ona
Ãº rg
Ġll in
ass emblea
Ġpre judi
ss os
Ġvi b
Ġhi per
av entura
ĠEs glÃ©sia
ĠCom par
esc ut
Ġav anÃ§a
âĢ¦ .
Ġsal tar
Ġreg les
Ġproduc tor
Ġgra vat
AR A
AN A
ĠrÃł bia
Ġdestin acions
Ġconven ient
Ġtras p
Ġllum in
Ġsorp reses
ĠbÃłs quet
Ġsim ul
Ġconfir mat
Ġcerta men
Ġpertany en
ĠTerritori al
edit orial
Ġcompos itor
Ġamena Ã§a
ĠPR O
acompany ament
Ġvirtu t
---- ----
ĠÃłl bum
Ġpern il
7 1
S om
h en
v it
Ñ ĥ
Ġ rics
Ġde via
Ġp ota
Ġc ub
Ġc eller
ar gu
re tÃłria
is is
Ġcon g
ĠM ul
Ġe f
Ġdi ta
ĠJ ean
ĠLa ia
ina cions
Ġma pes
Ġter rat
ĠIn icia
Ġcontin ent
Ġ4 4
ĠCon tra
Ġacab ava
Ġsub jectes
Ãłr bit
Ġpat r
ĠSeg re
terna tiva
ĠfÃł cils
Ġterra ssa
der ies
Ġ199 1
Ġesper anÃ§a
ĠMunicip als
Ġadap taciÃ³
anim itat
ĠDef ensa
Ġallot jament
Ġangles a
ĠagrÃŃ cola
ĠÃ© rem
aleg ria
Ġimmer siÃ³
Ġvui tanta
Organitz aciÃ³
ĠÃ¨x its
V ol
c n
h id
j or
ta rem
ar quia
Ġb y
Ġg i
Ġg an
ĠL ÃŃ
ĠL ib
ĠS ha
Ġdi anes
ĠT ol
ver tir
Ġac cidents
ĠG Ã³mez
um ir
ĠV iu
Ġpu ra
Ġcre adors
Ġlli gat
Ġins tr
ĠÃ ī
rup aciÃ³
ing ton
Ġfe bles
Ġtres or
Ġdiss abtes
Ġsuper vivÃ¨ncia
ĠAc ciÃ³
Ġpresenta cions
Ġafec tat
Ġdur ar
Ġrepar aciÃ³
Ġenerg Ã¨tic
Ġconfir maciÃ³
ĠDec lar
Ġregal ar
Ġtranspar ent
Ġfug ir
Ġvigil Ãłncia
Ġfortal esa
9 0
b at
f ins
i A
u taciÃ³
Ġd any
ar eu
re ia
om eu
Ġes glÃ©sies
mb ia
ÃŃ lia
Ġin ci
li p
Ġdes astre
Ġdes nivell
ĠD alÃŃ
ĠV end
Ġll Ãłstima
du eixen
op s
ĠEs querra
Ġinter iors
Ġfin alitzat
ella da
Ġinform Ãłtics
Ġesta ria
Ġgener en
Ġcul te
ho ol
esta da
ĠPar t
ĠLl uc
Ġaj uts
Ġmor ta
Ġacc el
Ġllarg s
Ġprepar ats
Ġat ribu
Ġat mos
dem n
cin c
mÃł cia
Ġlim itat
Ġlim itar
Ġgesti ona
Ġimpres sionant
Ġmec anisme
omÃł tic
EL L
escol tar
Ġinsc riure
ĠHer rera
ĠEspa Ã±a
Ġos on
ustr Ãłlia
Par tit
ĠDiu en
Ġparlamenta ri
Ġexplor ar
Ġenques tes
T er
T ER
f it
o ure
u tar
Ð º
Ġ =
Ġd ans
Ġa Ã¯
Ġf ina
Ġes quer
Ġh ones
Ġal ar
ĠE ul
Ġno tar
ĠS Ã³
ĠM is
ĠM unt
Ġca ixes
si es
ĠB an
ĠB ou
ĠG and
Ġtra g
am es
Ġdon aciÃ³
rup ciÃ³
Ġx inÃ¨s
ĠSant os
Ġesta ciÃ³
Ġav entures
Ġval ent
inc lo
Ġfot ogrÃłfic
ĠSal t
Ġprobl emÃłtica
ril lo
Ġgai res
ĠVila decans
Ġur nes
Ġperd Ã³
Ġajud ant
rid ge
Ġ199 3
ĠCastell ers
ĠJu venil
Ġaug mentat
ĠMarc h
exc lusiÃ³
Ġcelebra cions
Ġge ografia
Ġcoincid ir
Ġrit mes
Ġbici cletes
Ġama ga
las tre
ebre m
Âº C
Ġatrac tius
Ġvege tals
Ġesca par
Ġprevis ions
Ġdesg rÃłcia
Ġitiner ari
Ġinclos es
__ __
Ġtrop es
Ġminist ra
ĠJard ÃŃ
Ġfib ra
ĠPublic at
ĠDÃŃa z
juÃ¯ c
7 3
C as
V A
c eta
h on
m is
m any
m ens
p era
Ġd up
es ter
Ġf Ã©u
Ġv Ã¨ncer
Ġn in
Ġh ere
ĠC ri
ĠC Ãłn
ĠA ri
ĠM esa
si onat
ad os
ĠN or
Ġparti des
ĠEs tan
Ġcas al
ha guÃ©s
Ġpass em
ap arcament
Ġsol es
Es c
ĠMar roc
Ġpor tant
ĠCon eix
ula da
Ġfor es
eta ri
ĠRe vista
ĠpolÃŃtica ment
Ġcompar aciÃ³
ĠLle tres
Ġagra den
ĠhistÃ² riques
dem il
ĠpÃºblica ment
Ġcomprom isos
Ġ199 4
Ġlabor atori
Ġdestin ades
Ġconstitu eixen
ĠPre venciÃ³
Ġess encials
ID ECE
Ġnete jar
Ġsindic at
obli gaciÃ³
Ġpreser var
ĠLingÃ¼ ÃŃstica
ĠPeri od
' '
F a
H a
M on
b Ã©
f arra
v ÃŃ
Ã ĥ
Ġd Ã²
Ġl ent
ci alment
Ġt Ã¨r
at or
in do
Ġre men
ĠP eti
Ġdi gui
oc als
ĠD eb
et o
ĠF als
Ġcomp licitat
all at
de vin
cion ats
ĠUn i
ĠAl l
ĠIn tro
Ġoc ells
Ġdu u
Ġpublic ades
ĠPar ets
Ġpresid it
ber tat
Ġdisc ul
equip s
Ġparlar em
Ġliter aris
Ġmed icaments
Ġenf rontar
Ġreser var
entis ta
Ġrepar tir
Ġball s
Ġbal cÃ³
ĠRi o
Ġprac tic
Ġru mb
Ġpac ÃŃfica
Ġfelici tar
ĠConc ert
Ġdesapar eix
Ġful ls
ĠcÃ²m ic
Ġconduc ta
Ġgastr onÃ²mica
Ġrat xa
Ġcompon ent
Ġpolici es
ĠPÃº bliques
Ġau x
Ġequipa ment
empor ada
Ġaliment Ãłria
ajud ar
Ġcomiss ari
ĠcÃłs tig
S eg
T ES
g re
i tiva
m od
en tant
Ġde tingut
al istes
in era
Ġen gres
Ġh ospitals
gu arda
Ġre ma
ĠP eix
Ġin vis
ĠS Ãłn
Ġca ire
ob jecte
od ia
ĠG ai
ĠâĢ Ŀ
ĠN ecess
tr ar
Ġtra duir
Ġob ten
Ġcar net
Ġpu jat
Ġcol om
uc s
Es port
Ġtin guÃ©
Ġus u
Ġav or
Ġfor estal
Ġam able
Ġpun tual
ĠMa ig
Ġfinal istes
Ġjug ada
ĠlÃŃ qu
Ġpara di
Ġcomple xa
Ġtoc ant
Ġcomprom Ã¨s
Ġafec tades
co okies
Ġfre da
Ġgas os
Ġdic cionari
Ġdarrera ment
Ġreno var
ĠBer lÃŃn
ĠRom Ãłnica
ĠPas tor
arr el
Ġproced ent
quad ern
ĠTrans par
Ġempresari als
Ġreac cions
Ġinaugu rar
Ġfid els
rened oria
mac Ã¨u
Ġorgan isme
Ġprovin ents
Ġcarb oni
arquitec te
mol t
ĠTru mp
5 6
7 2
A scÃ³
F i
i tiner
s et
y n
Ġd retes
Ġm Ãłn
al iment
Ġt Ã¨x
Ãł rem
ro f
ĠA mat
ĠM onestir
li ta
ur Ãłs
Ġdes ac
tan es
ĠF ill
eg em
Ġcap Ã§al
cion ista
av ell
Ġcas ol
Ġinter ns
Ġem m
Ġgu Ãłrdia
Ġcatal og
Ġperson alitzada
Ġrealitz aran
Ġacab ada
Ġguany adora
iv al
Ġagra daria
Ġgaud int
ej at
Ġdestin ada
Ġbi ografia
Ġvinc les
ĠgratuÃ¯ tes
Ġentorn s
Ġprac tica
Ġverm ella
Ġama gar
ĠPep per
ĠRos er
Ġdo tar
Ġapren ent
equi pament
Ġintera cciÃ³
Ġameric Ãł
ĠPD F
hist oria
ĠdesplaÃ§a ment
Ġfit xa
ĠCli mÃłtic
Ġavalu ar
Ġtransvers al
Ġï Ĥ
Ġbron ze
Ġinvol uc
g t
w er
Ã© nez
Ġen questa
Ġre v
Ã² cia
ur ats
ĠT eix
ĠB ro
et Ãłria
Ġll anÃ§a
Ġ20 20
ga ment
Ġsegu irÃł
Ġmes urar
Ġconc ursos
men et
Ġam igues
Ġacab arÃł
Ġsub ven
Ġcontinu at
Ġti ra
ĠVi quipÃ¨dia
hom enatge
Ġciutad anes
Ġtempor als
Ġmon ument
An dreu
duÃ¯ ts
ĠJu liol
Ġmob les
pro jecte
ĠDipu tats
Ġcab ells
Ġmas siva
ĠcomenÃ§ ant
Ġassoci at
Ġlleug erament
Ġcens ura
ĠcÃłm eres
Ġinfra estructura
Ġrellev Ãłncia
ĠautÃ²n omes
Ġmenti da
Ġclo enda
encar rega
Ġensenya ments
ĠBeat les
Ġafici onats
ĠCub a
erap Ã¨u
Ġcementi ri
- .
f el
n ies
u ca
er ola
qu ista
ol e
Ġes menta
gu itat
ĠE ug
ĠP ra
ĠS um
ĠB u
ĠB ig
ran o
Ġac tivament
ĠI sa
ass ass
op er
ren a
Ġpass ats
Ã¯ a
Ġpr ÃŃncep
Ġman i
ve tat
ten iment
ĠCom erci
Ġfin anÃ§ar
rat ges
Ġcor reus
titu ciÃ³
Ġent Ã©n
enci alitat
Ġve ieu
Ġdu ent
onÃ²m ics
Ġcompar tida
ĠGu ardi
Ġmeu a
Ġmedi evals
co ver
Ġcomb usti
Ġanomen ats
oti ps
itx ell
Ġdiver siÃ³
olÃŃ tic
Ġcompor tar
Ġreci c
Ġpreci siÃ³
ĠUN ESCO
ĠSecreta ri
Ġconfigu rar
oler Ãłncia
Ala cant
Ġcomplica da
assign atura
Ġpages os
Ġbale ar
Ġfesti us
Ġtrep itj
ĠSÃ³ ller
4 1
C o
T he
d ent
h ero
h Ãłb
Ġc ors
ar bre
in tegraciÃ³
ĠC R
Ã² metre
Ġb ressol
us es
Ġin evi
le da
ĠM Ãºrcia
li Ã³
ĠT ren
ig o
ĠI gnasi
Ġrec ollit
ĠN ingÃº
Ġr oses
Ġvi ven
av is
ĠEs pec
Ġcas ament
gi pte
Ġav aluaciÃ³
Ġ4 3
ja va
Ġte Ã²rica
Ġfun dar
Ġforma tius
Ġfot ogra
Ġtorn i
Ġmin erals
Ġop ort
ĠAr tur
if e
Ġrefer eix
Ġapar entment
orre gut
ej ament
Ġofici alment
aj ut
ĠSegu rament
Ġpais atg
ĠgÃ¨n eres
inf ant
ĠfreqÃ¼ ents
Ġdoctor at
Ġcavall s
anomen at
Ġcerc le
ĠAnd rÃ©s
lig ents
Ġrevolu cion
Ġacud ir
Ġrid ÃŃc
5 8
c les
f ia
l ents
m m
p od
y w
Ġa gl
er ats
at o
em magatzem
Ġes ter
ĠS evilla
ĠB rossa
ĠG ro
ac or
rim es
Ġentre vis
Ġpu jant
ĠUn es
Ã¼ r
Ġor iental
Ġco va
Ġdeix eu
Ġdeix arÃł
Ġcomun iÃ³
ĠVal encia
ĠK a
Ġescol tant
Ġapar egu
Ġmon uments
Ġefec tius
Ġestr at
Ġconser ven
Ġdedic ats
Ġvinc le
Ġlim itacions
ide es
Ġord res
ĠEsp riu
Ġsatisf ac
ĠBon et
ĠAlbert o
Ġindica cions
Ġreligi oses
ĠDom Ã¨n
Ġdisf ress
Ġbomb ers
ĠVis ita
Ġfed eral
Ġgeni al
ĠTre mp
ĠSÃłn chez
D urant
N A
n ats
u risme
Ġa ustr
Ġs ost
Ġs onar
Ġs osp
al ba
ti o
Ġf ixa
ĠP enya
Ġin tr
Ġo i
ĠEl ls
Ġan ualment
Ġr Ãłn
Ġvi via
Ġgran d
Ġsor tirÃł
Ġdesc ri
Ġ5 4
Ġdoc um
utilitz en
Ġimpor ta
ĠAr quitec
Ġutilitz ada
Ġlleg endes
eti queta
ĠMol let
ĠLli ure
resid enta
Ġtriomf s
ĠestratÃ¨g ic
Ġsepar ar
ĠEc onomia
ĠConc retament
Ġdepar taments
lim entaciÃ³
Ġasc ens
Ġdescomp tat
ĠEspor tiva
ĠÃģ ngel
Ġcoher ent
ĠdidÃłc tica
ĠMem Ã²ria
horab ona
8 9
C an
a us
b aix
c eb
n eu
Ġf rus
Ġun animitat
Ġal emanya
ĠC C
Ã² bia
Ġb ors
Ġb alla
Ġg rega
Ġcon quer
ir ona
Ġdes enes
ob ri
ĠB CN
ĠF am
ĠF eli
ĠJ ut
Ġta pes
Ġar bre
ĠEn ciclopÃ¨dia
tor ell
ĠH or
ex ecutiu
Ã¨s ties
Ġass emblea
Ġcal cula
Ġx ef
met ratge
Ġra Ã§a
ĠAn em
ien e
Ġint Ã¨rp
Ġ8 00
Ġven Ã§
Ġprop ici
ĠCal a
Ġestr en
Ġperd en
ĠMi reia
Ġconven cional
her Ã¨ncia
ĠVer ge
Ġfar Ã©
Ġ197 8
Ġrecull en
Ġeix e
Ġ193 9
eda g
Ġend ur
ĠacadÃ¨m ics
Ġrat olÃŃ
Ġapun tat
escol ars
Ġferro vi
ĠÃłnim a
Ġlleug er
Ġreivindica cions
ĠGas tr
orden aciÃ³
Ġsobiran ista
Ġnar raciÃ³
organ isme
Ġsubministra ment
ĠWill ia
ĠCÃŃ vic
Ġpetr oli
, âĢ¦
5 2
9 2
H ab
i ves
t ent
Ġp avellÃ³
qu eb
qu illa
in teg
gu erra
tal lat
Ġdes truir
il itzar
tin ciÃ³
ĠV ull
cion alitzaciÃ³
Ġimp er
ĠH om
ener aciÃ³
Ġdia gnos
Ġfin alitz
Ġab ordar
pi tal
Ġarrib ada
ĠQu ÃŃmica
Ġdeix i
ula cions
Ġsitu en
esta va
ĠPar aula
por tiu
Ġforma tiu
Ġclar s
Ġprom esa
ER S
En ginyeria
val u
Ġsem if
Ãłl isis
Ġden uncia
Ġsimp li
ĠÃĢ lex
Ġexplica va
OR M
Ġtit ulat
Ġart ÃŃstics
ĠCap ella
Ġagaf at
Ġcient ÃŃfiques
Ġrebut jar
Ġtorna va
amp liaciÃ³
Ġindic adors
ĠEc onÃ²mic
Ġsubstitu ciÃ³
ump ciÃ³
Ġqued ant
Ġdob les
Ġavan tatge
Ġjuvenil s
Ġpolici als
Ġbarcelon ins
ĠCD C
ĠApro f
ĠIgual ada
ĠLiter atura
Ġitali ana
Ġatemp tats
Ġcomodi tat
Ġretar d
ĠCoordin adora
% ),
M P
M ol
R es
e w
j ug
o rem
p is
Ġ utilitat
es panyol
or able
Ġt ribunal
in dic
Ġen carregar
Ġal Ã§ada
ĠC ir
ĠP ineda
Ġb el
Ġca Ã§a
Ġdes fer
ĠT emps
ĠG emma
id entitat
Ġex ag
ĠJ on
Ġta xes
op ar
op tim
Es t
Ġveu reu
erra da
ĠDes carregar
Ġsal ud
Ġfot ogrÃłfica
Ġest os
rip t
gl ish
Ġrepres entat
ĠW h
Ġutilitz em
Ġpeti cions
cal dia
Al emanya
Ġleg alitat
Ġgaud it
Ġdona da
Ãłc tica
ĠCo di
ĠmÃłxim s
Ġjun tes
Ġtecn olÃ²gic
mÃł tics
Ġcomerci ants
ĠGra menet
Ġinteg rants
ĠavanÃ§ ada
Ġub icada
Ġcerti ficaciÃ³
ĠnecessÃłria ment
Ġjugador es
ĠfreqÃ¼ ent
ĠProf essor
Ġcarreg at
Ġfu tures
lel ament
Ġameric ana
ĠConser vatori
Ġvoluntari at
Ġtert Ãºlia
ĠMam ada
ĠfÃ²s sils
ĠLegis laciÃ³
Ġcresc ut
Ġfores tals
A s
A mposta
V E
r Ã²p
er em
ta gram
Ġc ed
Ġel egant
Ġque ixa
ri que
gu Ã¨s
ĠP ess
ĠP reu
ĠP ale
ĠA R
Ġno ble
Ġno bles
Ġg ana
Ġg ala
le a
Ġha ureu
ĠD eci
Ġan iran
tin y
op ortunitats
ĠEs port
âĢĿ ).
per Ã²
Ġpa tates
Ġcor ona
Ġor g
ella s
Ġinc ertes
Ġtrac ten
Ġdirec tius
ĠAn ti
Ġprogra mat
Ġri era
Ġref re
Ġdesenvolup ant
ĠAr xiu
rÃŃ p
Ġneg atiu
Ġcl ÃŃnica
Ġro de
Ġagra Ã¯t
Ġmon itor
Ġobli dat
Ġdefin it
Ã± ez
Ġpresenta des
Ġconfi ar
arca cions
ĠRep res
Ġcompeti cions
Ġ198 5
Ġfoc us
ĠestratÃ¨g ica
Ġconsol idat
Ġsof tware
Ġdra mat
Ġfinanc er
Ġcondem na
Ġdismin uciÃ³
Ġdenom inaciÃ³
Oc tubre
Ġsaluda bles
Ġreivindic aciÃ³
ĠsÃŃmb ols
ĠGl obal
ĠMer itxell
Ġinnovador es
ĠAlg Ãº
Ġdecora tiu
Ġvalles ans
Ġmotoci cleta
Ġroseg adors
5 1
6 4
D escripciÃ³
P al
u alitats
es i
al cohol
in ades
in forma
res sa
ĠC ro
ix en
Ġre vi
as p
ĠS ort
ĠD en
ob lit
ĠF ru
ĠI d
ina va
Ġpass es
Ġsegu ides
int el
Ġins u
vis me
Ġsor tint
Ġver teb
Ġsal Ã³
ag ossa
fi qui
ll ats
inc esa
ĠCas es
Ġri ca
ĠĠ Ġ
ĠCal if
Ġcompar ar
Ġexc essiva
omp liment
Ġindepend entment
Ġestr ena
Ġindi quen
ĠcomenÃ§a va
ĠRam Ã³n
Ġsenz illament
ĠTen en
Ġjudi cials
ĠGe ografia
Ġmad u
ĠRip ollet
Ġfron tal
Ġterror isme
IV A
Ġsimb ol
ĠRoc k
ĠquÃŃm ica
Ġprote gida
Ġcorpor al
ĠSem inari
ĠcÃŃ v
Ġespiri tual
Ġescoll its
6 7
A ula
I m
M I
l legir
n ers
Ġ ot
Ġde ter
Ġa udi
ar de
on em
on da
Ġt rent
in ven
ĠE ivissa
Ġcom itÃ¨
Ġre pos
ĠA ten
Ġb eren
Ġin vas
Ġdes fi
im e
Ġar xiu
Ġinter venir
Ġpl Ãłn
Ġsup ressiÃ³
fici als
ĠestÃł vem
Ġtan cats
ĠX i
Ġprof eta
anes os
Ġcomun itari
Ġju eves
of t
Ġbaix ant
Ġdispos ats
Ġgra var
Ġfan g
Ġapar ells
ĠCan o
Ar quitec
Ġfes tivitat
Ġfes tivals
organitz ar
Ġcob ert
Ġllu ites
Ġsubs tÃłncies
Ġprocess Ã³
Ġnegoci ar
Ġfran ja
Ġentren aments
Ġcoincid eix
Ġdispu tat
Ġpsic ologia
Ġvesp rada
Ġban queta
Ġba tall
Ã²c rata
ĠIs rael
Ġrefor Ã§
Ġdistin ciÃ³
Ġregi onal
Ġplantej at
ĠVicent e
Ġrevis ar
Ġimmig raciÃ³
Ġext ens
ĠAfeg eix
ilat eral
espÃ¨ cies
ĠTec la
? .
F E
c los
l ers
en questa
qu ir
al imenta
âĢ ĭ
Ġque ixes
Ġt rin
Ġt Ã²x
om Ã¨t
gu alment
Ġre duÃ¯da
Ġb eca
us alem
Ġg es
Ġll una
tr Ãº
cion isme
Ġimp ac
Ġsoci alment
Ġcatal an
ĠQ U
Ãłria ment
Ġad ult
Ġ4 1
men tals
Ġdirec tiva
ĠCons ulta
Ġdivers a
Ġcer Ãłmica
ĠK ar
Ġinteress ada
imp ressiÃ³
Ġfi la
Ġconsum idor
Ġlliure ment
ĠtrÃł fic
Ġmer eixen
Ġestran ya
inat Ã²ria
Ġfix at
Ġvesti ts
Ġtru car
Ġcommem orar
Ġconten idors
Ġpedag ogia
Ġpag Ã¨s
Ġaudiovis uals
Ġenvi ant
Ġras tre
ĠProduc tes
ĠGel trÃº
Ġlater al
ĠperiÃ² dica
Ġsalv atge
ĠVend rell
tiny ent
% ).
5 4
b ro
c ules
t op
w eb
Ġa er
Ġa ran
Ġc Ã¨n
an dre
os ex
ol or
da da
ĠC uri
us sions
ĠM anc
Ġha ig
Ġdi guÃ©
ĠD emÃł
ad olesc
ĠI gualment
Ġrec rea
Ġpre dic
Ġtra Ã¯
Ġcos m
Ġinter canvi
Ġmar gin
Es querra
ĠAl hora
esti m
Ġx en
Ġpob lat
ĠDes ta
Ġmal es
Ġfor tes
Ġaut onÃ²mic
Ġsetm anal
ĠÃº niques
Ġpas tor
Ġest Ã¨tica
Ġ7 00
Ġllen Ã§ar
Ġcompar tim
Ġro ques
ĠLle vant
tur at
Ġtren cat
Ġenc Ãłrrec
Ġdesta cades
ĠRa imon
Ġautor itat
Ġpes ar
Ġrem odel
Ġemb ar
Ġrepro duir
ID A
Ġemo ciÃ³
Ġlimita da
avan tatge
Ġperjudi ci
encarreg at
Ġimplem entaciÃ³
ICI ONS
ĠautomÃłtica ment
Ġpropa ganda
ĠtomÃł quet
ĠTelec omunicacions
dalus ia
ĠRespec te
D A
c uls
t ries
Â °
Ġl ine
Ġc ess
an itats
on ent
Ġm enta
Ġqu ota
Ġt ristes
Ġdel im
Ġal b
ĠC ic
ons able
Ġre ta
ĠP ub
ĠT ossa
Ġac ollida
ĠV era
ut h
ĠN au
ĠU S
jec ciÃ³
Ġpr ud
uc rist
Ġcul p
Ġjo ia
Ġcomun es
Ġben edic
Ġsin cer
Ġaut oma
Ġpassat gers
Ġelec ciÃ³
ĠAr nau
est os
labor ador
Ġobli gats
Ġcaus ar
Ġrealitat s
ĠZ ona
Ġnaveg ar
ĠFran k
Ġconcep ciÃ³
ĠRom ero
ĠCiutad ella
ĠEtique tat
Ġobligat ori
Ġmares men
EU iA
Ġol or
Ġbut xaca
Ġobtin guts
uss Ãł
elim inaciÃ³
Ġrepublic Ãł
Ġext ensa
Ġparlament Ãłria
Ġcadi res
ĠescÃ¨n iques
ĠbritÃł nic
Ġmediamb iental
Ġbran ques
ĠïĤ §
7 4
B A
e vid
i tiu
j ocs
k ar
u e
Ø §
Ġd ors
Ġl unes
Ġp Ãłr
on tal
Ġt ub
Ġf Ã²r
Ġf isi
Ġen com
ri Ã³
ĠP esca
ĠS A
si Ãł
ul li
ĠR oses
ĠG Ã¨n
eg aciÃ³
Ġr Ã¨p
car ta
ĠH am
alitz em
Es tudi
enci alment
ĠDi jous
Ġbar reres
Ġmin i
Ġloc alitzar
Ġllen ya
Ġrespec tius
Ġmon op
ciona ment
exp resident
ĠCor ona
Ġson ora
Ġabs ur
Ġconven is
Ġtele f
ĠVer d
Ġpal es
anim al
Ãłp iga
Ġprohib it
ĠjurÃŃ diques
Ġinforma tius
ĠEsper o
Ġsucce ir
Ag rupaciÃ³
Ġoper aciÃ³
ĠCÃł tedra
ĠtÃŃp ica
entren ament
obser vaciÃ³
Ġtraduc tor
ĠJer usalem
alli berament
Ġimmob ili
Ġsugg eriments
A igua
k h
p ecciÃ³
r s
t ÃŃs
Ġc ist
ar tic
al tat
Ġv enc
ri tas
ĠE va
ĠP uc
ĠA y
us ar
Ġg rossa
ant e
Ġdes mun
Ġan alitza
ell at
ĠF an
ĠG erm
ens eny
Ġex is
um in
ĠV II
ĠV ine
Ġres ca
tr ing
cion ant
cion istes
ill es
jec tius
am ena
ĠCom mons
ĠNo ves
Ġcor des
Ġad jun
Ġ5 9
ĠRe agrupament
mar t
Ġneg ociacions
Ġreb uda
Ġcu inar
Ġcat or
ĠCan adÃł
Ġconver siÃ³
Ġdirig its
ĠJes ucrist
Ġposi tivament
Ġnacional isme
Ġvinc ulat
Ġconsidera ble
Ġbat eria
Ġpost res
Ġimpuls ada
Ġincorpor at
Ġmas ia
ĠTen iu
Ġconsol id
Ġincl Ãºs
Ġllic Ã¨ncies
Ġsex uals
Ġinsc rits
Ġperdu da
ĠPsic ologia
Ġareny encs
ĠcÃłl cul
Ġeb ren
ĠFals et
ĠTranspar Ã¨ncia
S ense
V ic
g ons
h y
ti ci
ti bles
om an
Ġn Âº
Ãł cid
ic k
Ã² dia
Ġb rin
Ġcon Ã©ixer
Ġcon questa
ĠS ra
Ġdes n
oc ul
di pu
ad er
mp ings
Ġan tec
ver t
ĠF i
Ġac tor
ĠN eus
Ġmolt ÃŃssim
Ġmar quen
Ġtemp esta
esc ala
Ġad met
Ġinform em
Ġpo u
nes tol
Ġcel ebrem
tad ÃŃstica
ĠVi ol
Ġutilitz ades
ĠSal Ã³
Ġreb rÃł
Ġprom et
Ġacc ent
Ã²r nia
ĠCo okies
Ġafeg im
Ġdol ent
200 6
Ġaccep tat
Ġcr Ã¨dits
estudi ants
Ġport Ãł
Ġsubs tan
Ġvila tans
Ġmodi fica
fon ia
ĠSec und
Ġcristi Ãł
ef acciÃ³
Ġfl ora
Ac tivitat
ĠRel acions
Ġbot Ã³
ĠOli ver
Ġrecap taciÃ³
anomen ada
Ġconstruc cions
Ġjap onÃ¨s
Ġmanip ulaciÃ³
Ġprofunda ment
Ġreclama cions
Ġbur ges
Ġcoher Ã¨ncia
Ġfanta s
Ġenem ics
Ġinfant esa
ĠBart omeu
ĠanÃ¨cd otes
ĠrÃ¨c ord
nestol tes
S ÃŃ
i i
i tant
s obre
ar ticles
Ġs at
Ġm ari
Ġt ribunals
da des
ons o
ĠA h
le tisme
ĠM y
Ġe vang
Ġdi ges
ĠD alt
ĠD uraciÃ³
Ġan ota
ter dam
eg ada
ĠV el
Ġll anÃ§ar
ass es
Ġcap g
de a
de d
cion en
ed ent
Ġcar t
ex ic
reb alla
Ġcre di
Ãºs tries
am ic
Ġass emble
Ġmes tra
Ġcal ent
Ġad vocat
ric h
Ġmal trac
ĠAn tic
Ġam istat
Ġapro va
ĠAr ran
reg aciÃ³
Ġrecord ant
Ġinteg ritat
Ġinvestig ador
Ġestim ada
pid esa
CI A
Ġsensi ble
Ġaplica ble
Ġacostu men
Ġrequer eixen
ĠMag dal
Ġfen Ã²mens
Ġfinanc ers
Ġprivi legis
ĠmÃ¨ dic
ĠTÃ¨c nic
........ ........
Ġdiscu tir
Ġarti ficial
Ġesten dre
4 00
T a
] ,
Ġp adr
ta g
Ġm Ã¡s
ĠC ob
ĠC AM
Ġre qu
Ġin Ãº
si onar
ĠB B
ĠB iblioteques
ĠF orca
ĠN ight
Ġpos tura
ed ora
per quÃ¨
... ,
car ril
Ġter Ã§
Ġdon aran
Es ta
Ġvis iten
lo w
itu ds
Ġav al
Ġ4 9
Ġmal estar
ĠAn g
Ġ5 1
ont ologia
Ġgovern ants
Ġinf la
eri di
Ġmin or
ï¿½ ,
Ġapro vaciÃ³
ĠPro pos
Ã²p era
Ã²p ies
Ġfil os
Ġpen jat
Ġleg ÃŃtim
ĠÃ¨ mf
Ġefec tu
Ġdeb ut
Ġinstitu ts
agra den
200 5
apro va
Or dre
Ġpost grau
Ġpropor ciÃ³
Ġsosten ibles
Ġprac ti
Ġjusti fica
ĠRic hard
Ġmera vella
igual tat
ĠPe tit
Ġinaugu ral
ĠMitj anÃ§ant
Ġvet llar
Ġdescomp te
Ġalem anys
Ġfeli Ã§os
Ġfit xes
Ġembl emÃłtics
Ori ent
Ġvisu alitzar
ĠNic ol
Ġlater als
ĠparÃł metres
Ġaven Ã§os
ĠIndustri al
M Ã©s
g ost
g ies
r Ã¡
Ġ ost
es ports
er ror
Ġp ins
an et
an iversari
os ar
ol les
Ġal tament
Ã¨ lia
ĠA ma
Ġcon re
Ġpar teix
ĠD O
Ġser em
Ġex tern
ĠN arc
Ġfa vora
ins tru
vi Ãł
Ġfer en
des c
Ġvol ar
ex ca
ĠCatal anes
Ġnom en
Ġpol lastre
). -
Es tiu
Ġtal s
Ġmitj anes
Ġcer tament
rÃŃ tica
Ġag enda
Ġbaix at
ES C
af iciÃ³
Ġobli dem
Ġdona cions
ba ma
Ãłl bum
Ġpresenta va
Ġofici na
Ġk ms
co i
ĠveÃ¯ nat
ĠSol Ã©
Ġimm ensa
estudi ant
Ġ198 8
Ġselec cionat
Ġentren adors
Ġcompor taments
Ġmoder ns
Ġacostu mats
Ġblan ques
Ġadop tar
Ġsingular s
Ġencarreg ats
Ġreflec teix
ĠVe ter
ĠTecn ologia
ĠElec trÃ²n
Ġseleccion ats
Ġindis c
Ġexcur sions
Ġemprened ors
ĠCirc uit
Ġopera tiu
Ġdisting ir
Ġdesigual tat
ĠED ICIONS
Ġconfid encialitat
ĠCient ÃŃfic
rug ell
T ots
U r
d an
ta ta
al isme
Ġt erapÃ¨u
Ġf ites
ĠE di
ĠE dicions
ec tÃł
Ġb or
di cional
Ġpar eix
ad vocat
ĠT rÃł
Ġr enta
Ġr end
rÃł ria
ĠCa min
ĠCa Ã±
des cat
âĢĿ )
ĠH as
Ġman c
Ġinter loc
Ġcre en
Ãłn iques
ĠMar torell
Ġsab ent
ida ment
ĠCas tells
Ġcri anÃ§a
Ġguany en
Ġlleg eix
Ġapar egut
Ġapar cament
Ġtracta des
af rugell
ĠRec tor
Ġcompany es
Ġprepar ada
Ġtren cament
Ġfi res
Ġtradi cionalment
Ġposi tius
Ġcot Ã³
Ġrem arcar
Ġaug men
titz at
Ġ198 0
Ġ198 4
Ġcivil itzaciÃ³
ĠfÃŃs ics
sion istes
ĠPremi Ãł
ĠSa int
ompl ir
Ġpac tar
Ġsecreta ria
Ġpreten en
ĠTur quia
ĠTi pus
ĠSar agossa
ĠgrÃłfic s
Ġdedi quen
ĠBre tanya
Ġintu Ã¯
b ona
l Ã²s
p eta
p irar
Ġa Ã¯lla
Ġc Ã¨
qu ers
Ġs Ãłpiga
in versiÃ³
Ġn ul
ic e
Ã¨ iem
ĠC ity
ĠE vid
Ġcom enci
Ġb eguda
Ġb egudes
Ġin defin
ur en
si qui
ĠD ansa
era peu
il ats
od o
Ġex istÃ¨ncia
Ġll ur
Ġll ars
ab ora
Ġr um
Ġvol ums
Ġimp ed
Ġter rible
ĠO pen
ĠAl c
lic s
Ġpart ÃŃcules
Ġver des
Ġra ces
Ġcri dat
Ġhab ita
Ġrefer ir
Ġsig ne
aut om
Ġro dal
Ġide als
Ġapar taments
gon Ã¨s
Ġdesp res
Ġagra di
inter net
ĠprÃłc tics
Ġobli gar
Ġinici als
Ġvul guis
Ġdemost raciÃ³
Ġocup at
apar ell
vel liment
Ġpaga ments
Ġcristi anisme
enÃ§ Ãł
Ġpon ent
Ġperc eb
ĠÃŃn tegra
Ġassenyal ar
Ġvide oc
Ġarque olÃ²gica
Ġdig ne
ĠAC N
Ġos cil
Ġjaci ments
Ġsenc era
rari es
Os ona
Ġarquitect Ã²nic
Ġpatro cin
Ġmerca deries
Ġllibrer ia
ĠGre en
ĠlliÃ§ Ã³
ĠSÃŃn dic
Val Ã¨ncia
ĠPresid Ã¨ncia
ĠExcur sionista
ĠHern Ã¡ndez
ĠBarber Ãł
Ġtrag Ã¨dia
9 8
F C
I tÃłlia
J os
P a
R O
S L
e ina
p ur
en gan
ti ficaciÃ³
in os
is ter
Ġre dueix
Ġin oblida
ul ls
oc es
ob tenir
Ġll Ãłg
ĠEs crip
ha uran
Ġimp ulsa
Ġma ta
Ã¯ ts
Ġcan alla
Ġass aj
Es tany
ĠAl ba
ĠIn di
Ġco ca
Ġsor tia
Ġsor prÃ¨n
Ġemp ord
Ġtrac tats
Ġam an
Ġsub m
Ġofer t
Ġpun tuals
Ġloc alitats
Ġdispos icions
Ġcl Ãł
Al g
Ġposar em
ion ista
Ġconver teixen
Ġpen et
Ġcarrer es
Ġcastell ana
Ġtor rent
Ġdedic ades
Ġfutbol istes
Ġedi tar
ĠeconÃ²mica ment
Ġ198 1
Ãłp ita
Ġmagn itud
olÃŃ tica
Ġprohib iciÃ³
omÃł tiques
Ġsac erd
ĠMir anda
Ġfrag ment
Ġitiner aris
vet lla
ĠdiÃłria ment
Us uari
ĠPon ent
Ġpassej ada
Ġmens ual
ĠagrÃŃ coles
Ġminist res
idi oma
ĠincreÃ¯ ble
Ġinquietu ds
Ġprejudi cis
Ġcredi bilitat
ĠÃ¨mf asi
5 3
B I
M A
T I
c ha
f ron
p ing
w ard
Ġs pa
Ġs ofer
Ġm ite
Ġv ota
Ġdel ici
ĠC OL
ĠP els
Ġb ranca
Ġcon ill
ĠS essiÃ³
tu be
oc k
ĠB arra
ĠG reg
id ora
ĠN et
ĠN Ãłstic
Ġfa ma
Ġcons tants
Ġfer ma
tr Ã³
ess ora
ina ugu
egu era
enti a
ĠMar xa
Ġinc en
tim s
ud ir
Ġsal aris
Ġperson alitats
rom e
iss ora
Ġprom ot
Ġpat rons
Ġfil s
Ġtri partit
En tre
ej ada
ĠPol Ã²nia
Ġne ur
Ġenc ant
Ġden sitat
Ġliter Ãłries
Ġbi o
IN G
ĠMont juÃ¯c
Ġdescon eix
Ġ198 2
Ġ198 6
Ġ198 9
Ġacord at
Ġsegur s
Ġconvi ure
Ġfunda da
Ġbra sil
Ġdesitj os
Ġprohib ir
ĠUr ban
Ġreac cionar
Ġllui tant
ĠprovÃŃn cies
ĠconstruÃ¯ da
Ġboti farra
Ġteix its
ĠIN F
Ob ra
Ġequ ilibri
Ġrepublic ans
Ġmeravell Ã³s
ĠsÃŃn tesi
Ġtari fes
ĠTran si
Ġdisfru tar
Ġmatis os
ĠMarg ari
ÃŃx ols
Ġlong itud
. ),
H e
h tt
k istan
n eg
Ġd rac
Ġa si
el ements
Ġt Ãºn
Ġper cep
is tats
ĠC SS
Ġb ou
Ġcon tenir
ĠS tar
Ġha guessin
ell ar
emp la
ĠG im
Ġll anÃ§ament
all era
ari o
Ġpos tal
ill uns
Ã¯ ns
ies ta
am et
Ġad sc
Ġsor ti
Ġaf ron
Ġactu alitzaciÃ³
ĠCons um
Ġforma tiva
Ġacab i
enc em
ĠGener als
Ġto quen
Ġhum itat
Ġdec or
Ġcu idar
imp ar
Ġdefens en
Ġdona ven
Ãłm ens
OR S
Ġbi om
Ġenf ons
Ġregid oria
Ġnacional istes
ofer im
Ġperfec ciÃ³
ĠAss emblea
oti p
ĠFel ici
Ġfal ten
ĠBa talla
Ġmasc lista
Ġconcent rar
Ġindic ant
Ġextre ms
Ġama gat
Ġadqui reix
interess a
Ġcog ni
Ġdig na
lÃłn tic
Ġves tir
Ġib Ã¨ric
Ġrecons trucciÃ³
Ġbit llet
Ġpresen tats
Ġmulti discipl
ĠBot Ãłnic
espÃ¨ cie
Ġamen aces
ĠInicia tiva
Ġtrent ena
H um
W eb
f ran
g all
g ina
n aciÃ³
r Ã¨m
z i
Ġs ants
Ġn os
em marca
ÃŃ ac
ĠD al
ad quisiciÃ³
Ġ( ...)
tan i
id o
id Ã³
Ġex iliats
ĠV ols
Ġcomp lic
Ġtra Ã§at
Ġtra duÃ¯t
Ġcas ualitat
ha urien
ĠH ill
Ġpass ad
ura k
Ġlli gada
lo v
Ġmo uen
Ġ4 6
Ġmal alt
han g
Ġaut ora
Ġcent rada
Ġbas c
Ġpropos en
Ġbon ics
hom es
Ġsist emÃłtica
edi ment
Ġmant ega
Ġterc eres
Ġacc ed
Ġren Ãºncia
Ġenc ert
ĠEx per
ÃĢ sia
Ġurb anes
Ġposi tives
Ġtur ÃŃstiques
ĠFin al
ĠMo ix
Ġsupos o
Ġacord ar
Ġul tra
Ġperill Ã³s
Ġadequ ades
Ġdemana va
ĠEc onÃ²mica
Ġcoopera tiu
Ġpau tes
Ġpreveu re
Ġcorre dor
Ġdomin ant
Ġmobil itzacions
ĠSar riÃł
eng any
ĠlÃ²g ic
Ġservid ors
Ġcontras enya
Ġestal viar
Ġsobiran istes
ĠUrb ana
ĠmÃ¨ri ts
ĠEspeci al
Ġger ent
Ġinvi taciÃ³
ĠBany oles
administra dor
ĠConven i
ĠSecund Ãłria
ĠMagdal ena
C S
C ap
l via
v ina
Ġa fer
Ġa met
Ġn eta
em et
ÃŃ eu
Ġcom te
ĠP ag
ĠP rades
Ġno tari
Ġg amb
ir en
Ġpar lo
ad on
tan er
il d
Ġex ten
ĠJ Ãºlia
rim a
Ġpos eu
Ġnost Ãłl
egu retat
Ġcre m
Ġpl ur
Ġ3 60
Ġdem arcaciÃ³
Ġcal aix
Ġinc ons
Ġmo tiv
Ġ4 7
erra des
Ġsec tori
Ġproduc cions
Ġest el
Ġcont ribuciÃ³
Ġmost rant
Ġconsid ero
Ġmet Ãłf
Ġmarc ats
Ġbo ira
lu gues
IC A
orta ble
200 3
apro xim
EC T
Ġdim issiÃ³
ĠSup oso
Ġgerm anes
Ġblog s
Ġproteg it
Ġproteg its
ĠRib es
olÃŃ mp
Ġguard Ã³
ĠBor rÃłs
Ġprec ari
Ġprior itats
Ġcomplex os
ĠPers on
ENT S
Ġespera va
ĠCurs a
Ġcandidat ures
Ġimprescindi bles
ĠIm atge
ĠPrincip al
ĠMod ern
ĠautÃ²n oms
Ġjub ilaciÃ³
Ġtraduc cions
Ġcampan ers
ĠResta urant
Ġexter nes
ĠCAT AL
ĠLec tura
Ġreutilitz aciÃ³
A gramunt
f ix
f et
u car
u ga
Ã ¢
es bor
Ġde uen
Ġde tenciÃ³
Ġa us
Ġp ad
Ġla va
os fera
Ġre iter
Ġg ot
ĠL isb
ĠS tan
Ġca ta
Ã¨n ior
ĠR en
ĠG od
ĠI D
Ġll urs
Ġta x
Ġpos o
arc h
Ġpa guen
Ġcar am
ex periÃ¨ncies
Ġman usc
rob i
ĠCom enÃ§a
Ġass ab
Ãłn ies
Ġdifer enciar
Ġav anÃ§ant
ĠCon trac
Ġdir Ãł
Ġaut onomia
por aciÃ³
tad ora
Ġreb ran
aut odeterminaciÃ³
Ġescri tes
Ġqualitat s
Ar ts
Ġleg alment
In ici
Ġdeci siu
Ġmanif es
ms terdam
ĠRa dio
Ġautor itzat
Ġmot o
Ġcontrac tar
Ġcomerci alitzaciÃ³
veu re
hab itaciÃ³
Ġinteg rar
Ġtermin is
Ġclassi ficats
Or den
Ġconn ex
Ġ197 4
Ġ197 9
Ġapor tat
Ġsepar at
ĠBa y
Ġcontribu eix
ĠsÃ² lida
ĠBor ges
Ġneu tr
las h
ĠTrans port
Ġargu ment
Ġpati ment
Ġcondem nat
ĠRaf el
ĠDef ens
Ġtros sos
Ġjap onesa
Ġhip Ã²
Ġmatar on
Ãī S
Ġsusp endre
ĠResp onsabilitat
ĠSelec ciona
Ġinjust ÃŃcia
aprofi tar
ixamp le
ĠConver gÃ¨ncia
ĠUd G
amena Ã§a
ĠEvid entment
C A
d Ã¨ncia
f s
u tes
es quadra
Ġp ra
Ġp int
Ġc Ã²n
Ġs anta
Ġt ort
Ġv ents
Ġper qu
ri o
Ġh ort
Ġal erta
Ã¨ dica
Ġles iÃ³
ĠA udiovis
tes is
Ġdes tr
Ġpar at
ob jectes
ĠB ap
Ġser iÃ³s
Ġres cat
ĠJ ussÃł
im ne
all en
Ġob rint
Ġdis sim
Ġprim a
Ġcos tar
Ġdon Ãł
Es cal
ĠAl t
enci aciÃ³
aix ec
Ġmillor ant
Ġsenti a
Ġcontinu em
and ro
Ġhum il
ĠGu ÃŃxols
ÃŃc ola
inter venciÃ³
Ġcastell ers
Ġcin ta
Ġpin ta
Ġacompany ament
Ġtecn olÃ²gics
ĠprÃ² leg
Ġobser va
Ġderi var
Ġfuncion ari
Ġpac tes
Ġconcre tar
ĠBor ja
audi Ã¨ncia
ĠSu Ã¨cia
labora cions
ĠFre ud
Ġinvesti gacions
ĠMil Ãł
ĠTecn ologies
Ġdinam itzaciÃ³
Ġrus sa
Ġconvoca da
Ġner vis
Cons ulta
ĠCompany ia
ĠCrea tive
ĠcontÃŃn ua
Ġalliber ar
Ġdav all
Ã©r coles
Ġps eu
Ġdesplega ment
Ġformular is
quadern aciÃ³
valu aciÃ³
ĠNarc ÃŃs
H isenda
P od
d rÃŃem
g ran
h at
m Ã³
Ġ 00
ta mbÃ©
on ge
ent r
os itats
in vestig
Ġes qui
Ġes camp
Ġes mentat
ĠC N
ot ja
ĠA j
ĠL in
ob tenciÃ³
era ble
ĠT it
ĠB ach
Ġex teriors
ĠJ ord
Ġll ogar
Ġcap es
tra ciÃ³
ĠH ome
Ġgu i
Ġab oca
pi ques
ert o
Ġemp la
que i
Ġdir Ã©
ĠCar re
Ġmaj Ãºs
ĠDi vers
Ġdiss enys
Ġcri t
ĠW ash
Ġven ien
Ġsuper merc
Ġgra pat
Ġexc Ã©s
Ġmor tals
Ġ0 1
ĠVic tÃ²ria
Ãłm ic
Ġcur ts
Ġimm ers
ĠRa Ã¼l
Ġcr Ã²niques
Ġagaf a
ĠAb ril
Ġfona ments
AS S
ce bre
Ġfoc s
Ġelabor ats
Ġsepar a
Ġ196 7
Ġsant uari
ĠMari o
Ġsorg eix
Ġnuc lis
Ġsenzill es
Ġprevist os
Ġquali ficat
Ġestabli ment
ĠespecÃŃfica ment
Ġgrec s
Ġexcur siÃ³
nom Ã©s
Ġramad eria
Ġpatro ci
ĠSolid Ãłria
Ġaspira cions
Ġreperc ussiÃ³
Ġestric tament
Ġterrat rÃ¨m
ectÃł rees
ĠclÃł us
3 00
8 5
P D
g ars
v asi
en viar
Ġp ala
ar ren
ci Ã¨ncia
on ari
Ġper if
ĠP avellÃ³
Ġb od
ir al
ĠM ec
li qui
Ġdes m
tu alitat
Ġpar cialment
ad ar
ĠT S
il le
ĠR ac
Ġac ollit
ac ho
ĠN E
Ġr uÃ¯
Ġfer ides
Ġpres tar
Ġpers ecuciÃ³
av asc
Ġcar den
quÃ¨ s
Ġtrob es
Ġtrob aven
Ġmen Ãºs
Ġcal efacciÃ³
end o
aix a
ĠmÃł gic
Ġri tual
Ġbar ro
he im
Ġaconsegu eixen
Ġ8 4
Ġmenys preu
ranc es
Ġrela tives
Al ta
Ġpen es
Ġpen edes
Ġpresentar an
Ġdist Ãłncies
Ġplant egen
acc ent
ĠGran ada
Ġcomb inar
Ġfac ultat
Ġmob iliari
Ġsob te
IN A
Ġvinc ulaciÃ³
Ġdescon eguda
rop ologia
Ġparticular ment
Ġdispu ta
Ġfuncion en
Ġdesitj ar
Ġexclus iu
Ġsorg it
Ġenvol tat
Ġqued aran
Ġvaria da
Ġvaria ble
Ġxi quetes
ĠMic ros
Ġator gat
Ġexpres sions
ĠRecord eu
ĠProc Ã©s
ĠSc hool
Ġtrib ut
exper ts
ĠUrb anisme
Ġparlamenta ris
Ġxines a
Ġinnova dora
Ġnucle ar
Ġbrom a
ĠInform Ãłtica
ĠMoss Ã¨n
ĠDeclar aciÃ³
itiner ari
H E
b r
e duca
f ÃŃcies
en lla
Ġl in
Ġc ites
qu isme
an is
Ġf rar
Ġf icar
Ġv ela
in ars
da ciÃ³
Ġb anys
Ġin demn
ĠS is
Ġdes truÃ¯
oc at
ĠT ab
ĠB et
Ġex terna
tin guda
ĠV Ã²lei
Ġcomp rat
Ġcas ti
ha el
ex e
Ġpu guen
Ġcre ia
Ġtrob ant
esc rit
Ġconc edir
Ġconc loure
ĠX if
Ġemp rendre
ĠCon eixement
Ġcul tius
ard ar
Ġ5 3
dic o
fi tant
Ġactu at
Ġaut onom
Ġmin oria
Ġ18 0
edi Ã¨ncia
iss eny
Ġgra vetat
aut og
actu res
ĠPla y
Ġsem inari
Ġacompany ant
Ġdub tar
Ġgen Ã¨tica
Ġmed alla
ĠÃĢ frica
ĠCiu dad
Ġocup en
ĠPrim avera
Ġsur ti
Ġci tar
ĠCada sc
Ġjut jat
Ġsensi bles
Ġderi vades
ke ting
Ġassum eix
Ġtraslla dat
ĠÃŃn dex
Ġurban itzaciÃ³
Ġinaugu rat
Ġplani ficar
ĠRecord em
ĠRobert o
ĠCoopera tiva
Ġpresen tant
Ġepis odi
ĠGin ard
expe dient
Esper it
Ġmural la
Ġespl Ã¨n
A li
I AL
a igÃ¼es
d arÃł
e y
g eria
n t
p rim
x iv
Â ¿
Ġ olÃŃmp
Ġp oma
ar tes
el ement
Ġv era
ĠS y
ĠS ac
ĠS gt
Ġdes carreg
ĠB erg
ĠB TV
ĠEl ena
ver gon
ĠF A
ĠF uster
ĠV eg
ĠJ x
ass o
ĠU OC
op e
Ġob se
Ġdis capa
Ġpa tint
Ġprim Ãłries
Ġseg res
Ġcre ients
Ġfin alitza
Ġmen uts
end or
ĠCon vocat
Ġcurs ar
ĠCar n
Ġbar ca
cep te
Ġconf ondre
Ġgra vaciÃ³
Ġpat ron
Ġfaci s
ion istes
gon al
com p
rig ht
Ġtel ec
Ġvisi bles
ĠSeg on
Ġdeb Ã²
Ġmi Ã©rcoles
Ġassegu ren
ÃĢ ngel
Ġpromo gut
Ġconsum ir
Ġaccep taciÃ³
Ġpan or
Ġadministra tives
Ġagaf ant
ofer eixen
Ġconvocat Ã²ries
ĠMed ia
Ġsignifica tiu
ĠsÃ² lid
Ġlid erar
ĠPolÃŃ tiques
Ġprec edents
Ġcru el
Ġdepend Ã¨ncies
Ġatur at
interess at
ĠCÃł ritas
Ġassign atures
Ġpop ul
extre ma
Ġvincula da
Ġprote Ã¯nes
Ġcorpor aciÃ³
expos icions
ĠMass ana
ĠCru z
Ġfemin ista
Ġllibrer ies
pens able
activa ciÃ³
Ġparadi gma
Ġcator ze
G E
M us
b ili
o i
Ġde ure
er nes
Ġc up
Ġs emes
on tre
re am
un ciÃ³
om ia
ic als
ĠC ot
ĠA ustrÃłlia
ĠA limentaciÃ³
ur recciÃ³
ran is
ada s
ĠI P
tr ina
Ġpre cis
op ia
Ġcar ril
Ġimp re
Ġimp actes
Ġnom enament
am en
Ã¼ ent
Ġpor ts
Ġdem oc
ella ment
Ġmun di
Ġemp ortar
ĠCon dicions
men gol
ĠAn y
Ġactu alitzar
Ġaut onÃ²miques
Ġsec retÃłria
Ġprogra mar
Ġespeci alitzades
Ġbas ades
ĠK im
Ġescri vint
Ġmon arquia
Ġtreballa dora
Ġinstitu cionals
Ġcomprom etre
Ġamp le
Ġsum ant
ĠSegu int
onal d
ĠRo da
Ġvia bilitat
Ġimpos at
ĠRep ro
ps on
ĠEm ili
Ġexpos at
Ġcoordin at
Ġrecla maciÃ³
Ġadequ ats
Ġexpress at
Ġemoci onant
ĠCamb ridge
âĢĶ ,
Ġquali ficaciÃ³
americ ans
Ġcircums tÃłncia
Ġinvesti gar
Ð° Ð
ĠOli va
Ġbru tal
Ġestre ta
ĠÃ²r gan
ĠUnivers ity
Ġth is
Ġrecolz ament
Ġequival ent
ĠIr landa
Ġdesaf ia
Ġdeguda ment
Ġoson encs
ĠridÃŃc ul
F A
L li
b en
b us
f in
m esa
en vi
Ġc rom
Ġper p
Ġper di
om bol
ĠC ass
ĠC reus
Ã² ces
ĠL im
Ġcon dueix
ca dor
ĠM ons
li quem
ĠD ina
ĠB uen
Ã§ o
ĠR ull
itz Ã³
id el
ac um
Ġres tring
Ġll uit
Ġar m
Ġar ris
ĠCa pa
Ġvi Ãłria
Ġmat emÃłtica
ili ars
ex hib
ap p
til lo
Ġdon in
ĠAl lÃŃ
Ġpob la
Ġtin guis
Ġaf iciÃ³
ric ul
Ġ5 2
Ġam ate
Ġproduc tiu
Ġacab ant
ĠmÃł gica
Ġbar ranc
Ġmod e
Ġcer ves
Ġref res
Ġcri atures
Ġ7 8
ĠVi ves
iss in
Ġcat Ã²lica
Ġdecid eixen
exp ansiÃ³
ĠZ eus
AN D
Ġabs orb
ĠEsc oles
inici ar
estr Ã¨s
Or questra
Ġcoordin ar
ĠBi om
Ãºn cies
ĠPep e
Ġmoder nes
Ġaband onat
Ġpon ts
Ġtret ze
Ġprogram ades
ĠelÃ¨ct rics
ĠBas e
Ġator gar
Ġacus at
Ġbut lletÃŃ
ĠDesc obreix
ĠRecord o
Ġvege tal
ĠSobre tot
ĠparrÃ² quies
ow n
Ġlimita des
ĠlÃº dica
Ġfren ar
Ġnoctur n
ĠOlÃŃmp ics
Ġestrang era
Ġapreci ar
Ġnor anta
ĠGand ia
Ġconnex ions
A lex
M a
e ficÃłcia
n ÃŃ
u ament
y Ã³
Ñ ĭ
es tany
Ġc itat
Ġc edit
ar tistes
Ġi ron
Ġf ederaciÃ³
Ġv ÃŃ
ol ina
ri ana
is e
ÃŃ f
ÃŃ l
ĠE diciÃ³
Ã² mbia
Ġb il
Ġb arcelona
ĠS ig
Ġpro venen
Ġca ves
ul o
ul tar
ul siÃ³
Ġdes enc
ĠD er
ĠD in
Ġac la
Ġex istia
ĠN ar
per ceb
eb ra
Ġpa quet
Ġimp edeix
Ġinter discipl
Ġmar ÃŃtim
Ġcre us
Ġsegu irem
ĠSant uari
Ġtal ls
Ãłs siques
ag n
ĠAn dre
Ġ5 6
nes t
Ġaut oc
Ġacab ats
ĠCar bon
Ġcla v
Ġcer eb
Ġresta ura
Ġ7 2
Ġporta ven
ok ing
ĠMan acor
Ġacc essos
Ġren unci
exp lor
Ġpregun tat
ĠMol ina
ĠCo rea
Ġtor tu
bil itzar
Ġsimp les
organitz en
OR D
Ġtras torns
Ġrob Ã²tica
Ġsupos en
Ġconstru int
ĠIns ular
ĠCer vera
Ġ193 8
Ġcontes tar
Ã²graf s
accep tar
aconsegu eix
Ġdivid ir
ĠHist Ã²ric
Ġallar gar
Ġdetalla da
Ġtab ac
Ġbesti ar
ĠFE EC
ĠON G
excur siÃ³
ĠEspec tac
ĠfÃ²r ums
ĠWash ington
C art
M B
P R
Q ui
S ec
b Ã³
r c
u k
u its
z er
Ġa tes
Ġs ir
Ġs obra
on et
Ġm escla
al et
Ġf usiÃ³
Ã© l
em o
ro ig
Ã¨ rics
ĠC inc
ĠC GT
it ch
ĠE ren
ix ent
Ġcom iat
Ġb er
ĠD an
ob e
te a
ĠF Ãł
ĠF la
ĠI de
vi al
vi di
Ġar reg
ĠEn glish
tor es
ven a
ex tensiÃ³
ap ren
ĠIn scrip
Ġinform Ãłtic
Ġsor prÃ¨s
met ratges
Ġmal e
Ġpublic Ãł
esta di
Ġsec s
mes es
Ġtar ann
Ã²g n
ĠW ord
Ġpoble t
Ġconf ron
est Ã¨tica
Ġrela tiu
Ġdin er
Ġlla Ã§os
Ġtel a
Ġgaud eixen
Ġestudi at
ej ant
Ġvin gui
lici tats
AC I
Ġdestin ar
Ġimm ens
organitz a
ĠÃĢ sia
ĠRo y
Ġfutbol ista
Ġaccep tes
ĠY as
ĠRep ublic
Ġmem Ã²ries
Ġgesti ons
Ġsepar ats
Ġ196 0
enf e
ĠNat urals
ras mus
Ġfinanc eres
Ġprivi leg
Ġarque olÃ²giques
Ġbomb arde
Ġallot jaments
ĠconvenÃ§ uts
Ġalluny at
Ġtitu laciÃ³
Ġaddi cionals
ĠDemocrÃł tica
Ġata car
ĠagraÃ¯ ment
ĠestÃłndard s
Ġcapi tals
Ġsavi esa
Ġsimul tÃłnia
ĠLisb oa
C entre
I descat
c ent
j ador
p ol
s al
u ci
Î ±
er as
Ġp ant
ci li
Ġla b
Ġqu otes
in qÃ¼
Ġun its
Ġes car
Ġal er
ĠP ac
ĠP rÃłc
ĠP aula
Ġb ec
Ġb uc
ĠS pa
Ġdes esper
tu es
ad jud
te ga
ĠB ÃŃ
ĠB osc
Ġan al
ĠR egu
bl og
ĠJ udit
Ġesp at
vi u
Ġcap tura
ex emp
Ġter Ãłpia
Ġpu ga
ve us
tiv o
Ġtrob arÃł
Es tem
ĠIn forma
Ġins tÃłncia
Ġinform Ãłtica
Ġmun tatges
ĠJo ana
Ġpo Ã¨tic
Ġver ge
Ġperson alitzar
fi cia
Ġtrans forma
ĠPar lar
ï¿½ .
ĠAr m
Ġcri ticat
Ġnecessi tava
est Ã©n
Ġcu er
Ġescol ta
Ġdesp leg
Ġmet ropolitana
ĠPa is
Ġmig rants
ĠAra gÃ³
ej os
ĠÃ¨ t
ĠEx tra
ang o
Ġcomenta va
ĠComun icats
Ġinvestig adora
ĠMo is
Ġpost guerra
ĠEmp resari
Ġjut jar
Ġreno vat
Ġquad res
ĠForm a
ĠSÃŃ lvia
Ġfab ri
Ġcad enes
lega mans
ĠPo eta
Ġarquitec tes
Ġarquitec tura
IL L
ĠMitj Ãł
Ġteat rals
Ġameric ans
Ġesca u
Ġprotes tes
Ġbu its
land Ã¨s
Ġvicep residenta
Ġindis pensable
Ġcris is
Ġmallor quÃŃ
Ġexhib iciÃ³
ĠThom pson
ĠRoss ellÃ³
Ġdeg Ãł
Ġbarb aco
Ġsimpa titz
Ġraona ble
ĠtÃ¨x til
ĠcapÃ§al era
Ġesmenta des
Ġberen ar
9 5
B en
G C
P la
V D
e Ã§
o gur
Ġde vo
Ġa ter
al ies
un des
âĢ İ
Ġt witter
om ot
Ġen gl
Ġen lles
Ġn acions
ĠP asc
ĠP acte
ot e
ot ecn
ĠA tenciÃ³
Ġb es
Ġg espa
Ġcon d
Ġpar ado
ĠR ab
ĠH u
Ġpu guis
Ġcre ient
ĠCom arques
Ġem et
rar ia
Ġesta tals
ĠDes embre
fi anÃ§a
Ġactu en
Ġpens eu
Ġcanvi en
Ġcent r
Ġelec tors
ĠPro vin
Ġcont ribuÃ¯t
Ġinteress ar
Ġmig rat
Ġdeci dim
Ã²r gan
ĠReg ional
lan des
ĠLli bertat
voca ciÃ³
Ġ198 7
Ġperill osa
Ġ197 0
Ġdispu tarÃł
Ġrepro duc
Ġsof riment
Ġguia des
ĠcÃ²m oda
Ġmir all
Ġregi onals
Ġplantej ament
Ġlleug era
ĠMod el
ĠCre aciÃ³
Ġori enta
Ġetique tes
Ġfidel itat
Ġexecu tar
Ġcorpora tiva
Ġmoss Ã¨n
ĠBarcel onÃ¨s
Ġcorreg ir
ĠPerp inyÃł
ĠrÃłn quing
Hab itatge
Ġtarann Ãł
2 000
8 6
8 7
a a
c ter
d et
u tat
Ñ ı
Ġde fici
al Ã§a
ti ra
Ġf ans
Ġv ocal
Ãł ri
Ġh ol
Ġh ectÃłrees
ĠC uix
it Ã³s
ĠE fec
ĠA gramunt
ĠL ES
Ġo x
ĠS af
ĠM E
Ġpro voquen
ur gia
Ġca os
Ġan Ãłlisis
Ġac triu
Ġcomp anya
ĠJ ava
ĠN aciÃ³
ass et
tic Ãł
Ġpre inscripciÃ³
Ġar c
ma jor
ĠH ong
ub i
Ġcos tan
Ġfin anÃ§
Ġins pi
Ġtin gueu
tim Ã¨dia
ĠQu ins
Ġmillor at
Ġpla ques
Ġra dia
Ġfor Ã§ar
ĠCas as
Ġtorn ant
Ġorganitz ats
Ġ9 5
Ġ9 00
Ġpun x
los iÃ³
Â» .[
Ġgra vats
aut oc
aut Ã¨n
Ãłg ina
imp res
Ġmet re
ĠPu blica
Ġinstitu t
Ġne ts
ba o
AC T
ĠEx posiciÃ³
Ġafeg int
Ġtecn olÃ²giques
ĠveÃ¯ na
ĠSol idaritat
Ġâ Ĥ
Ġdol Ã§os
Ġtit ella
Ġtras pass
Ġanomen ades
Ġvig Ã¨ncia
ĠRes erva
Ġprefer it
Ġextra escolars
Ġpreocup ar
Ġmasc l
Ġalterna tiu
Ġcuri osa
Ġconsider ats
Ġsindic al
rab ble
Ġapren entatges
ĠMic hael
ĠcÃł mping
Ġbut lle
Ġetique ta
ĠOs car
Ġtitu lada
Ġtrip le
ĠCompany s
loca ciÃ³
assol ir
Ġincapa Ã§
Ġjuris dicciÃ³
Ġbisb es
Ġester e
ĠCalif Ã²rnia
Ġmadu resa
Ġtristes a
Ġrodal ies
! âĢĿ.
H ome
I E
R Ãłdio
V I
d ols
g arÃł
h os
n exiÃ³
z on
Ġ ut
en em
en giny
en regist
Ġp ors
an alitzar
ent em
Ġv it
os au
ri ci
Ġal ien
ÃŃ as
Ġre afir
ĠP osa
Ġg om
ĠS I
ĠB envol
ĠF en
ĠF ort
ig en
ĠI gles
Ġcomp as
Ġrec er
ab et
Ġpres tat
Ġpos in
Ġap el
Ġcar ns
Ġma il
Ġpass in
Ġpass aran
Ġpr osa
ub e
Ġform alitzar
Ġmar ins
ies portiu
leg als
Ġsegu its
tre et
Ġsol ars
Ġcor riol
ĠIn teg
Ġins istir
Ġmen ja
Ġcal Ã§at
Ġconc lou
Ġexp lÃŃci
Ġsor tim
ĠCon venciÃ³
Ġmal auradament
Ġveg i
Ġcomun i
Ġactu alitzada
Ġpens ada
Ġfot oc
eri als
ĠPro p
Ġsuper aciÃ³
Ġaj ut
Ġclar edat
Ġhom og
Ġapar ell
ĠCol Ã²mbia
Ġnorm alitzaciÃ³
ĠMan olo
En titats
Ġdesta cada
Ġacompany en
ibliot ec
Ġconser vador
Ġdeclar a
Ġconsell eria
Ġesti guÃ©s
AL S
200 4
Ġgl Ã²ria
Ġrob atori
Ġestabl erta
Ġestabl ertes
ĠdifÃŃcil ment
Ġbenefici ar
Ġfra u
Ġfar macÃ¨u
arrib a
Ġcab uda
Ġincorpor ant
Ġdiver tides
Ġcontex tu
Ãłp ies
ĠActu alitat
Ġsatisf ets
Ġpon Ã¨ncies
Ġvaria bles
Ġcorrup tes
Ġexperim entat
Ġdescans ar
ĠDesc on
Ġarque olÃ²gic
esdeven iments
ĠSel ecciÃ³
ĠEspa is
Ġinn ecess
ĠUniversi tats
Ġfir ma
Ġvirtu ts
gma il
Ġassass inat
Gu ardar
fre d
ĠcontÃŃn uament
Ġboni ques
Ġaclar ir
ĠCFG S
Ġconvic ciÃ³
ĠautÃ²c t
impor tant
ival ent
ĠGuardi ola
ĠMicros oft
b u
d ino
g os
j aven
Ġc Ã²r
Ġc Ã²pies
or gull
or questra
al caldia
Ġqu ir
Ġt ril
in ci
ol ins
Ġen la
Ġn Ãł
Ġn Ãłu
da s
Ġre tallar
ĠP legamans
us i
Ġg in
ĠS anc
ĠM A
Ġdi ana
Ġdi guem
Ġpar er
ĠD escripciÃ³
ĠR Ãłpita
ĠF eu
ost Ã¨
ĠG PS
ĠV entura
ĠI ma
ĠN ota
fer ents
du ÃŃ
Ġcons istent
Ġpres es
Ġap lega
tor at
Ġpa p
ĠH au
ex tinciÃ³
Ġass ec
Ġins isteix
pi ri
Ġesta des
Ġcamp ions
ĠAn tiga
Ã²m ica
Ġsab ates
Ġrealitz em
Ġforma tives
Ġ6 4
Ġcent ÃŃ
Ġorganitz em
Ġop tat
Ġcri ts
Ġcompar eixen
Ġrela tius
Ġdefens or
Ġvin drÃł
Ġ0 3
Ġ0 7
Ġindi ferent
ĠMus eus
Ġdirig ent
mÃł tiques
ON G
hab itatges
Ġsembl at
ĠMont siÃł
Ġ198 3
Ġclassi ficar
ĠPre par
Ġproteg eix
Ġapor tant
ĠRom eva
Ġpsic o
Ġneu ro
Ġcant Ã³
Ġcant onada
Ġrat lla
ĠOc tubre
Ġordin adors
Ġdescomp tes
Ġadolesc ent
ĠElec cions
Ġcomplem entar
Ġpreser vaciÃ³
ĠCard ona
escal f
Ġcicl istes
Ġconsecu tives
Ġmediamb ientals
agaf ar
historia dor
Ġrev ela
clos ques
Ġfavora bles
ĠâĤ ¨
* *
C D
E ivissa
M al
P or
V a
c ans
m ena
n y
en si
Ġc los
Ġper cebre
Ġen ve
Ġn eb
ri z
ĠC and
ĠE li
Ġre duc
Ã² riques
ĠL GT
tu m
ĠD illuns
ĠT rin
Ġan omena
ig h
Ġex ist
ac ta
im es
im atge
ĠEn ginyeria
ari es
Ġob er
tica ment
Ġimp licat
Ã¯ s
Ġpr at
Ġcol Ã²nia
Ġcos tes
Ġcos tats
ap licar
Ġmes a
Ġvis uals
Ġad vocats
Ġarrib in
Ġparticip arÃł
Ġjo vent
Ġbas tons
ĠAr que
Ġreb ent
Ġlleg ia
no va
Ġpassar ia
ĠCol au
ok ie
Ġpen it
In d
In vestigaciÃ³
cis ta
ocrÃł cia
Ġanim em
Ġimm un
Ġsan ciÃ³
Ġsob ren
Ġcapital isme
Ġtermin al
Ġadap tada
Ġmis Ã¨ria
Ġselec cions
ĠSab em
ĠRib Ã³
ĠTerc er
Ġrecoman aciÃ³
Ġguard ons
ĠcomenÃ§ aran
Ġdibuix ar
Ġprec ÃŃs
Ġinfer iors
Ġaplica da
ĠtelÃ¨ fons
ĠPo esia
ĠMitj ans
Ġtes is
ĠâĤ¬ .
Ġali ats
Ġdepen en
ĠlÃº dic
ĠquÃŃm ics
ĠDeix a
Ġtip ologia
Ġcomiss aria
ĠSols onÃ¨s
Ġactiv ista
ĠCha mp
ĠbritÃł nica
Ġcomodi tats
Ġassocia da
Ġdesa perceb
Ġdisminu ir
Ġexerc eix
ĠSob irÃł
Ãłrbit re
Ġdeter mina
E dit
G ran
J C
ï »¿
en siÃ³
Ġa di
qu istes
Ġf actures
Ġes mentar
ĠC un
ĠE quip
ĠP rats
ĠA RA
Ġb ella
Ġpro duÃ¯da
Ġe go
ur Ã³
si vitat
Ġpar atge
ob ediÃ¨ncia
ĠT us
Ġan dal
Ġan nex
ĠR E
ĠR enaix
ĠF ri
emp erador
ĠI X
ins c
Ġesp osa
Ġpod ÃŃem
Ġpre val
Ġvi tals
de ts
Ġap ag
Ġap licat
Ġimp ost
Ġma tan
Ġcre ences
ap es
Ġsup ortar
Ġcatal anisme
ug ar
Ġad onat
Ġli quida
Ġemp ata
Ġve urÃłs
ĠDes pÃŃ
ĠÂ ¡
Ġproduc tivitat
Ġ6 1
Ġet n
Ġpas tÃŃs
ĠDi ego
ĠMa x
Ġpermet ran
ĠÃł cid
Ġsuper fÃŃcies
Ã²s tol
Ġcompar tint
ĠGu er
Ġconsid eri
Ġrela ta
com pany
ov ent
ER A
Ġcastell era
Ġinten cions
Ġenc orat
Ġat letes
ĠCor b
Ġind Ãºstries
ĠOr den
ĠdemocrÃł tics
Ġdic tador
IN S
Ġpil ots
ĠBale ar
ĠInterna tional
Ġcam ions
IS T
Ġpis cines
ĠLe on
Ã¨l ix
ĠlingÃ¼ ÃŃstics
âĤ¬ .
ĠGe orge
Ġpitj ors
ĠOc upaciÃ³
Ġedit or
Ġrendi bilitat
ĠBla i
ĠmÃ¨ dics
Ġcerc ant
Ġarren car
Ãºr gia
Ġapos tar
Ori ol
Ġadm ira
Ġmens uals
Ġnega tius
Ġemmagatzem ar
Ġesmen tats
ĠBil bao
interpre taciÃ³
ĠOber ta
ĠCerc le
Ġtrasp Ãłs
Ġdans es
ĠdÃ² lars
queb isbe
Ġincertes a
ĠBap tista
ĠCuix art
G R
N om
P ress
h al
m ics
s on
t y
y e
Ġde cad
Ġp icar
ar mes
an or
on d
Ġm ull
Ġf lo
Ġf alla
Ġh el
ĠC s
ĠE co
Ġamb aix
ĠP C
ĠA mposta
ant es
ĠS es
ĠM assa
Ġe ducar
li e
ad ona
Ġj erar
ĠT E
ĠB ones
ĠR enfe
ĠV ÃŃde
tic ul
Ġar bit
ĠEn rique
ge ta
me d
Ġimp licar
Ġpr incesa
Ġinter rom
Ġcre gut
int ent
Ġpor tals
Ġav in
que ig
Ġve i
Ġra cional
Ġfor ats
fi la
Ġespeci alitats
Ġ6 3
ĠPro pi
pe ti
Ġmenys pre
no w
Ġcl andes
Ġnorm als
Ġdom inar
ĠAv ÃŃs
Ġdescob rint
hab itants
Ġadministra tius
lle ts
entis tes
Ġcam iÃ³
ĠprÃ²xim es
Ġ: :
Ġmodern itat
Ġsus cep
Ġproced Ã¨ncia
Ġcalend aris
ĠhistÃ²rica ment
Ġfrac ass
escol ar
Ġnarra dor
Ġferro carril
ĠRel ig
Ġsucce eix
ĠÃłmplia ment
Ġtut or
Ġsimb Ã²lic
Ġrecap tar
Ġmur alles
Ġcarb Ã³
ĠArrib a
Ġartes ans
Ġjuga va
ĠTorn eig
Ġrecons truir
Ġperjudi cis
Ġtrenca closques
ĠFl ix
Ġtravess ar
ĠLlar ena
expe diciÃ³
Ġabra Ã§ada
Ġnad Ã³
Ġnatur alment
ĠJim Ã©nez
Ġoport Ãº
ĠVera y
ĠcÃ¨ le
Ġsubm erg
9 7
B ar
C iu
H onor
P P
g ics
p g
p ic
u ega
x en
es g
es tic
Ġc ellers
on ers
Ġm ides
Ġt rom
at Ã²ria
Ġf rat
Ġv otacions
Ġen vas
ri tes
Ġal tern
ĠC S
ĠC eller
Ġcom o
Ġe terna
Ġe ficiÃ¨ncia
li ga
Ġdes tru
ad missiÃ³
ĠR ot
bl ia
Ġres piraciÃ³
Ġrec tan
ĠN on
Ġr entar
tr en
ĠEn trada
de vila
tra s
ĠPer alada
arc als
Ġma quill
Ã¯ des
Ġcol on
Ġmar iners
Ġlli gats
Ġfin alitzaciÃ³
Ġem etre
Ġ- --
ĠIn vestigaciÃ³
Ġcal gui
Ġtan cades
Ġesta rem
Ġver tad
ĠSi erra
Ġra u
cid entals
Ġtrans fer
ll en
inc endi
oll er
Ġsab ors
ĠRe voluciÃ³
los os
ĠW ik
ĠMa Ã³
Ġven ut
of Ã²bia
Ġag re
Ġreb udes
ĠCal drÃł
aud itori
AT S
Ġefec tivament
Ġsa gra
Ġmi rem
duÃ¯ des
AN S
Ġamp la
ĠCl Ãłss
Ġmerc antil
ĠMo viment
Ġperill s
Ġ197 5
Ġrespon en
Ġret ribu
Ġcoincid eixen
Ġbla va
Ġrevol ta
ĠCiutad ania
ĠPi quÃ©
Ġcuri ositats
Ġadqui rit
Ġedit orials
Ġgo ig
ĠOn tinyent
Ġordin Ãłria
Ġdot zena
Ġprodu int
ÃĪ N
ĠApro fitant
Ã³rm ules
ĠNorm alment
ĠTo ur
ĠUnivers itÃłria
Ġferm entaciÃ³
ĠÃĴ mnium
ĠÃłrab s
Ġdistribu ir
Ġlici taciÃ³
Ġexter ns
Ġull eres
ĠAz nar
ĠBut lletÃŃ
iscop al
Ġfilos Ã²
ĠÃŃntegra ment
ĠTransi ciÃ³
8 1
B N
C ada
H T
M E
T C
T en
V i
e ines
f ord
k u
l og
x of
z ina
Ã ĩ
en al
en tats
Ġde tallat
Ġp eb
Ġi ogur
ci ment
ci des
Ġs Ãº
Ġs how
ti Ã³
Ġt omba
Ġen der
gu esa
Ġcom etes
Ġamb ients
ĠA lej
Ġb ÃŃ
Ġb og
Ġb ord
Ġb Ã¨l
Ġb reus
Ġg otes
ĠL an
ĠL ocals
Ġe ficÃłcia
Ġdi vis
si g
Ġva ca
Ġan tel
Ġta ques
Ġfer ida
âĢĿ :
Ġma mÃŃ
Ġesc or
Ġcre mar
Ġass equi
ĠAl onso
Ġins istit
Ġad orm
ĠX ile
gi o
Ġemp itj
Ġve urÃł
ĠCon tac
ĠAn dor
Ġactu alitzat
Ġec olog
ĠLl una
Ġbas ats
Ġapro x
ient o
Ġpermet ent
Ġdec eb
Ġdisc os
aut ors
labor en
Ġporta des
ĠCan et
Ġcapa ci
ĠPa ti
Ġfam osos
ĠAc cep
Ġestr enat
Ġajud arÃł
Ġcirc um
Ãłm iques
ĠMas ia
ĠSol Ãł
Ġpromo cions
Ġâ ŀ
Ġincor rec
Ġesdeven en
eric Ã²rdia
Ġnacional ista
ĠVil ar
Ġvari ant
ĠQue da
titz ada
ĠCh rist
Ġpec at
loc at
ĠPor ts
Ġequi vocat
ĠBi el
ĠBi ologia
lÃŃ cit
ĠLla c
inf ra
Ġess Ã¨ncia
Ġcontext os
Ġverm elles
ĠBas tards
Ġdig nes
Ġagu antar
elim inar
Ġincon ven
Ġperdu ts
Ġretrob ar
Ġpion er
Ġesb r
Ġpreven tiva
Ġestrang eres
Ġpantal les
Ġenfor tir
Ġflamen c
ĠEul Ãłlia
Ġbors a
ĠllÃłg rimes
Ġprecari etat
, "
9 1
A met
P M
R ep
S c
e ver
g Ã¨n
h ad
o ut
v eg
z quez
es morzar
Ġde terior
Ġa jun
ta bles
Ġc Ã²
ci ts
an tat
Ġel em
ent ÃŃ
Ġt ol
Ġt rÃŃp
ĠP il
ĠP RE
Ġcon reu
ĠM Ãº
Ġe d
Ġdi Ãł
si ona
di ta
Ġan ces
Ġex ecuciÃ³
Ġex ecutiu
eg al
vi da
ĠU l
Ġpres ta
ĠCa fÃ¨
Ġap re
ess is
Ġdis tan
Ġdis per
Ġpa tin
Ġcar di
ĠH all
Ġpass Ãł
egu r
Ġcol umnes
Ġpot encials
dre t
Ġmar ina
ĠAl m
min i
esc ollir
Ġcal en
Ġcal enta
end ari
Ġexp lotaciÃ³
Ġad minist
ĠX er
Ġinc endis
Ġmun tat
Ġdeix Ãł
Ġve ien
Ġdu els
Ġra j
Ġra ig
Ġproc edir
Ġsitu ades
Ġsub mar
ida d
Ġapro pi
Ġdiss ol
Ġag ent
Ġrefer eixo
ĠCal af
ĠSer v
Ġfil ms
Ġpen siÃ³
Ġlla tina
let xa
Ġdeb utar
tany ada
Ġpin ya
Ġtex tura
Ġfacili tades
ĠPod er
Ġidenti ficat
Ġquin zena
Ġreser vat
Ġconstru eix
Ġord enar
Ġcab al
Ġselec tiva
Ġprefer its
Ġadre Ã§ar
Ġexig ent
Ġjut jats
escrip tora
ĠvÃł lida
ach ing
Ġverm ut
ĠÐ ¿
Ã²c rit
Ġcerti ficats
Ġcerca vila
Ġperme tia
ĠDem Ã²crit
Ġcinqu antena
Ġreci tal
Ġconsta tar
Ġavis ar
Ġacus acions
Ġpreci sa
Ġfals a
Ġband eres
ferm eria
ĠVe Ã¯ns
Ġalum nat
Ġenorm es
Ġpesca dors
Ġgro cs
lli ga
Ġdesigual tats
Ġnoctur na
ĠDim ecres
Ġatura da
Ġatura des
establ ir
tatu atge
Ġinnova dors
Ġecos istemes
Ġespon tÃłnia
Ġsaf ata
ĠTrib una
Ġcass ola
Ġinspir at
Ġinevi table
adolesc Ã¨ncia
exca vaciÃ³
8 2
E ixample
d rome
j arÃł
t osa
w ay
Ñ Į
Ġ <
Ġl Ãł
Ġm itges
al d
al ter
at ra
Ġf rom
ĠC RE
ĠC ET
ĠE gipte
ĠP allar
ĠL ou
Ġo u
ĠS uc
Ġpro to
il itzaciÃ³
Ġser via
ĠF ebrer
eg r
ĠV ar
ĠV ista
Ġcons is
Ġta par
tr os
na m
ren d
Ġvol eibol
ĠH oll
egu en
Ġsegu ia
ĠCom encem
Ġlli ur
Ġass umptes
Ġins erciÃ³
fici entment
Ġdem Ã©s
Ġad hes
Ġesta bilitat
Ġaf ores
Ġaf ortun
cab ulari
Ġjo ies
Ġperson alitzats
Ġdu ia
Ġra ti
Ġbar at
Ġofer ts
Ãłr qu
Ġint ents
Ġint enten
Ã¡ b
Ã¡ rez
Ġhe ter
ĠÃł pats
ES S
Ġdin osau
Ġas sim
Ġdesp ren
Ġdefens ant
actu acions
Ġ14 0
Ġtreballa va
Ġsem i
Ġpin z
ĠZ ar
Ġrom and
omb raries
Ġresol t
Ġresid ent
Ġdur an
Ġmot os
Ġgl ori
Ġdetermin ant
Ġvia ble
Ġport o
Ġrepresen tats
Ġfona ment
alum ini
ĠTra ducciÃ³
Ġ197 7
Ġsignifica tiva
roc k
orig inal
Ġbra sa
ĠsÃ² lids
Ġeix ir
Ġ196 8
Ġsatisf et
essor is
Ġmad ril
Ġmel odia
ĠConf ederaciÃ³
ĠEsta tal
Ġmetod ologies
ĠFon ts
Ġsignat ures
Ġcomanda ment
ĠCoopera tives
Ġsensibil itzar
ĠPic asso
ĠIb Ã¨rica
Ġgiron ines
ĠDic cionari
Ġpublici taris
Ġconsecu tiva
ĠvoluntÃłria ment
ĠFo ix
ĠpedagÃ²g ica
ĠThom as
Ġhoritz ontal
Ġmusul mans
ĠmÃ²d uls
Ġdegra daciÃ³
ĠÃĢn gels
Ġcoix ÃŃ
Ġplen itud
Aix Ã²
OCI ACIÃĵ
Edu ard
indo ws
ĠDeb at
Ġgrand Ãłria
ĠFeli pe
ĠDina marca
Ġdevo ciÃ³
ĠPasc ual
? âĢĿ.
A f
C amp
G irona
H ola
e jo
j ing
p ica
Ġ !!!
Ġ Ã²b
ci desa
Ġm exic
un i
ent esa
Ġf essin
Ġen va
ri des
Ãł via
Ġes ment
Ġes mor
Ġse tena
ĠP is
ĠP ad
as tia
Ġb atre
ĠL et
le ge
Ġcon ca
ĠM AR
Ġdes prÃ¨n
tu Ã³s
ĠT OT
ĠT reballa
ĠB ass
ĠB ast
ĠF ul
emp a
ĠG Ã¼
ac er
ass ocia
Ġpres encial
rÃł ries
op i
av ella
Ġpa gat
Ġimp eri
egu ir
Ġpr Ã²r
gra ma
iÃ³ dico
am ora
Ġsens a
Es tadÃŃstica
Ġor elles
end rÃł
Ġcontin guda
ĠQu art
reu ament
atre v
inc rem
Ġgovern ador
Ġpas tors
ĠAr gentina
Ġsuper vis
Ġcl Ãłssiques
Ġro c
Ġmus e
ER T
En erg
ĠPal afrugell
ĠVa ticÃł
Ġdeci siva
Ġat ents
Ġperm isos
ĠTor ro
odi es
Ġpremi ats
ĠMont cada
Ġrecorre guts
ingÃ¼ isme
ĠdÃ¨ iem
Ġrelig ions
ĠTen ia
elec tricitat
ĠCul turals
Ġmagn Ã¨tic
ĠvÃł lid
Ġru tina
Ġllic enci
Ġinver tir
espera da
ĠGal ÃŃcia
Ġher bes
ĠMe teor
Ġintens ament
Ġdesf eta
ĠÃģ lvarez
ĠOrganitz aciÃ³
OG C
Ġvulnera bles
ĠVill al
Ġbene ficia
ĠpedagÃ²g ic
Imp eri
Ġfur gon
Ġgimn Ãłs
Ġnervi Ã³s
ĠEnerg ia
TM L
autob Ãºs
ĠtÃ²p ics
ĠpÃłr quing
avasc ript
xiv at
Ġsemes tre
ĠMois Ã¨s
" )
9 6
C R
G U
a h
b ums
p le
r all
w ing
y ar
Ù Ī
Ġde mag
Ġl enta
Ġc ib
Ġc allar
qu an
Ġqu er
at zar
in fer
Ġn Ã²m
ĠC anÃ§
it ÃŃ
ĠP N
Ġg org
ĠM ana
ĠM Ã³ra
tu d
ĠT ai
ĠB eren
itz ador
Ġex prÃ©s
ac ol
ĠV erm
ut ors
ins tein
Ġpre ciÃ³s
Ġar rodon
Ġcol pe
Ġinter nes
min aciÃ³
Ġcor atge
ug i
Ġestat uts
Ġprojec cions
Ġme tall
Ġresp irar
ĠQu ines
Ġemp rar
Ġra mat
ĠPar rÃ²
Ġsub si
ĠRe ina
Ġbar roc
Ġdesenvolup ada
ĠK e
Ġ8 5
Ġpresid ents
Ġconf ia
Ġdisc rep
Al calde
Ġcontr Ãłria
Ġdesp ro
ĠCol ls
Ġmor f
ĠMan if
Ġlla vis
Ġsent Ã¨ncies
ĠVic ens
ĠZ el
der ic
Ġsigni ficar
Ġcob ertes
Ġesper ances
Ġdetermin aciÃ³
ĠMor era
Ġmul tina
ĠMont b
Ġderro tar
ĠPr Ã²
Ġ197 6
ĠRom Ãł
inf ants
ĠMin istre
Ġfort una
Ġ194 1
ĠNi vell
Ġful la
Ġconduc tes
Ġenca min
Ġenca den
ĠBla ck
ĠMic hel
Ġseri osament
Ġsimb Ã²lica
Ġori entada
ĠMes tres
Ġengany ar
Ġbit llets
Ġproporcion en
Ġorgull osos
ĠDemocrÃł cia
ĠCany elles
Ġalimenta ris
Ġexca vacions
Ġdegus tar
argu ment
ĠintÃ¨rp rets
Ġreta ule
Ġindisc uti
Ã²ces i
8 3
A hir
E ra
N ecess
R IA
S anta
V ila
h is
n orm
u at
z aciÃ³
en ginyeria
Ġp Ã¨
or o
ti embre
Ġf Ã³rmules
om i
Ġun it
res ca
Ġal Ã§ar
ĠC ur
ĠC AS
gu mÃł
ĠE mb
Ġb ola
Ġb ag
Ġcon tenciÃ³
ĠS ad
ĠM Ãłr
Ġdes b
Ġva por
tu alment
oc e
ĠT es
ĠB L
ĠB lu
ĠB urg
Ġan alitzat
Ġan alÃŃ
ĠR F
Ġex Ãłmens
ĠJ ames
Ġrec ta
ĠâĢ ĭ
ĠN an
Ġcap it
cion ades
av ent
ĠPer Ãº
Ġob vi
Ġimp rÃ¨s
Ġpr Ã¨
Ġseg ones
au dio
Ġfin ques
Ġem a
Ġ19 30
Ġins pec
ĠÃ ĵ
Ġmen ciÃ³
Ġx iu
Ġinc endi
Ġinc Ã²gn
Ġgener ant
Ġdirec tiu
ĠAn glÃ¨s
ĠÂ ©
Ġpoder Ã³s
Ġam ant
eri ment
ĠVi atges
Ġag Ã¨ncies
Ġdispos ada
Ã²s t
Ġprom etre
ĠSer rat
Ġempres onats
Ġpen ya
Ġdefin eixen
ĠÃ¨ tic
lici ta
Ã©n ia
ĠCor poraciÃ³
Ġdestin ata
Ġreflex ion
Ġocup ada
Ġmul til
Ġconsidera va
Ġimpres sions
Ġcorrec ciÃ³
sion ants
Ġpub liquen
Ġsignifica tius
Ġexcep cionals
man n
Ġescrip tura
Ġfres cos
Ġ194 7
Ġprohib ida
Ġpon ents
Ġpess etes
Ġsot met
Ġenten en
Ġvess ants
Ġtut ors
Ġaleg re
Ġprovin cial
Ġgest ors
Ġves tu
Jo an
Ġpassej ant
Ġsamar retes
Ġhistoria dors
anti guitat
Ġmac ro
Ġvideo jocs
ĠMc Cart
Ġdispar ar
ĠUtilitz em
adequ aciÃ³
Ġignor Ãłncia
Ġavant pass
Ġsolem ne
Ġprovoc ant
Ġintercan viar
ĠPost grau
Ġenfoca ment
Ġrestric cions
Ġvetlla da
Ġsofer t
- )
M o
O V
P res
a k
d Ã©
d als
y ons
Û Į
Ġ ossos
Ġa re
er re
Ġp als
Ġp siqui
ta tiu
Ġc ep
Ġel ev
ti f
Ġv elles
in itat
in ess
Ãł tiva
ic ular
ĠC arÃł
it Ã²ria
ĠE C
ĠE rasmus
Ġre marca
as tr
ĠA gra
ĠL og
ĠL ong
Ġcon vin
ĠS ir
ĠM odi
Ġe voca
Ġca Ã§
oc h
Ġpar Ã¨n
ĠB adia
Ġ1 000
ĠR TV
ac ons
ac triu
ĠI ceta
ĠJ oc
Ġmol ÃŃ
Ġrec al
fer es
Ġar rep
ss e
ĠPer o
tor b
pos a
ĠH ola
ĠH isenda
se a
Ġcre acions
enti citat
Ġtrob i
til les
Ġsup rimir
Ġab as
end ins
Ġx ip
Ġemp eny
ag Ã¨ncia
Ġri tuals
Ġbar reg
Ġdoc toral
ĠJos e
Ġcl ÃŃn
asc ut
Ġdom ina
Ġmedi Ãłtic
Ġseny alitzaciÃ³
ĠmÃłxim es
ch es
Ġconsci enciar
Ġmira des
Ġvig ents
Ġreser vats
ĠEsc Ã²cia
AM ENT
Ġexpos a
Ġfar mÃłcia
Ġul lada
ĠMed iaciÃ³
Ġconvid en
Ġcelebra va
Ġcrea tius
Ġrecla mat
Ġproteg ides
Ġtranquil s
enf ons
ĠPob let
Ġban ca
Ġ194 5
Ġpon Ã¨ncia
Ġgastr onÃ²mic
Ġenseny at
ĠelÃ¨ct riques
Ġedit ors
Ġrod atge
Ġpreten ia
Ġher Ã¨ncia
Ġflu x
Ġpreci osa
Ġantiga ment
Ġfals es
Ġcans at
ĠLeg al
Ġcerc les
Ñģ ÑĤ
Ġincomp ren
identi ficaciÃ³
Ġlegi timitat
Ġrepass ar
Ġpertin enÃ§a
ĠCam ins
ĠTim es
Ġcompati ble
Ġsocio ec
ĠFiscal ia
assass inat
ĠCAM P
erapeu ta
Ġassaj os
ĠterratrÃ¨m ol
ĠEmpresari al
Ġesbr inar
' "
G rup
c ra
j orn
l Ã¨r
m Ã³n
m Ãłs
n ess
r ens
er ec
er ant
Ġl entament
Ġp Ã²s
Ġc Ãºp
or ella
un tari
Ġt um
Ġt olerÃłncia
Ã© c
in ver
Ġen re
ic ot
Ã¨ re
Ġre ga
ĠP un
ĠP ou
ot ÃŃcies
Ġcon fecciÃ³
ĠS uny
Ġe vent
Ġca fe
ul tes
Ġdes mant
ad eria
ĠB ab
emp res
ĠG ala
ĠN ob
Ġr ostre
Ġcons ig
Ġfer its
Ġpod ent
Ġseu re
ĠCa va
Ġvol ÃŃem
... ).
Ġimp remta
ĠH eu
Ġesc and
Ġmar atÃ³
Ã¨s tia
Ãºs tic
ĠCom a
til l
Ġlli urat
Ġass et
hi p
Ġconc eb
Ġtin ent
âĢ¦ ).
Ġoc e
Ġsab ien
Ġju eu
Ġsub til
ĠCas tro
Ġlle vant
ĠDe vesa
reg at
Ġresta urar
Ġven j
Ġdeman o
Ġprepar en
In novaciÃ³
Ġ/ /
Ã± os
ĠCo incid
Ã¨ri t
acc el
Ġcreix en
Ġconstitu Ã¯t
Ġconsci enciaciÃ³
Ġagaf em
Ġdescon nec
ĠEntre vista
ĠPat ri
ĠIns tagram
Ġfunda dors
Ġcamin ada
Ġsof reg
Ġ194 8
Ġrecorda va
Ġsot metre
Ġexperim ental
ĠautÃ¨n tics
ĠNav arra
ĠtÃŃp ics
Ġdivid eix
ĠfaÃ§ anes
Ġjap onesos
Ã²f ol
Ġmeravell osa
Ġhistoria dor
Ġcorpora tiu
Ġnutri ciÃ³
ĠmÃŃ tic
Ġtro f
ĠPoc h
ĠPlana gumÃł
ĠTrac tat
ĠlliÃ§ ons
Ġabund ant
Ġapla udi
Ġfascin ant
ĠPressup ost
Ġhere us
ĠlÃŃqu id
Ġxen Ã²f
Ġaugmen tant
vergon y
Ġantel aciÃ³
ĠMcCart ney
! ).
9 3
9 4
S a
S crip
j pg
k in
o va
en du
en quadernaciÃ³
Ġde v
Ġde tecciÃ³
Ġc end
Ġm eridi
om ar
Ġdel ib
res sos
ĠC H
ĠC han
Ġre ca
la ga
Ġb ombol
Ġg or
Ġg Ã²tic
Ġcon tar
ĠS S
Ġe ixa
Ġca uen
Ġdes erts
Ġ( +
te ts
te dat
Ġan Ãłvem
ĠF ora
ig an
ĠV o
ĠV et
ĠV ac
ĠV III
im s
im mig
ĠN Ãłu
ici tat
ari b
Ġpos ta
Ġpos aran
ĠPer iÃ³dico
Ġform atges
Ġpl Ãł
Ġlli mona
ĠO R
ĠO f
ĠO bres
ĠO bama
Ġem Ã¨s
ĠMar ÃŃtim
Ġent rant
Ġdeix arem
Ġoc ci
Ġdu res
Ġte Ã²rics
Ġnou vinguts
ĠPar lem
Ġproduc tiva
Ġlle ida
Ġ8 6
Ġllen Ã§
com un
inter rom
af rontar
Ġsom ri
", "
Ġpen als
Ġobli gada
ĠConsell er
oli fer
Ã± ola
Ġcomple tat
Ġassegu t
Ġfi le
vent ura
Ġeduca dors
Ġcomprom esa
ang le
Ġconser vat
ĠPod en
Ġcompl ements
Ġcur tes
Ġrecom anar
ĠFin lÃłndia
ĠgratuÃ¯ ts
Ġdescon eguts
Ġtram via
isc os
ĠSocial ista
Ġelabor aciÃ³
ĠIns tal
Ġexperi ment
Ġpi anista
OS A
ĠqÃ¼esti onar
EM A
ĠTreball em
ĠRod ore
Ġtru ja
ĠDom ingo
Ġurban ÃŃstic
Ġclaus tre
mad ura
Ġteat res
ĠEstat ut
Ðµ Ð
Am ics
Ġseri osa
mos fera
OP D
Ġnorma tives
Ġredac tar
Ġrevel aciÃ³
Ġcris tal
Ġmallor quins
Ġhivern acle
ĠSen na
Ġextrem adament
ĠparÃł graf
Ġfabric ant
Ġpale ont
Ġtarragon ins
Ġdefen siva
ĠBes Ã²s
ÃŃb ul
Ġacolli dor
Ġacomia dar
ĠpÃł tria
individ u
ĠIntro ducciÃ³
Ġsemif inals
Ġculp able
Ġsat Ã¨l
Ġmanc ances
ĠGreg ori
htt p
ĠtÃºn el
Ġcompas siÃ³
ĠdiÃł metre
ĠRodore da
> >
A ro
P rim
T erra
Y A
f at
h ostal
Ġd urs
qu atre
el li
el eg
Ġm eg
Ġm esc
ent rades
Ġt ribu
in Ãłries
ĠC AR
Ġre eix
Ġre vÃ©s
ĠP edag
Ġb Ãºs
Ġb omba
ir Ã©
Ġca ma
Ġca val
si er
Ġdes via
ĠB elles
ĠEl is
mp es
ter ies
emp resari
emp renedoria
ĠG is
ĠG aran
Ġcomp rÃ¨n
ass umir
op os
Ġten da
Ġob tÃ©
Ġrep Ã²s
Ġfin ances
Ġ19 50
rer o
Ġpor ti
Ġab aix
Ġmen jat
Ġdifer encia
Ġcontra diccions
Ġinform ant
Ġpe bre
ĠCon fi
ĠCon trol
ĠAn Ãłlisi
Ġactu alitat
Ġfun dat
ĠPar la
por ta
Ġgovern ant
Ġacab o
ĠCar rillo
20 20
Ġlle var
Ġest ones
Ãłr mac
Ġpun tes
ĠW omen
Ġreb uts
Ġcu id
Ġhom osex
ĠLle Ã³
Ġrespec tant
Ġcontr aris
aqu el
ĠAc tiva
Ġ0 2
Ġterra sses
Ġafec tada
ĠelectrÃ²n iques
ĠRa Ãºl
ĠLli brer
ĠTe at
Ġevi ta
ĠSup ort
hab itu
estudi ar
Ġsur real
Ġadap tats
ĠGrup s
ĠTra s
Ġglob als
ĠBaix os
ĠRib as
ĠSa gun
Ġfl ota
Ġcad Ãł
Ex posiciÃ³
Ġjusti ficaciÃ³
Ġcompro vat
ĠpÃ¨r dues
mi raciÃ³
ĠDom in
Ġfonamental ment
Ġprocla maciÃ³
ĠSu Ã¡rez
Ġfiscal ia
Ġdivid it
ĠTecn olÃ²gic
Ġib Ã¨rica
Ġarren ca
Aut or
Ġengan xar
Ġsep tiembre
uster itat
Ġpertin ents
Ġflex ibilitat
Ġnad ons
ĠEstr atÃ¨g
ĠmÃ²d ul
Ġbac allÃł
ĠContempor Ãłnia
ĠperiÃ²dica ment
Ġmaresmen cs
Ġspa m
Ġsimpatitz ants
ĠParrÃ² quia
ĠZel anda
ĠCarÃł cter
A vinguda
A fers
E d
c ast
g era
h orta
t x
v inc
w in
à ¤
à ¹
Ġ ombra
Ġd ÃŃp
Ġl ot
ar re
or y
or Ã§a
in vesti
is sos
Ġes ser
ro id
ĠC liment
Ġre trats
ĠP alla
ĠA mp
ĠS k
ĠS ci
ĠS av
ĠS ep
li u
Ġdes gra
ĠD it
ĠD uc
ĠD VD
ad y
ĠT ib
tar s
ĠB TT
et ter
ĠG ib
ĠG imn
ens ar
ab onament
Ġr enaix
Ġcons tar
Ġcons ecuciÃ³
Ġta u
Ġpre ca
Ġens enyament
des prÃ©s
Ġmat x
Ġob ertura
Ġap p
Ġcar d
ha i
Ġimp erial
Ġpr olifer
Ġman uals
Ġesc ric
Ġinter ÃŃ
Ġtemp les
pa ments
enti r
Ġtrob aran
ĠO bli
ĠO bert
Ġins er
Ġmen tals
Ġent esa
Ġprojec tar
Ġdos i
ing ressos
eny or
Ġmo tivar
Ġgener ositat
Ġmun tany
Ġtrac tant
Ġ5 7
Ġte ories
Ġsub minist
ĠCar t
emes ÃŃ
ĠCas tillo
enc anta
ĠK i
ĠK m
ĠK ing
Ġto x
Ġto vall
Ġconf usiÃ³
Ġsuper ant
Ġdec antar
pu ig
Ġcu res
Ġsig na
Ġescri via
imp os
Ġnorm atiu
rig o
ov o
Ġmon umental
Ġlla mp
mat erial
Ġmedi Ãłtica
Ġ0 5
Ġmi reu
ĠEx cel
agra ir
Ġabs Ã¨ncia
Ġvul gueu
Ġfre ds
OR A
ĠOr dre
Ġgas tar
Ġevi tant
ingÃ¼ e
Ġord enat
Ġadap tant
Ġrepar tits
Ġret rans
ĠPed ra
Ġdestac ant
Ġ196 5
Ġpret emporada
Ġextre ure
hor itzÃ³
Ġfab ul
Ġinflu ir
Ġron d
Ġincid Ã¨ncies
Ġadop tat
ĠMitj ana
Ġparticipa tius
Ġredac tat
": "
Igual tat
enfron tament
Ġpros per
afeg eix
ĠNeg re
Ġencaix ar
lvar o
ĠJer oni
Ġprotoc ols
Ġemerg ents
Ġlit res
ĠResta uraciÃ³
Ġfanta sia
Ġnaz is
direc tor
pla y
ĠseqÃ¼ Ã¨ncia
ĠSand ra
Ġfacil iten
Ġpesseb res
ĠMargari da
Ġplur alitat
ĠmetÃłf ora
ĠWord Press
ĠmamÃŃ fers
P re
V all
b cn
c lo
f em
g ement
h abilitat
l ing
z Ã³n
Ã ģ
Ġ ).
es for
Ġde vas
Ġl ic
Ġc ort
Ġi mb
ti tat
ti cisme
at ri
Ġf arien
Ġf eble
Ġper form
Ġper pe
ri ss
Ġdel inqÃ¼
em an
is es
Ã¨ dies
ix ar
Ġre posar
ĠP IM
ĠA SS
Ġin timitat
ĠS ang
Ġpro vat
Ġha guÃ©
ur Ã©
Ġva u
tu re
ad hesiÃ³
ĠT ag
Ã¨n yer
.. ...
Ġser en
Ġac tives
Ġac urada
Ġex Ã¨rcit
ĠV ide
ĠV eure
ĠV ostÃ¨
ist res
tic o
Ġcons istia
Ġens op
Ġob ren
Ġcar trÃ³
Ġentre gar
Ġpu gen
Ġpl us
Ãłn tica
Ġcamp ament
ĠJo el
Ġoc cidentals
Ġproc ura
Ġactu ant
Ġpoder osa
Ġaut onÃ²mica
ĠCar nestoltes
ne w
Ġtorn o
Ġtorn arem
avant guarda
Ġ9 1
Ġdesenvolup arÃł
ĠVi ena
ĠSal le
Ġag reu
edi da
Ġgra tis
Ġrecon eixen
Ġdefens ors
Ġvost Ã¨s
Ar gentina
ĠPal es
uta cions
Ġmedi taciÃ³
bil s
ĠGran d
ĠPP C
Ġliter alment
Ġsu fra
Ġresid encial
Ġigual at
IN E
Ġpil es
Ġvari ants
olÃ²gica ment
Ġsupos ada
Ġoferir an
ĠAm or
ĠPre gun
Ã¨t era
Ġsim ula
ĠMarc os
Ġpreocup acions
Ġpi zz
itor is
Ġfuncion alitat
Ġpac tat
Ġ194 0
Ġenvol ten
Ġbarre jar
Ġassoci ades
ĠÃłnim s
Ġmass ÃŃs
Ġpag ant
Ġencarreg ada
Ġpron unciar
adap tar
mun tana
ĠDef in
Ġimplan tar
Ġidi oma
Ġeleg it
Ġrevolu cionari
Ġimplem entar
ĠBr un
Ġangles os
ĠdinÃłm ic
ĠLabor al
ĠPasqu al
Ġvita litat
inten tar
Ġsalv atges
Ġnaz i
Ġenamor at
Ġxines os
Ġentusias me
Ġrup tura
Ġobstac les
Ġef ÃŃm
Ġinstr umental
fel iu
emmagatzem atge
ĠCro Ãłcia
Ġembar ass
Ġmenta litat
ĠCarn aval
Ġamate ur
ĠIgles ias
ĠMontb ui
. :
A quÃŃ
I l
M i
M ad
P L
P is
S ol
b el
f alt
f Ã¨rica
g et
i tius
j am
l ir
m itj
n ada
r t
s empre
u z
y tics
Â ¡
Ì §
en orm
Ġp h
Ġc orn
on ya
Ġm ites
at ria
at mosfera
os an
da ta
ĠC rida
Ġse di
ĠP ap
Ġb uro
Ġg rip
Ġcon gressos
Ġo di
ĠS all
ĠM issa
Ġha guem
Ġdi versi
Ġdes vet
ĠD J
ĠB ob
Ġan go
eix a
et z
Ġex quis
ĠV ent
Ġres tar
Ġsi guen
Ġpre pot
Ġcap ellÃł
av ÃŃs
Ġap unt
Ġvol ant
car rils
ĠH id
ĠH avia
ex ecu
ex cepciÃ³
Ġpu gueu
Ġpl o
Es taciÃ³
essi u
Ġins ults
esc ultura
Ġvis ib
Ġconc ed
Ġx ut
par able
Ġav anc
Ġtrans ports
esta d
Ġsub t
Ġsub has
Ġdonar ia
Ġop inar
Ġref rig
ĠW indows
Ġag Ã¨ncia
Ġdisc re
Ġescol lida
Ġcontr ola
Ġmor tal
Ġmon edes
Ġ17 14
cis tes
Ġfos ca
Ġamp liaciÃ³
Ġk g
Ġdol ents
Ġcaracter ÃŃstic
Ġmil er
Ġregu len
Ġgl uten
ĠCat eg
ĠmÃŃnim es
avi Ã³
ĠgratuÃ¯ tament
estr en
ĠAm eric
Ġ197 2
Ġress us
ĠsÃ² cies
man ent
Per Ã²
Ġextre ma
mit h
Ġ+ ]
Ġcad et
Ġcomplex es
Ġaproxim aciÃ³
Ġapun ten
acom ia
del hi
ĠOri ent
Ġinforma tives
ĠquilÃ² metre
ĠSor tida
ÃŃg enes
ama ga
Ġnoti ficaciÃ³
inform Ãłtica
toc ol
Ġrequis it
ĠIgual tat
ĠOs ona
ĠFem en
escal ada
ĠMem orial
ĠDim arts
Ġpartid aris
seg ons
ĠCod ines
Ġautob usos
Ġcoc ciÃ³
ĠLlic enciat
ĠBÃłs quet
Ġano tar
ĠGarri gues
ĠNor uega
Ġusu Ãłries
ĠDomÃ¨n ech
Ġdramat urg
ĠtÃ²x ics
Ġbenedic ciÃ³
ĠCiudad anos
Ġobse qui
ĠBÃŃ blia
ĠcÃ² mp
ĠVillal onga
Ġelev ats
8 4
A genda
B L
E di
E dat
M AR
c la
c urs
c ultura
g eu
g ents
h eu
k es
s is
v arÃł
Ġde teri
Ġp Ã²
Ġp ans
Ġs ana
an ov
or na
Ġm ud
al b
ti litat
Ġf rÃł
Ġv Ãłries
Ġh isp
ic ades
Ã¨ tua
ĠC B
ĠA da
ĠA scÃ³
ĠA msterdam
Ġb uida
ĠM ort
Ġe va
ul ants
ul sos
ĠD ay
ad qui
era tiu
era tiva
ĠT un
ĠT allers
ĠB ec
il er
ĠF reix
ĠF Ã¨lix
Ġex ec
ac ÃŃ
Ġres pira
ĠJ avascript
im m
Ġmol Ã¨sties
du la
du irÃł
ins titu
ĠU PF
cion aris
âĢĿ ;
Ġcar ro
Ġimp osa
Ġaix o
Ġpu rament
Ġtrob in
Ġtrob eu
Ġdon o
gui la
vers a
fici s
Ġconc edit
end Ã¨ncia
Ġexp lo
Ġw ork
Ġpla ca
Ġver bal
Ġoc ults
Ġtrac tÃ©s
Ġra pidesa
Ġ5 8
Ġ6 6
ĠRe fer
esp at
lec tives
Ġop ortun
Ġ9 2
Ġaconsegu ia
Ġven iu
Ġconeix eu
Ġserv eixi
Ġro dar
Ġro ton
Al z
Ġrespec tives
Ġna ta
Ġmon jos
Ġlla vor
Ġmig raciÃ³
ĠHi p
Ġfes tiva
ĠCamp anar
Ġ0 6
Ġne tes
ĠMol ÃŃ
Ġofici s
ĠPod ria
Ġpan el
voca cia
Ġdim i
Ġvalenci anes
ĠY o
to rets
Ġimpos iciÃ³
ĠVol ta
Ġcompeti tiu
Ġvari ar
ĠVer ne
Ġtram itar
Ġpressupost Ãłria
Ġelabor ada
Ġima gina
ET A
Ġeng egar
ĠSÃŃ ria
Ġassum it
Ġrefor Ã§a
Ġtancar Ãł
Ġmir at
Ġtru cada
ĠFil m
Ġordin ari
Ġpic t
Ġinsc rit
ĠAqu ella
Ġintens os
be tis
inform ar
Ġvid res
Ġdinam itzar
Ġcomplement Ãłries
ĠmÃłr tir
Ġrepeti ciÃ³
Ġgiron ÃŃ
ĠfotÃ²graf s
ĠJuli o
Ġdip Ã²sits
Ġtelevis ions
Ġfabric ants
Ġvil es
ĠCr Ã²nica
ĠAla cant
Ġant rop
ĠsÃł pi
ĠDist ricte
Ġhig iene
ĠCÃłn cer
ĠGai rebÃ©
ĠcÃŃv ica
Ġdors al
Ġassemble es
Ġinoblida ble
Ġpromot ors
Ġdiscapa citats
ĠYas uda
ĠIma gin
ĠSuny er
7 00
C h
b ra
e ur
f oc
g rup
l ari
s u
x ip
z za
Â Ķ
Ġd otaciÃ³
es por
en z
Ġi a
an Ã¨cd
al berg
Ġt ÃŃ
Ġper ru
Ġdel ta
ÃŃ ria
us tes
us tre
Ġno d
Ġcon voc
ĠS of
ĠM Âª
Ġe duc
di gi
ob ier
ĠT ir
ell ans
ĠR aquel
et nam
ĠG up
ĠJ ub
Ġll anÃ§
ĠU b
Ġpres i
Ġpres umpte
av ana
og Ã¨n
Ġmar ges
Ġcre ats
Ġcre enÃ§a
Ġpl om
ĠIn terior
Ġab ord
ĠX Ãłtiva
Ġarrib Ãł
ĠQu ir
Ġaf lu
Ġdeix in
Ġjo ven
Ġoc orre
inc ompliment
Ġsub ter
Ġcontinu es
ĠK B
ĠK enya
lus tre
Ġsuper en
lex iÃ³
Ġcu iner
Ġhom enat
ĠGu in
Ġna taciÃ³
Ġmon arca
Ar nau
Ġacc edeix
ĠcÃłr regues
Ġetc Ã¨tera
Ass ociacions
ĠTer ri
ĠĠĠĠ Ġ
ĠMi reu
Ġespa cial
ĠSegu ra
ĠSegu idament
ĠSan tan
Ġvo cabulari
Ġrob ar
lle i
ĠMont g
Ġpil otes
Ġvari at
estr at
Ġbat lle
Ġevid ents
oti ts
Ġrecla men
Ġsignifica tives
Ġadequ adament
bi ol
Ġintro dueix
amp le
ĠlingÃ¼ ÃŃstiques
Ġaband onats
ĠcÃ²m odes
Ġsot mÃ¨s
Ġsindic als
Ġele vades
Ġompl ert
RA F
Ġcontempor anis
Ġdesper ta
Ġtransc urs
Ġtransc orre
ĠSor tides
Ġsecund ari
Ġatrac tiva
OT AN
ĠHum anitat
ĠLlen gÃ¼es
ĠConf lic
Ġsorpren ents
inform acions
ĠcatÃłleg s
Ġopos ar
Ġmanip ula
ĠUnivers al
Ġoptim itzar
Ġmenti des
Ġpuntu aciÃ³
Ġcrim s
Ġrecuper ant
Ġalter aciÃ³
ĠYou tube
Ġesg la
Ġprogressiva ment
Ġacons ella
Ġexpedi ent
Ġobri rÃł
Ġimpossi bles
Ġinclus iva
ĠEdit orial
Ġinvis ible
ĠIsa ac
Ġagl u
Ġsost Ã©
Ġtrin x
Ġremodel aciÃ³
evid Ã¨ncia
Activitat s
Ta mbÃ©
gars at
ĠChamp ions
Ã²st ols
Scrip t
ĠSagun t
obier no
8 00
L le
U I
d era
l Ã¨tic
n en
o velles
s ub
u li
Ġde tinguts
ar queologia
Ġs am
ti d
Ġper fum
ol d
ol lar
Ġdel icat
em issions
Ġal ine
Ã¨ giques
ĠC A
ĠE X
Ã² lia
ĠP unta
ot t
ĠA ir
Ġb ug
Ġno vi
Ġo ci
ĠM Ã¡r
Ġe tern
Ġha ja
ul les
ĠR ig
ĠF P
ĠF unda
ĠF ED
Ġex istir
tin i
ĠI si
Ġres istir
Ġll its
Ġmol Ã¨c
ass umpte
Ġpre gar
ana va
Ġar omes
ĠCa vall
oci al
Ġpos tals
âĢĿ ),
ren al
ren as
ina u
Ġcar tera
ĠH isp
Ġpr Ã²s
Ġentre p
Ġcol lita
ten en
Ġcre ieu
Ġcan tada
Ġtrob alla
Ġass istent
Ġins pira
esc oles
Ġor questra
gan istan
Ġco ves
Ġco titz
Ġval idesa
ĠCon Ã¨ixer
Ġsal vat
Ġra mats
ĠAn gel
ĠAn dalusia
Ġreg nes
Ġreg nat
Ġam o
Ġju eva
ĠRe uniÃ³
Ġdoc tora
Ġceleb rant
Ã¡ zquez
Ġ9 9
Ġsocial isme
Ġcop iar
Ġto va
Ġcont rov
ĠÃł gil
Ġhum ilitat
Ġrefer it
ES TA
Ġconeix er
Ġrespec ta
ion als
ÃŃc ula
Ġmor o
Ġmarc ant
En camp
Ġfam ilia
Ġvin dran
Ġmi queta
AR D
Ġat rib
Ġcirc uits
Ġden Ãºncies
acc edir
ĠReg iÃ³
Ġk il
Ġprotagon itzat
Ġdeu tes
ÃŃa ca
Ġocup ats
Ġviol enta
Ġsan cions
Ġrecol zar
ĠMal auradament
Ġexpos ats
Ġhor ts
Ġcompet ents
ĠestratÃ¨g ics
Ġperman ents
ĠCent er
Ġentren ament
Ġregist rats
Ġcontribu eixen
Ġverm ells
Ġsof is
ĠPos em
Ġsenzill esa
Ġmir en
Ġmel odies
Ġprocla mat
ĠClar amunt
Ġsucc essiÃ³
Ġculpa bles
Ġinvesti dura
Ġdivul ga
ĠPD e
ĠMes demil
ĠdemocrÃłtica ment
ĠSim Ã³
obser va
Ġmicro ones
Ġroman dre
Ġimplic ades
ĠFamÃŃ lies
Ġdesit gen
Ġvisu alitzaciÃ³
alem any
Ġvulnera bilitat
ĠLabor atori
ĠmÃº tua
ĠFe ia
Ġrecoll its
agu lla
Ġrib a
Ġrecomp ensa
Ġassist encial
ĠEnten c
ĠGarri ga
Ġminim itzar
gost era
ucar istia
Ġpseu d
ĠRac Ã³
Ġcarden al
ĠRepro duir
Ġiron ia
ĠcentÃŃ metres
Ġadi ents
ĠprÃ¨ vies
? )
I EC
M ont
c all
d els
e k
f an
g ols
k el
k ami
m iques
n oc
p it
p unt
t rica
x ÃŃ
Ġ Ø
Ġ !!
es tats
en velliment
Ġde tenir
Ġp ist
ar m
al erta
al ternativa
Ġque dem
Ġt om
Ġt rista
Ġf Ãłrmac
ra ham
ri ll
da vall
ĠC P
ĠC erca
Ġse quera
la us
la dor
ĠA gaf
Ġb otes
Ġin unda
Ġg avan
ĠS ex
ĠS pi
ĠM asc
li en
ur r
ur gÃ¨ncia
ur ban
Ġca ut
Ġdi vi
Ġva ja
di lla
Ġpar tint
ad opciÃ³
ĠT ro
ĠB anda
ĠB ON
ĠB arcelon
ĠF ent
ost em
ac her
Ġcomp tem
ĠN ostra
ades a
Ġob sc
Ġpa tim
Ġcar ros
Ġcar peta
Ã¯ ment
vol ta
Ġinter venen
au ra
Ġpl anes
Ġpl orar
Ġcan tants
Ġass isteix
ĠNo us
ĠMar x
Ġexp ediciÃ³
ĠQu ed
Ġaf any
Ġemp ar
Ġprof undes
Ġdesc entr
Ġdirec trius
ĠÂ ĵ
Ġsin o
Ġreg eneraciÃ³
Ġaut omÃłtic
inc lou
ĠPar tits
por taciÃ³
enc at
and ra
Ġ7 7
Ġjug arÃł
ros sos
Ġapar tats
Ġna us
Ġbus quem
Ġllarg ada
An glaterra
Ġfos cor
Ġinicia da
Ġresid Ã¨ncies
ĠSegu im
Ġnaveg adors
apro pa
Ġqueda ven
ĠAnt Ã²nia
Ġportar an
ĠMonts ant
rop ol
Ġconvi uen
Ġdific ulta
Ġcompet ent
Ġlluny Ãł
ĠTra muntana
Ġestim ats
Ã²bil s
Ġmer escut
Ġsegueix o
ĠPr Ã¨via
ĠPl atges
Ġret ro
Ġret roc
ĠBaix a
ĠTV E
Ġmasc otes
ĠPas siÃ³
Ġestruc tural
Ġmic rÃ²
ĠRub Ã©n
Ġsenzill s
ĠCab rera
Ġvaria cions
espectac les
Ġquali ficar
áĥ Ĳ
Ġconten idor
Ġdomin is
Ġfol re
Ġprovin ent
Ġassign atura
Ġseleccion ades
Ġartes anal
ĠPlat Ã³
Ġfeix ista
ĠGen ÃŃs
Ġnega tives
Ġprivilegi at
ĠConser vaciÃ³
Ġitali ans
tatu atges
Ġaplic ant
ĠGui tar
ĠRecon eixement
ĠCorre dor
ĠAdministra cions
ĠHel ena
Arquitec tura
Ġtelec omunicacions
ĠRepublic ana
ĠprÃ²r roga
ĠBeren guer
acol liment
ĠPrÃ² xim
ĠcÃºp ula
feliu enc
Ġcontrov Ã¨r
6 00
? "
B aix
C re
L L
T e
a is
b ella
h in
i mb
l ota
l enar
m unt
s ki
v ard
â Ĩ
Ġ Ã²
er Ã³
Ġi oga
an k
re f
at em
Ġf omen
Ġv alls
Ġen devin
Ġn eixen
ĠC eb
Ġre cip
Ġin esper
Ġg raf
ĠM ans
li ps
Ġca tin
Ġdi l
si o
Ġdes truc
Ġdes enca
ĠD Ã³
era ge
era dament
Ġ( "
ĠT ona
ĠB od
il itza
ran ya
ĠR ita
ĠF oc
ĠG reu
bl ir
eg ats
ĠJ udi
im o
ab onat
Ġr ar
Ġpres ons
Ġar ma
Ġcap taciÃ³
av anÃ§ar
Ġimp reg
ĠH ora
Ġaix Ã³
Ġmar tes
ĠIn dia
Ġtin dreu
Ġcamp ionats
Ġemp enta
Ġara g
ĠAn al
Ġdef ecte
han d
Ġproduc tora
Ġsenti mental
ĠLl op
Ġcer tesa
Ġresul ten
ĠAr xivat
ĠK ids
Ġcri ti
atura da
edi des
Ġrela xar
Ġdesp legar
Ġdefens es
ov ella
Ġacc essoris
Ġcastell er
Ġmi ti
Ġvolun tÃłries
ĠveÃ¯ n
aj us
ĠÃĢ ustria
Ġcomb inat
Ġocup ant
voca da
Ġmira cle
ĠPrem sa
Ġcelebrar an
Ġrem arcat
Ġrepresenta da
ĠDia gonal
Ġsupos arÃł
ĠCh risti
Ġafir men
Ġviat ja
Ġdep ressiÃ³
Ġquad rat
Ġvuit ena
Ġ196 3
Ġvisc uda
Ġmodern ista
gent ÃŃ
ĠLu x
ĠComp ta
Ġquil os
Emp reses
Ãį S
ĠcÃ²m ics
ĠRod alies
Ġaproxim ada
Ġtranspar ents
Ġompl int
Ġrod Ã³
ĠFil ologia
obli gat
ĠMitj a
Ġinterp retat
Ġacum ulat
Ġsucc essi
Ġsucc essor
ÃĪ ric
gust ÃŃn
ĠMet ropolitana
Ġlog otip
Ġrepor tatges
ĠGas par
Ġoptim ista
Ġescla us
Ġaccessi bles
estableix en
Ġactiv istes
Ġremun tar
Ġavi Ã³
Ġrecoll int
Ġdav allada
ĠOfer im
ĠCarrer as
ĠproduÃ¯ ts
Ġagres sions
ĠĠĠĠĠĠĠĠĠĠĠĠĠĠĠĠ ĠĠĠĠĠĠĠĠĠĠĠĠĠĠĠĠ
Ġrespectu osa
Ġelectr om
Ġbull ir
ĠBio Ã¨tica
Ġllin dar
yw ood
ĠXi quets
ĠCuri osament
Ġantec edents
ĠConvocat Ã²ria
ream s
Amet lla
ĠTorro ella
Ġema il
Ġvenj anÃ§a
ĠPales tina
. ]
A na
O U
O ort
S T
U CIÃĵ
t witter
v ari
z s
Ġl ink
ar res
an za
ti z
Ġf Ã³ra
Ġv enti
os ca
in enc
ra ments
em oci
Ġes tius
Ġes go
ĠC lo
ĠE M
ĠE qu
Ġcom m
Ġcom etre
Ġb Ãłndol
us sa
Ġin vent
Ġg oma
ĠL enn
ĠS OL
ĠM n
Ġe v
ur ÃŃem
Ġpar li
Ġpar atges
ĠB ibli
ver de
ac redi
eg ra
ins cripcions
bre u
Ġcap davall
ma u
Ġcas at
pos icions
Ġprim ordi
ord era
ord ina
Ġform aven
orn ar
Ġpot es
fic ciÃ³
ten cions
ap ortar
Ġem mar
ĠAl cover
Ġgu ix
Ġtin ta
Ġesta mp
Ġav erage
Ġresp ost
Ġveg in
Ġjo i
ag ner
Ġra mb
ard Ã³
Ġte Ã²ric
ĠPar a
Ġmod es
ĠLl uch
Ġorganitz ant
Ġdonar em
pe tes
Ġaconsegu im
igu am
vell Ã³
mar a
Ġsuper visiÃ³
Ġrecord eu
Ġmili tant
ok s
vin gudes
Ġbo us
vant es
drÃł s
Ġprepar ades
ĠÃ¨ tica
Ġpregun to
duÃ¯ a
ĠMol ta
ĠEx tre
Ġfacili tant
Ġfacili tats
ĠCl ot
Ġteu lada
ĠCastell ar
ĠÃĢ lvarez
Ġder bi
ĠMonts ec
ĠMo re
Ġfar cit
ĠavanÃ§ ats
Ġrepar ar
exc lus
Ġprefer ent
AD ES
cul tural
Ġguard onat
Ġ196 9
Ġsorg eixen
Ġtraslla da
Ġacostu mat
Ġperc ussiÃ³
ĠÃŃn tima
ĠEL S
fe Ã³
Ġplantej aments
Ġsecund aris
esca u
Ġoli ves
Ġretalla da
Ġgolej at
Ġdut xa
especi alitat
Ġmanip ular
Ġrus sos
ĠEr nest
Ġescap ada
Ġgall ec
ĠJard ins
Ġbloque ig
Ġparad ÃŃs
ĠanÃ²nim a
Ġsemb li
Ġverb s
Ġorien tar
ĠAlfons o
Ġconfer enci
Ġvor era
Ġretor na
Ġaspir ants
ĠSER VE
ĠWillia m
rÃ²p olis
ĠinÃº til
ĠForca dell
instru ment
Jos ep
Ġsacerd ot
enlla Ã§os
Ġcereb ral
Ġfabri car
ĠJava Script
Ġrectan gular
Ġâŀ ŀ
ĠLlibrer ia
ĠDÃ³ lera
A qu
E X
G rÃłcies
O p
S ab
T ube
c ert
d eix
e du
e arch
f o
g ado
o y
x illa
y ers
z Ã¨
Î ¿
Ġp esa
ar n
el o
Ġs ar
on cel
Ġv ed
Ġv est
om or
Ġen dar
Ġes tra
mb ur
Ġal Ã§ades
ÃŃ lica
gu eres
Ġcom tat
ĠP L
Ġb ul
us en
Ġin e
ĠL una
ĠL ola
le ug
ĠS istemes
Ġca f
Ġdi guin
Ġdi Ãłries
ĠD j
ĠD ot
ĠT C
ĠT ext
ĠB it
mp op
Ġan g
Ġan alitz
ĠR AC
im at
Ġr ub
rÃł nies
Ġar b
Ġpa tata
Ġcar ag
Ġentre m
Ġnom enar
Ġesc oc
Ġpot ents
Ġgran ja
leg at
Ġfin alitzada
rat ch
Ġor na
ai res
lo ad
Ġcal c
ud ella
Ġw i
Ġhist ori
Ġra cisme
Ġte ologia
Ġim ants
Ġim min
Ġ6 9
ĠCas ino
Ġcontinu Ã¯
Ġtorn aran
esp e
Ġest ÃŃm
Ġbas ant
Ġtar des
Ġdesenvolup ats
ĠVal or
Ġbon dat
Ġsuper vi
est em
Ġserv ici
Ġro ure
Ġas tr
Ġobli gades
Ġcastell ans
Ġinten si
Ġanim aciÃ³
Ġteu a
Ġsu ficientment
Ġresol ucions
Ġdestin a
Ġcaracter ÃŃstics
Ġfigu ren
ĠRam os
ĠMunicip is
Ġrem unta
ĠEsc Ã¨n
Ġrebut jat
Ġgesti onat
Ġestim ular
Ġadre Ã§ades
ĠqÃ¼esti ona
Ġconcent rat
Ġfom enta
Ġemb arcacions
Un iÃ³
Ġdesitj o
Ġsign ada
edifici s
Ġbri ll
Ã¨ct rica
Ġful let
Ġsolid aris
Ġgal eries
Ġtru ita
Ġdo tat
TV L
Ġcurt metratges
Ġsucce Ã¯t
Ġbomb es
ĠTar adell
ĠTar geta
Ġreflec teixen
ĠConf lent
ĠCre iem
ĠÃ²p tim
ĠproveÃ¯ dor
Ġinterpreta cions
Ġcrim inal
Ġdial ogar
incorpor ar
ĠResid us
Ġorien tat
ĠSent Ã¨ncia
Ġlegisla tiu
Ġpir ates
Ġportu guÃ¨s
ĠSindic at
Ġomp le
ĠIS BN
ĠCFG M
Ġvolte jar
Hostal eria
ĠmÃłs ters
Ġcatalog at
ĠGro up
Ġestrat Ã¨giques
ĠPale ontologia
ĠAng lada
ĠEscrip tor
Alg emesÃŃ
urak umin
Orden aciÃ³
Mus eu
Ġestere otips
Ġtril ogia
ĠXer rics
Necess ites
Ġavantpass ats
Ġpresi dida
ĠPDe CAT
B R
E ts
I ni
I lla
P remi
T arra
U tilitz
b os
d ena
e en
h ur
o tisme
r ut
s hop
u ries
es mentada
Ġc era
Ġc ord
an z
on era
or al
Ġel abora
âĢ ²
in em
in as
in acs
ol ib
Ġen ver
Ġun itÃłria
ri ons
ic el
ĠC los
Ġre it
la g
ĠP op
as ter
ĠA gÃ¨ncia
ĠM Ã¨
ĠM ot
ĠM AT
ur ana
Ġdi vin
ĠT ens
ĠT ÃŃtol
ran es
ĠR ess
ĠR EC
ĠF isi
ĠF ilip
ĠV ela
Ġcomp osta
Ġmol esta
ves s
Ġpre gÃ³
Ġtra dueix
ge tes
ora bles
ĠEs ter
ĠEs cal
ill orable
Ġap eri
ed Ã²nia
Ġcas tanyes
ĠH en
ga i
Ġrep lant
Ġass ag
Ġ19 18
lic k
ĠIn diat
Ġpart ÃŃ
Ġmen gen
Ġcal cular
esti mar
Ġexp on
Ġx af
Ġent er
Ġmo gut
gi p
ĠQu ar
ric k
anes a
Ġra ta
Ġfor tament
ho quei
Ġproc urar
Ã²m ic
Ġespeci alitat
El x
Ġcontinu aran
enc ontre
Ġinf l
eri Ãł
and er
Ã¡ Ã±ez
Ġ8 3
Ġrela ciona
ĠPla za
Ġlla cs
ĠAc ÃŃ
ĠRec oman
An d
Ġtall at
Ġsem inaris
ĠZ en
Ã¨m ica
ĠNa taciÃ³
Ġprotagon itzada
Ġsu aus
ĠEns enyament
ĠdemocrÃł tiques
Ġy our
Ġsan itÃłries
ĠPuig cer
cad ena
Ġgerm anor
ĠVil Ãł
Ġexpos ades
Ġci visme
Ġperfec tes
Ġperill oses
ĠAss ociacions
ĠMarc o
Ġir resp
Ġmer da
Ġadre Ã§ats
Ġampli at
elec cions
Ġhas h
ĠLla ch
Ġobser vacions
inf luÃ¨ncia
ĠAp lica
Ġvisc udes
Ġsubstitu Ã¯t
Ġenvol tada
Ġconta gi
Ġqued in
espera va
Ġsex ualitat
Ġdra mÃłtica
Ġverita blement
Ġafirma cions
especi al
ĠColl b
Ġnoti cia
Ġitiner ant
ĠOp iniÃ³
ĠNorm alitzaciÃ³
ĠlÃº diques
ĠVen eÃ§
Ġembl emÃłtic
ĠescÃ¨n ica
omet ria
Ġinfin itat
Ġdesemb oca
Ġhar monia
Ġequilib rada
aprof ita
exig Ã¨ncia
Ġsender isme
Ġalim entar
Ġdiscul pes
lov Ã¨nia
artes ania
Ġrecer ques
Ġcontextu alitzar
Ġdecad Ã¨ncia
Ġjerar quia
Ġender ro
rend zs
Ġromand rÃł
oce Ãł
Ġvestu ari
ĠLenn on
ĠIndiat rendzs
! "
C i
D on
a Ã¯lla
b ul
p ed
r ing
s ÃŃ
Ġd uc
Ġd ites
Ġa qui
Ġp Ã¨s
Ġp ira
Ġc all
ar Ã©
ar bres
Ġs ots
an ul
al titud
ol aciÃ³
is ay
ĠC anta
ĠC rÃŃtica
ÃŃ o
it Ã©
it oria
Ġcom and
Ġcom icis
Ã² gra
ĠA V
ĠA genda
Ġno vena
Ġcon forme
ĠS ils
ca dem
ĠM os
Ġdi vor
si ma
Ġpar ents
ob tÃ©
ĠT op
ĠB C
ĠB alles
Ġac trius
emp enta
ac tius
ĠI nau
ĠLa mb
Ġll anÃ§at
Ġta c
Ġvi ernes
av anÃ§
ĠEs truc
Ġvol drÃŃem
Ġpass aven
Ġform em
ep is
Ġesc ons
fic arÃł
fic ador
Ġinter vingut
se ts
Ġcre Ã¯
Ġpl or
Ġinform al
Ġinc Ã²m
Ġme talls
Ġemp ren
erra ment
Ġval entia
Ġdir an
versi tats
Ġdef ectes
inc loure
Ġlle gu
Ġlle va
Ġmod erat
Ġapro vades
Ġ9 6
Ġz a
Ġcop es
ĠK at
umen tals
ES AD
Ġserv icis
labor ant
ral ada
tot s
Ġlla dres
Ġtri gar
ĠCamp os
ĠCamp rodon
Ġreun eixen
Ġdist ric
Ã± as
Ã¨ri ques
ĠGran s
Ġparla ments
ON AL
ĠFer rat
ĠSegu eix
ĠDep or
Ġmil it
Ġdim oni
ĠprÃ²pia ment
Ġmul timÃ¨dia
Ġfalta va
Ġinteg ren
Ġrebut ja
ĠInter venciÃ³
Ġafir maciÃ³
ĠfÃŃs icament
Ġprefer eix
ĠTra di
ĠCer vantes
Ġtend resa
ĠMedi eval
ĠRib ag
Ãłb ia
Ġsop ars
Ġobser vat
ĠSec tor
Ġdispu tats
Ġ193 7
Ġmodern itzaciÃ³
Ac ord
Ġescrip tora
Ġprec edent
Ġprior itzar
Ġcru Ã¯lla
ĠMir alles
Ġacus ar
Ġflu ix
alg Ãº
Ġgolej adors
Ġmatin al
Ġdescobri ments
Ġfeix isme
Ġprogres siu
ĠÃłl bums
Ġesqu emes
Ġcombina cions
Ġrecop il
Ġrecop ilaciÃ³
ĠCrea mpop
Ġsard anes
ĠYou Tube
Ġincom pa
ĠFun ciÃ³
ĠDispos em
ĠCort Ã©s
Ġescul tures
Ġcust Ã²dia
ĠQuer alt
ĠSha k
ĠRio ja
Ġinsu ficient
Ġimmobili Ãłria
ĠnostÃłl gia
ĠhipÃ² tesi
ĠDivers os
ĠNE W
ĠInscrip cions
Ġprivileg iada
Ġpant Ãł
Ġdefici Ã¨ncies
asset jament
Ġbog eria
ĠGÃ¼ ell
Ġnovi embre
ĠGreu ges
. ;
A EC
D C
F er
F ira
I O
g ela
m l
n b
w ell
Ġ ya
Ġa udiÃ¨ncia
er ades
el es
Ġi ll
Ġs end
re guen
Ġt Ãłc
om ana
in eria
em i
Ġal cohol
Ġre viure
Ã² liques
ĠP era
as tes
ques a
ĠA F
ĠA leg
Ġcon ducciÃ³
ir re
ir ats
Ġva ques
Ġpar en
Ġpar cials
ĠF Ã³rmula
Ġac on
Ġres ten
Ġll om
ass oci
entre teniment
ari us
de ta
Ġob e
Ġap od
per es
eb res
ĠH on
ga z
dre m
Ġpl Ãłstica
tiv ista
Ġsegu eixi
ura ment
ĠIn iesta
Ġset Ã¨
Ġcal es
ella des
Ġfe bre
ĠX erta
Ġsor tien
Ġresp irat
Ġdeix aran
ĠCon cepciÃ³
ag ressiÃ³
Ġoc Ã³rrer
oca ment
and bol
Ġresul tant
Ġpresid ir
ĠVi atge
Ġnecessi tar
ĠSal es
Ġag endes
iv et
Ġdisc ussions
Ġprobl emÃłtiques
ĠCal isay
Ġro ig
ĠCan Ãłries
ĠCol lege
ĠAc cÃ©s
ĠVila Web
lici tant
AR S
Ġcomprom esos
Ġfacili tarÃł
Ġamp olla
Ġdeclar ada
EN S
ĠMi ki
aj uts
Ġdol enta
Ġcomb inen
Ġcaracter itzat
ĠRo quetes
apro var
Ġmarca va
ĠRes ulta
ĠDel hi
ĠDel mÃłs
Ġcapital ista
Or dino
glÃ¨s ia
trac te
Ġcab dal
Ġplan xa
ĠPen al
ĠTra il
Ġcrea tives
Ġsuperior itat
ĠEmp reses
ĠLe Ã³n
inf antil
Ġjudi cis
Ġconcent ra
Ġalt eracions
Ġlid era
ĠAp rendre
Ġemoci onals
Emp Ãºries
Ġbanc Ãłria
Ġinflu Ã¨ncies
UR S
Ġadqui rits
ĠMag n
Ġprogram ada
Ġcru a
Ġargu menta
Ġesdevin gui
ĠTrob areu
Ġcondem nar
Ġimpar tir
Ġreflec tir
Ġmantin drÃł
Ġconsens uar
Ġbru ta
Ġbru ixes
Ġaixec at
ĠÃ²p tica
ĠProc ediment
ĠCli ma
idat Ãł
exper imentaciÃ³
Ġferm esa
Ġcampan er
Ġendins ar
Ġdespatx os
ĠViny es
Ġimpossi bilitat
ĠSuper lliga
ĠDam iÃł
ĠAll Ã²
ĠEug Ã¨nia
Ur b
ĠFelici tats
Hum anitats
Ġpatroci ni
ĠKim lea
Ġacla par
ĠProvin cial
ĠnÃł ixer
Ġiogur t
Ġdeteri orament
Ġroton da
ĠGup ta
ropol itÃł
ĠPuigcer dÃł
& #
+ ]
A ll
C omp
E quip
F em
c eres
c essiÃ³
d ona
f ant
i rien
k an
m ir
n it
p ta
r um
y ol
Ñ ĩ
Ġ Î
Ġ up
Ġ tim
Ġd otacions
Ġde bilitat
Ġp df
Ġc Ã²c
qu isi
an na
on na
on eta
or de
Ġm ulta
Ġel og
Ã© e
in versions
Ġen y
ri ga
ĠC oc
ĠC he
ĠC ursos
Ã² tiques
ĠP Ãł
Ġin interrom
Ġg ama
Ġdes lli
Ġj es
ĠB ill
tin ent
Ġres istent
ĠN ep
Ġr oss
vi em
Ġpre di
Ġar ru
ĠCa pital
ĠEs tava
... âĢĿ
ha ha
ĠH ug
Ġform igÃ³
Ġpu jades
ĠCom peti
Ġem ig
Ġ19 20
ĠMar s
Ġins piraciÃ³
Ġtreball arÃł
Ġset ge
Ġconc lÃ²s
Ġve uran
ĠCon gressos
Ġtrans vas
Ġpoder osos
Ġgovern anÃ§a
Ġpas tana
Ġcent ren
enc en
Ġbar ret
Ġelec tro
Ġint ran
Ġpropos iciÃ³
ĠK y
ĠW est
Ġconf ort
ĠCal ders
ĠGu any
Ġdin astia
Ġcat Ã²lic
Ġcat Ã²lics
ion ant
Ġdeman arÃł
Ġbus cat
rac cions
ine a
ĠRec orda
Ġparlar Ãł
illa s
ĠNa tional
Ġsu av
Ġconven cionals
apro p
Ġfac ebook
Ġof f
Ġconsul toria
Ġimpres os
Ġvir tuals
Ġpreocup ant
Ġrecla m
ĠTen int
Ġ197 1
Ġ197 3
AP S
ĠjurÃŃ dics
arr y
UR A
ĠCab all
Ġfitx ar
Ġfranqu istes
bar jo
obli ga
Ġdepend ents
Ġacus ats
Ġbut x
Ġverita bles
Ġpron uncia
Ġcic lista
Ġterror ista
Ġdivul gar
ĠMet ges
ĠEspa Ã±ola
Ġpersegu ir
Ġetique tada
Ġestre t
utri ciÃ³
ĠautÃ²n om
ĠFl ors
afeg ir
ilia ciÃ³
impuls ar
organ ismes
Ġbloque jar
Ġhar m
ĠMusic als
Ġcompens ar
Ġrespectu Ã³s
ĠdomÃ¨s tic
Ġincapa Ã§os
Ġexpedi ents
rany able
ĠanÃ¨cd ota
Ġhero is
Ġsint onia
ĠðŁ ĺ
ĠBarcel Ã³
acos tu
Ġandor rana
ĠVeu rem
ĠPressup ostos
ĠnÃ© t
Ġconfec cionar
ĠEp iscopal
Ġesquer re
Ġdesfi lada
Ġevang el
Ġincen tivar
ĠcÃ²n sol
ĠAudiovis ual
Ġarreg lar
otecn ologia
Ġcompareixen Ã§a
Ġneb ot
ĠLGT BI
ĠNon asp
infra estructures
Ġdemag Ã²g
Ġbag atge
ĠparÃ¨n tesi
enorm e
ĠVeneÃ§ uela
5 76
A par
C ultura
D esc
O I
S empre
b all
o ia
p as
r ina
Ġc any
Ġc int
ar et
el d
an itx
ti rem
ent usias
Ġf ri
Ġv s
Ġes quia
Ġh Ãł
mb al
Ġal berg
ÃŃ rez
ĠE AP
ĠE instein
Ġre edi
Ġamb ici
Ġamb iciÃ³s
Ġb eb
Ġg ab
ant o
le guen
Ġcon vocats
Ġca ient
Ġdi Ã²cesi
Ġdes en
Ġdes obediÃ¨ncia
Ġpar Ãłb
ĠD C
te f
ĠT ony
ĠB ici
Ãº cia
ost res
Ġac tivar
Ġex ili
ĠV ers
ĠI v
Ġcomp tant
Ġll og
ĠN eu
ins erciÃ³
Ġtra mpa
ĠEn c
ĠEn horabona
de deu
Ġten sions
ys tem
Ġpos ats
ĠH TML
Ġter m
Ġform als
qui ta
Ġmar rÃ³
Ġrep assa
Ġlli gar
Ġsol vÃ¨ncia
Ġgu ionista
Ġins up
ÃŃn d
Ġcal a
Ġdu resa
Ġam os
Ġam fit
Ġpossi bili
enc Ãłrrec
ĠTa ul
ĠAr xius
rÃŃ cola
ĠW o
ĠMa h
Ġprop Ã²sits
Ġgra ella
Ġprom Ã¨s
cal da
Ġpropi etÃłria
imp osa
Ġfil es
Ġtel es
Ar xius
Ġbo da
Ġinterna cionalment
Ġfavor its
Ġur gÃ¨ncia
Ġefec tuar
Ġsa ga
Ġdeci di
Ġdirig int
ĠGran ados
Ġamp olles
Ġpopular itat
Ġpromo guda
ĠFranc Ã¨s
Ġbi ologia
Ġpan xa
Ġdic tat
Ġcompeti tius
Ġpal m
ĠAss egu
ĠPen ÃŃnsula
Ġampli ant
Ġexperi ments
Ġexig Ã¨ncies
Ġintro duÃ¯t
ĠLla gostera
Ġso vi
Ġcoincid it
OS T
Ġrecoman at
ĠMerc edes
Ġpremis sa
Ġderi vat
Ġconcent racions
Ġdiv ina
Ġtransform at
Ġsot mesos
Ġcondi cion
uti li
Ġ195 9
ĠGer vasi
Ġmobil itzar
Ġcompos icions
Ġposici onar
ow een
ĠEN S
Ġreti rat
Ġcim s
Ġescen i
ĠBlan ques
Ġgro ga
ĠOrganitz a
Ġnutri ents
Ġsusp Ã¨s
ĠInc lou
edic te
ĠmÃº siques
ĠcÃŃ vic
ĠromÃłn tic
Ġpion era
Ġtari fa
Ġprecip itaciÃ³
Ġps ÃŃ
Ġsag rat
Ġtaul er
Ġsonor itat
Ġsubscrip ciÃ³
Ġconfess ar
inclo uen
Ġcolom encs
Ġfotogra fiar
optim itzaciÃ³
ĠPag Ã¨s
Ġmanifes tants
Ġmundi als
ĠCarbon ell
Ġradia ciÃ³
Ġalien es
Ġindiscuti ble
ĠÃĵ scar
ĠNob el
habitu al
new delhi
inau guraciÃ³
ĠBalles ter
ĠparÃłb ola
? ).
A u
F orm
O l
X V
a ci
c m
f u
h l
p ut
Ï Ĥ
Ð ²
á ½
en tin
ta ula
Ġc odis
Ġs Ã¨nior
Ġt oss
Ġf all
Ġf Ã¨r
Ġper ip
Ġen ig
ra eli
em Ã¨ri
res ta
Ġal e
ÃŃ tima
it osa
Ġre ver
Ġre met
ec os
ĠA B
ĠA us
ĠA ires
Ġin ger
Ġin fecciÃ³
ĠL ac
Ġcon voquen
Ġha gis
si etat
ad ones
ĠB in
Ġan s
ĠR eci
ĠF ores
Ġac usa
ĠG audi
ĠI van
Ġcomp ag
Ġll op
Ġll uÃ¯
ab is
ass e
Ġr Ãºstica
ins piraciÃ³
Ġpre cep
av e
Ġpos es
Ġpos Ãł
ĠEs deven
Ġsobre pass
ess es
Ġcar is
Ġcar rega
Ġcar xof
qui o
Ġmar iner
tiv in
Ġtemp taciÃ³
leg ant
ĠO ficina
Ġ19 17
Ġcor ren
Ġvis ions
Ġx imp
ĠpolÃŃ gon
Ġad metre
ĠSant feliuenc
Ġdeix aven
Ġdesc Ãłrrega
Ãłs tro
ĠJo han
Ġver ti
Ġaut op
Ġ6 7
ida ciÃ³
ĠCas ado
Ġest ricte
Ġ7 3
Ġ7 9
ĠÃł t
Ġdec orar
ĠJa cin
Ġide olÃ²gic
Ġide olÃ²gica
imp ostos
Ġmor ÃŃ
Ġtri en
ĠBar Ã³
ĠAc te
Ġtren cant
Ġenc uny
Ġajud in
Ġcirc ula
EN A
ĠRam ÃŃrez
Ġanomen en
Ġanomen em
Ġrob ot
Ġcompeti tiva
ĠMal dÃł
estr als
Ġdescon eixement
Ġdescon egudes
Ġpren guin
Ġimpres sionants
bi la
Ġbla us
Ġdispu taran
EM P
Ġ193 1
Ġdespla Ã§at
Ġrepe tint
Ġdesitj at
Ġunivers als
ĠBor rell
Ġfres cor
Ġemo tiu
Ġaplica bles
Ġvaria ciÃ³
Ġvaria des
ĠImp uls
Ġtru cades
ĠOb ser
ĠEstÃł s
EU A
Ġdetec tat
ĠES T
exerci r
Ġprocla ma
Ġment res
ĠFot o
Ġbarcelon ina
Ġfug ida
ĠCrist Ã²fol
hist Ã²ries
Ġencar ar
Ġexac ta
Ġadver teix
ĠdidÃłc tic
Ġdesit gem
Ġapos tat
Ġcontund Ã¨ncia
Ġtrop icals
Ġtranspor tar
Ġdescend ents
ĠEduca tiu
Ġrecor rer
ĠCany ars
Ġassocia tiu
ĠDar rera
Ġdipos itar
Ġmeteor olÃ²giques
Ġsolem n
Ġtranscend Ã¨ncia
ĠCristi an
intro duir
Ġnatur alitat
ĠBert ran
ĠmÃłn iga
Ġsatisfac tÃ²ria
Ġsalud ar
Ġcapg irar
Ġpassad ÃŃs
Ġautonom ies
ricul tors
Ġinspi rada
enregist rament
Ġfotoc Ã²pia
ĠPropi etat
ĠAlej andro
A j
L o
S Ã³n
S Ã³c
T P
T ra
b s
f Ã²nica
k ov
l ants
u ki
z an
Ġ ones
Ġ ),
Ġ onada
Ġa ula
ta ge
Ġc iment
ci ans
Ġs Ã¡b
on Ãłncia
Ġla mentat
un ning
Ġt emÃłtic
at z
at emp
at racciÃ³
Ġf ara
Ġn ed
Ġun ilateral
ri ds
Ãł cies
res sions
ro gen
ĠC Ã²r
ĠC ONS
Ġcom ent
Ġcom tes
Ġre tir
Ġre vetlla
la p
ĠP ia
ĠA S
Ġg enti
ĠS ap
ĠS treet
ĠM and
ĠM osc
ur des
ĠD ur
ĠT emp
ĠR ad
et ti
ĠF as
Ġres urrecciÃ³
ist ra
ab a
ass ar
Ġr Ã¨t
Ġfer it
ĠCa mar
Ġtra ure
Ġpos tures
ĠPer met
per o
Ġpa usa
Ġma que
egu i
Ġman ualitats
Es tr
Ġsup rim
Ġcor als
ĠIn t
Ġins tants
Ġins tÃłncies
esc o
ÃŃn dex
Ġdem Ã²crates
pi da
Ġdos is
Ġprof es
ĠDes prÃ¨s
Ġqual ita
Ġmal bara
Ġra p
ĠÂ °
Ġaut og
tad ans
ĠDi pl
ĠAr tes
reg ar
Ġcri atura
Ġ8 8
ĠÃł pat
Ġconf luÃ¨ncia
Ġag ricultura
Ġconeix ent
labor Ãł
Ġro vell
Ġcontr ar
Ġexc lo
rig en
ĠRec up
und ing
exp lic
exp ressar
Ġreun irÃł
ĠGir onÃ¨s
Ġne olib
Ġanim a
Ġcaracter itzen
Ġple bis
10 24
pre taciÃ³
Ġvari ats
ĠMal avella
Ġpatrimoni als
Ġcoordin ada
ĠGrup o
exc Ã©s
ĠPor tada
Ġcorrec tes
Ġir ra
ĠCer vellÃ³
Ġtend eix
Ġcontribu cions
amp li
Ġ196 2
ĠPi erre
ĠLu ÃŃs
Ġmarx at
ĠÐ ¸
ĠacadÃ¨m iques
Ġelim inaciÃ³
Ġsac se
Ġdiv uit
Ġconduc tors
Ġconnec ta
Ġpreten siÃ³
Ġ195 6
ĠrÃłpid s
Ġis l
Ġatur ats
Ġbot ons
Ġdob let
Ġquotidi Ãł
Ġtes tament
Ġinj usta
ĠFre deric
Ġing ress
Ġobtin guda
esdeven ir
UN D
Ġnasc uda
Ġtem or
Ġopos at
Ap p
Ġrepublic ana
Ġrecti ficar
Ġpromoci onal
ĠSc rabble
Ġincrem entat
Uni vers
encarreg ada
Ġmallor quina
ĠProfession als
ĠSo und
ĠAfeg iu
Ġlegi tim
Ġinven tar
Ġfemin isme
Ġempa tar
Ġprofund s
Ġtron c
Ġom bres
Ġsubrat lla
Ġsubrat llar
Ġdegus taciÃ³
Ġintercan vis
Ġrot llo
ĠViny oli
interpre tar
Ġran g
Ġinferm era
Ser ve
Ġexpl ora
-------- --------
Vol em
ĠTol edo
Cas tell
hero i
ĠId enti
Ġexcessiva ment
ĠElectrÃ²n ic
Ġbrasil er
Ġasi Ãłtic
Ġmanusc rit
Ġpint ors
heim er
exhib iciÃ³
ĠIde al
Ġconfron taciÃ³
ĠsimultÃłnia ment
Ġpenit enci
Ġfurgon eta
ĠMontg rÃŃ
áĥĲ áĥ
ĠAnal ytics
Ġvest ÃŃbul
Ġbrill ants
aÃ¯lla ment
Ġmilit Ãłncia
ĠsÃ¡b ado
H o
S or
S egu
T al
c ana
d its
g ressiÃ³
h h
j ac
j ust
j amÃŃ
l Ã©
l ub
s or
u an
u ÃŃ
Â ©
Ã ĳ
Ð ´
Ġ ÃŃ
Ġp orn
Ġp neu
el y
Ġf osa
Ġn Ã²r
ri em
em issora
Ġes tirar
Ġcom arcals
Ġre empla
Ã² bila
ot Ã¨ncia
Ġg Ã²tica
ĠS AM
ur nÃŃ
Ġdes Ã¨
Ġdes til
Ġdes titu
ĠD y
ob ren
te bre
ĠT ER
ĠR eix
ĠR eno
up a
emp ar
ĠI lla
ĠLa w
Ġmol ins
ab Ãºs
ĠN ena
Ġfa tal
Ġpres sions
Ġar cs
ĠCa mac
ren e
Ġma tins
Ġpass o
Ġpass ap
lar Ãł
vol u
Ġesc ura
au et
am anca
ĠO B
Ġem issiÃ³
Ġgu iar
Ġins ectes
Ġcal ci
Ġcal cul
Ġconc ession
Ġexp ansiÃ³
ing er
ing rÃ©s
gi ble
ĠDes p
ĠCon go
Ġcul l
Ġmal bÃ©
Ġver dura
Ġcomun itÃłries
Ġra dio
Ġfun cionals
Ġforma va
fec te
enc ant
ĠLl ob
ĠLl ista
ĠW agner
Ġ7 6
ĠSal om
Ġlleg eixo
ĠJa ime
Ġ| |
Ġmor en
Ar tur
Ġmig camp
ĠAc tes
IC S
Ġlec tora
Ã¨r bia
amb aix
ĠCo aliciÃ³
Ġassegu rant
ĠCor pus
Ġfacili ti
ĠFer rari
Ġllei altat
ĠSan z
ĠSan itÃłria
Ġenf il
Ġviol ÃŃ
Ġadministra dors
Ġimpos ant
Ġcelebrar em
ĠVol dria
Ġmodi ficat
ĠRes um
ĠFin anÃ§ament
ĠMo z
Ġcompta va
Ġindivid ualment
Ġexerci t
ĠParc s
Ġrepar tit
Ġfal lida
inf o
Ġderi vada
Ġplu j
ĠNat ur
Ġsof Ãł
âĢľ .
Ġrefug iades
Ġsolid esa
Ġdra mÃłtic
Ġbany ar
Ġarquitec te
Ġcarreg ada
Ġresum ir
ĠCurs es
Ġdistin ts
ĠPri va
ĠFar ners
Ġquotidi ans
Ã²l it
Ġsingular itat
Ġimpar tit
Ġseri osos
Ġprevis ible
Ġcans ats
Ġlog ÃŃstica
Ġgest os
Ġradic als
ĠÃ²p era
ĠTorn em
OB IL
Ġagrup a
UL A
UL AR
Ġfeix istes
Ġcanta utor
Ġadver tit
Ġgro gues
Ġposs essions
Ġth at
ĠPÃºblic s
Ġdesit gin
Ġtir ant
Ġnadal enques
Ġramad ers
Oli va
Ã²x id
Ġenem ic
Ġgimn Ãłstica
ĠFol k
Ġexpli quem
Ġcinemat ogrÃłfica
extra cciÃ³
ĠÃłn gels
ĠsinÃ²nim s
ĠSitu at
Ġrecre aciÃ³
Ġliber al
Ġindign aciÃ³
Ġpatr ona
____ ____
ĠPeix auet
ĠAmat eur
ĠWh ats
Ġges tor
ĠDesta ca
Ġburges ia
Ġpracti quen
ĠPerson alment
ĠCarre tero
adjud icaciÃ³
ÃĪN CIA
Ġassequi ble
Ġsubsi di
ĠtÃŃ piques
ĠIsi dre
Ġdivi dida
Tarra gona
D oc
F G
R o
T AR
a jun
e tar
i blement
j Ãł
j aran
p t
y l
z Ã¡
Ġde pre
Ġde voluciÃ³
Ġa Ã¨ria
Ġa fers
er ro
Ġp essi
Ġc ants
Ġi t
un ys
ti vi
ti ven
ol anda
Ġen dre
Ġen ginyeria
Ġn iu
ra q
Ġun ionistes
ri f
res os
Ġal co
ĠC ED
gu ai
ĠE ix
ĠP ok
ĠA leix
Ġb urakumin
Ġin tac
Ġin Ã¨dit
ĠS oc
ĠM AN
Ġdes tres
oc Ã¨
ĠD onar
era bles
ĠB orn
tan o
il y
ran ge
ĠR iscos
et y
et te
ver tit
ĠG U
id er
all y
Ġpre ferÃ¨ncia
Ġar re
Ġar ticular
ss in
Ġcap turar
Ġtra um
Ġmat ernitat
ĠEs tad
Ġap legar
tor y
Ġvol guÃ©s
... ),
Ġimp ress
Ġma ma
egu em
Ġesc assos
Ġon ades
ita liÃł
Ġcan Ã³
ĠO bi
Ãłn dez
Ãłn dols
Ġsup Ã²sits
Ġins istÃ¨ncia
Ġcatal anista
Ġdem Ã²crata
Ġarrib aran
par t
Ġgener alitzada
ja ja
Ġtrac ti
aran go
ĠAn eu
olog y
ĠDi Ãłleg
Ġbas ton
Ġ8 7
Ġequip ada
ĠSal va
Ġdec urs
Ġcu es
ĠGu im
Al c
Ġcat Ãłstro
Ġtempor alment
Ġdefens em
Ġfil ologia
Ġ13 0
lu a
Ġ16 0
Ġid oni
Ġat ent
Ġfos ques
Ġdisseny ada
Ġservir an
ĠPod rÃŃem
Ġson ors
Ġresid eix
Ġdemost rant
ĠOr tega
ĠcarÃłcter s
ĠAnt on
Ġestabl int
Ġinteg rant
Ġreconeix ements
ĠUs uaris
ĠAss ocia
Ġbuscar Ãł
Ġmagn ÃŃfiques
Ġcoincid Ã¨ncia
ĠConstitu cions
equ ilib
Ġrepe tit
Ġalterna tius
Ġrepro dueix
Ġama gats
âĤ¬ ,
Ġdibuix ant
ĠÐ ²
Ġrefor Ã§at
Ġelim inat
ĠDem an
vic e
Ġgal eta
Ġcondi cionar
Ġlliga ms
ĠÃŃn tim
obli dar
ĠcÃł mpings
Ġdistin tius
Ġincid ents
Ġarr Ã²s
Ġconveni Ã¨ncia
Ġpedag og
ĠmÃ¨ diques
Ġobtin gudes
ĠUN A
Ġpersegu eix
Ġassign at
Ġsubsc rit
Ġfum ar
Ġguitar rista
ĠfÃłb riques
Ġapos tant
Ġpublici tÃłries
Ġveter ans
urb anisme
Ġbro u
Ġvita mines
ĠromÃłn iques
ĠAlex andre
Ġradi of
ĠOlÃŃmp ic
ĠCad ÃŃ
Ġmitjan it
Ġagro alimenta
Ġtrepitj ar
ĠManc omun
Ġrequ eriments
ĠINF ORM
neg re
ĠMoix igan
ĠPais atge
Ġbarbaco a
escalf ament
ĠÃ²b viament
ĠSad urnÃŃ
ĠNÃłu tic
Mad rid
ĠfrÃł gil
Ġendar rer
Ġimmin ent
espe are
ĠRibag orÃ§a
ĠCamac ho
) ...
A A
G ar
I gnasi
J ordi
R eg
U AB
a er
b anc
i ant
m y
p an
p df
v ul
Ã Ĺ
Ġ erm
Ġ tatuatge
Ġd ama
es cap
en et
en cies
en ll
ta tives
ta minaciÃ³
ci r
on ja
un tu
un eixen
Ġt emÃłtics
at os
at letisme
Ġv aris
in eres
Ãł frica
Ġes mentada
ic Ã²p
Ã² quio
ĠP it
ĠA cadÃ¨mia
ĠA company
Ġb ess
Ġb rig
Ġin des
Ġg los
ĠL oren
ĠS ofia
li quin
Ġdes agrada
oc res
ĠD onald
ĠD own
ad at
Ġ( Â«
te jar
ĠT ert
ĠB ella
ĠB ag
ĠB uf
ĠF ron
ac cidents
Ġres ign
Ġr ell
tic al
ves pre
Ġcap aces
Ġvi ola
ĠEs tell
Ġap arcar
... ?
Ġma ca
ĠH orts
ĠCatal an
Ġcol a
fic ants
ita des
Ġrep ren
ap lic
ap ole
Ġsoci ocul
ĠO t
Ġass umpte
Es tÃł
ĠMar k
ĠIn tegraciÃ³
Ġpor tin
Ġpor cs
esc riu
Ġor ques
lo re
end ent
ĠpolÃŃ gons
Ġcontra dic
Ġli qu
Ġarrib aven
gi ment
Ġperson alitzaciÃ³
ard s
Ġtrans ferÃ¨ncies
Ġsin te
Ġpublic ant
Ġcontinu arem
Ġz en
ĠVal entÃŃ
lus trat
Ġpresid eix
Ġcu ines
Ġhom olog
Ġprom otor
Ãłg ores
Ġlla pis
Ġtel emÃłtica
Ġ17 0
ine ts
Ġsen ador
Ass istÃ¨ncia
Ġne f
ĠVic ep
Ġajud aran
ĠCo va
Ġpin tades
Ġafec te
Ġidenti ficats
Ġimm illorable
Ġdim onis
Ġmira dor
Ġvig ilar
Ġviol oncel
Ġsubs tÃłncia
ĠMal al
rit z
ĠavanÃ§ ades
Ġcam isa
Ġconvid o
Ġpren gui
IT OR
Ġprefer eixen
ĠCer tament
Ġincorpor ades
Ġmas siu
ÃŃm ia
Ġmec Ãłnic
ĠXar xes
Ġ193 2
OL UCIÃĵ
ĠPob laciÃ³
Ġllic enciat
Ġaband ona
Ġenvol tats
ĠJuan jo
ĠAg ost
ĠDis capacitat
ĠBla u
Ġavis a
Ġincid ir
elabor ar
labora tiu
Ġpet jada
Ġcontamin ants
Ġdescar ta
Ġdescar tar
ĠContinu em
Ġdesg ast
icis me
ws let
Ġcomplement Ãłria
ĠCoopera Sec
ĠGl Ã²ria
Pro jecte
Ġcicl isme
ĠInstitu cions
atg eria
ĠRef ugi
Ġnau fra
Ġtarragon ÃŃ
Ġtruc ant
vil le
Ġencer tat
Ġinquietu d
Ġurg ents
Ġadvers aris
Sal ut
Ġcobra ment
Ġgraci encs
Ter mini
ĠUni forme
ĠComerci al
Ġdisfress es
ĠFam iliar
Ġbel ga
ĠJon quera
ĠPuc hi
Ġpadr ins
Ġempord anesos
ĠDal mau
Ġpad rÃŃ
ĠclÃłus ules
autog overn
ĠPublica cions
Ġober tament
Ġliquida ciÃ³
ĠCalaf ell
ĠHoll ywood
Ġsensa cional
Ġburo c
Ini cia
Ġdistric tes
Urb anisme
Ġbutx aques
ĠMancomun itat
" ;
, ,
B o
E ix
F ranc
H er
P h
a usteritat
d r
d eria
f os
f unda
g Ãł
g ens
g essa
i ana
m ita
t he
v ens
w an
es ies
er ns
Ġp iu
Ġc ria
el it
Ġs ul
on ista
Ġm ina
Ġm urals
un iversi
ic es
ĠC all
ĠC oca
ĠP ur
ec o
Ġb elles
Ġb uta
le gues
ĠS ans
ĠM AS
Ġdi la
si onada
ul ia
Ġdes itges
di men
ad eu
ad ults
ĠB ul
od erament
ĠR on
Ġac osta
ac tors
Ġres tants
ĠJ O
ass embla
tr y
Ġpre dis
ĠEn titats
Ġten y
Ġpers ever
ĠPer manent
ĠEs par
ess en
Ġcas ella
Ġinter vin
Ġinter medi
ten tar
Ġcre ades
Ġgran a
Ġrep rendre
Ġrep utaciÃ³
Ġsol ia
Ãłn dem
Ãłn gel
Es te
ĠAl fred
Ġins pirar
Ġor als
ĠQ UE
Ġexp orta
Ġval en
ag ents
ho u
emb ol
ĠPar ati
Ġlle u
Ġcontinu eu
Ġelec tes
and ir
ĠPro vÃŃn
ĠAr ticles
ĠAr mengol
var a
ĠMa pa
Ġconf on
Ġag o
Ġrefer int
Ġdec orat
ĠSer rano
Ġcompar tits
ĠCan als
imp lan
inter Ã©s
ER TA
ĠRec ep
ĠRec entment
Ġinterna cionalitzaciÃ³
In forme
val ira
Ġcaus ant
Ġdeci dida
Ġat ribuÃ¯
Ġacompany ades
bil itzaciÃ³
Ġanim at
Ġparla ven
tÃłn yer
Ġmot xilla
Ġsigni ficats
Ġcorrespon dÃ¨ncia
menta ri
200 1
Ġtit ulats
ĠComun itÃłria
Ġconstitu Ã¯da
Ġdetermin en
Ġtele fonia
ĠNom s
Ġdura ciÃ³
ĠBo ix
Ġdep endre
IT Z
Ġpreocup at
Ġveh icular
Ġproteg int
Ġfran ges
Ġsepar en
Ġfunda cions
Ġpi la
Ġestruc turals
Ġnota bles
Ġpsic olÃ²gic
Ġguard onats
Ġnomb rÃ³s
Ġemb otits
Ġpac k
Ġsof rir
Ġprohib eix
Ġterres tre
Ġdeleg ats
199 7
Ġfrac tura
ĠAg rÃŃcola
Ġaten ent
Ġquali ficats
Ġ195 8
Ġdistin tiu
Ġflu vial
Ġcompon en
ĠIC AB
ĠAqu ells
Ġing ressar
Ġcog nom
ĠCD R
Ġhaur Ãłs
Ġconvida da
lis iÃ³
Ġinterac tiu
Ġalluny ar
Ġalluny ada
Ð¾Ð ²
Ġintent em
Ġsobiran isme
Ġvergon y
At lÃłntic
Ġenfron taments
Ġmu tu
ĠÃĴ scar
ĠInstitu ciÃ³
Ġinven tari
Ġenriqu ir
work ing
Ġsalari al
Ġreform ar
Ġapas sionant
ĠHab itatge
aband onament
Ġgreix os
ĠIS O
ĠAur um
ARC EL
ĠnÃ© ts
Ãºrg ica
Mon ts
tent ri
sobre tot
ĠCOL UM
investig adors
ĠesplÃ¨n di
Ġvera citat
Ġpanor Ãłmica
Ġclav eguera
tras burg
ĠsÃº per
ĠCoincid int
ĠDefin iciÃ³
estad ÃŃstica
ĠVerne da
Ġcaut el
Ġdesenca den
Ġllegu ms
ĠNEW SL
Ġininterrom pu
Ġjes uÃ¯
B RE
E va
c ut
d Ã©s
e ter
i anes
j as
j oc
v ed
x et
y right
z ano
Ġ errades
Ġ utili
Ķ Ģ
Ġd og
en for
er ina
Ġp icada
an er
an at
on Ã©s
Ġf ec
os ovo
ol iciÃ³
ra h
em en
Ġes tesa
mb re
Ã¨ lic
ĠC I
la ia
ĠP V
ĠP ell
ĠP Ãłgina
ec able
Ġb adia
Ġg em
ĠL eu
ĠS Ã©
ca ments
ĠM ÃīS
li vi
Ġca ti
Ġca du
oc les
ĠD I
ĠD ÃŃ
ĠT ex
ĠT ema
ĠB rig
ĠB olÃŃ
ĠB Ã²bila
ada da
ĠV ig
ĠV inc
Ġrec te
ĠN u
ici o
Ġesp erat
Ġpre fron
Ġpres tig
rÃł bia
Ġten nis
ora mes
Ġpos aven
Ġap ariciÃ³
ed itor
eb ron
Ġimp resa
Ġma Ã§
ub a
Ġpu ri
Ġtemp estes
Ġpol ivalent
Ġ3 50
leg o
Ġsegu t
am Ã¨rica
Ġsol itud
int o
ĠMar Ã§al
Ġent rarÃł
Ġgener ats
ĠQu alia
Ġmal eta
Ġfun er
Ġsab rem
ĠCons ta
ĠCar dedeu
Ġmod erada
Ġest Ã¨s
Ġmin eral
ĠAr b
Ġhab ili
Ġanar quistes
Ġreb em
Ġguany ava
Ġdispos ava
Al tres
Al coi
Ġfil tre
Ġpen si
Ġmon ges
omp le
Ġmarc s
Ar m
Ġren om
val or
Ġmajor itari
Ġdom ingo
Ġefec tives
Ġpresenta ven
Ġseguir an
Ġfebrer o
Ġdisseny ador
Ġcur ric
Ġâ ĸ
Ġcontrol at
Ġcontrac tual
ĠTor ellÃ³
Ġfac ultats
ĠMor ales
Ġsob irÃł
ĠtindrÃł s
ĠVol untari
Ġexper ta
ĠDel egaciÃ³
Ġinteg rats
Ġvari es
Ġcandi data
Ġpec ats
Ġmis ter
ĠBo ada
Ġviv Ã¨ncia
Ġret Ã²rica
acab en
ĠLla tina
Ġnomb rosa
Ġ196 6
Ġmic rom
Ġunivers itÃłries
Ġsuposa va
ĠPos ar
Ġbanc Ãłries
Ġelim inatÃ²ria
Ġtransform acions
Ġdeleg acions
Ġgastr onÃ²miques
ĠdiÃłleg s
Ġsot mesa
Ġpreveu en
Ġexperim enta
Ġol is
accep ta
Ġassenyal en
Ġfant Ãłstiques
ĠcÃł lid
Ġcavall er
Ġhotel ers
Ġacum ulen
Ġvide os
Ġdob lers
Ġfals os
Ġcic lot
anomen en
Ġagu lla
Ġradic alment
ĠBlanc o
Ġrigor Ã³s
ĠAnd roid
Ġ97 2
Ġresponsab ilitza
auto estima
ĠCard enal
ĠNeg ra
Ġveter inari
Ġrecop ilar
Ġcir urgia
ĠEduca tiva
Ġnaz isme
Ġsubrat llat
Ġred ist
aprofi tament
ĠincreÃ¯ bles
Ġelectr ons
Ġencer tada
Ġcinemat ogrÃłfic
ĠÃį n
Ġmit ologia
ĠtÃ²p ic
ĠSau ra
ĠJurÃŃ dic
ĠWillia ms
ĠFru it
ĠplÃłn ol
oces Ãł
ĠJx Cat
Ġcerves es
ĠcÃ²r tex
ĠcÃ¨le bre
ĠZar ago
ĠModi ficaciÃ³
ĠcÃ²mp lic
ĠRefer Ã¨ndum
Ġpanel lets
iguam olls
Ã²gra fa
ĠNEWSL etter
A pro
C amb
D ia
D ata
P o
S M
V aig
d h
e ducar
k ers
m ill
z Ãł
Ä į
Å «
Ù Ħ
Ġd C
Ġa eri
Ġp Ãłnic
ar el
ar ross
qu eres
el udi
re ma
or ien
Ġm erament
Ã³ mac
ent ra
Ġf Ã¨iem
Ġper torb
Ġper tÃłnyer
om ni
Ġn us
em s
is quen
Ġes capa
ĠC is
ÃŃ d
ĠE us
ĠE ts
Ġre duint
Ġre vertir
ot os
ĠA viat
Ġin tim
Ġg im
Ġg ota
ĠL ot
Ġcon vo
Ġo ients
ĠM ini
Ġca cau
ĠD ies
ad ura
ob ert
ĠB oc
ĠB ud
ĠB est
ĠB egur
Ġan Ã©s
ran cs
od ep
ĠF it
ĠF ir
ĠF ull
ĠG or
eg ades
ĠV IS
ĠI tiner
ab at
ĠN ec
ass ament
all orca
vi ol
ĠU V
rim onis
Ġmat emÃłtic
Ġmolt ÃŃssimes
Ġob rers
Ġcas i
Ġvol ts
Ġcar s
Ġcar itat
Ã¯ en
Ġform alment
Ġpu ig
Ġesc lar
Ġinter con
Ġmar id
enti t
Ġdia betis
Ġass abor
Ġem iss
ĠMar ca
ĠMar ÃŃn
Ġpor xo
Ġab usos
Ġtan quen
Ġcontra dicciÃ³
Ġtin guessin
Ġinform ats
Ġdeix eble
ud o
Ġw h
Ġpla ers
Ġcomun itaris
envol ta
Ġri g
Ġresul ti
ĠVal verde
umen at
ĠW ater
ĠVi at
Ġcont enta
Ġven edors
Ġjug aran
edi ficaciÃ³
Ã²s tics
Ġgra ti
Ġllibre ta
Ġas si
ĠgrÃł fiques
Ġ12 5
Ġconver tÃŃ
Ġpri ori
Ġcli mat
Ġren ov
Ġfem elles
An tic
ĠCamp ions
st Ãºries
Ġconegu in
Ġcaus at
ĠPol iesportiu
Ġseny era
Ġne w
Ġ11 2
Ġfos cos
ocup a
ĠMas car
aj udes
Ġsu ec
acter is
Ġregu lat
Ġconstitu ent
ĠTor na
ĠGra us
Ġrob atoris
Ġdescon fianÃ§a
Ġevid Ã¨ncies
Ġimpuls ors
Ġjur ats
ĠGrÃł fica
Ġperill osos
Ġpren em
Ġestim em
Ġmas ies
Ġestran ger
No va
AD N
Ġmasc ota
Ġfl uÃ¯
Ġmic ros
ĠPi era
Ġcuri osament
Ġend ut
ĠMari ona
ĠPos si
Ex ecutiu
ĠRod rigo
Ġvesti dor
ĠBat lle
Ġron des
Ġpertany ents
escol ta
ĠOri entaciÃ³
ĠOri gin
Ġ195 5
Ġapren en
Ġher eu
Ġment restant
ĠcÃł ps
Ġdistin tes
ĠMe iÃł
Ġextraordin Ãłries
ĠÃłnim es
Ġregular ment
Ġprodu eixi
Ġoli veres
Ġinvesti ga
ĠÃºltima ment
ĠMod erna
Ġnoti ficacions
Ġalli b
Ġevolu cionar
ĠCel eb
ĠGR UP
ĠVen Ã¨cia
Ġreconegu des
Aut onomia
Ġadver tir
AV E
Ġtreu en
Ġencaix at
Ġsugger eix
assegu rar
tex t
ĠperiÃ² diques
Ġfo guera
ĠResid Ã¨ncia
acos tar
ĠTrib ut
ĠpÃł del
Ġveri ficar
ĠChar les
ĠArquitec tura
ĠGÃ¨n ere
Esta di
Ġrend ir
Ġindemn itzaciÃ³
Ġdescarreg at
Ġpatron al
emo cions
itch en
enem ic
Nom Ã©s
ĠCET T
ĠnÃ²m ina
ĠElis abet
ĠQuir ze
ĠMÃ¡r quez
âĨ ĳ
Ġza zen
Ġprefron tal
Ġprestig iÃ³s
A gustÃŃ
G ra
J A
d ing
l ular
m ia
p ress
r ors
z y
z Ã³
Ġd rÃłs
Ġa ca
Ġp ig
ta m
qu ali
ci di
ci liaciÃ³
Ġque do
Ġt ÃŃm
Ġt ony
Ġt Ãłctica
Ġv em
Ġv ass
Ġv ina
Ġv ores
Ġper dia
Ġen ero
Ġen rera
Ġun d
ri an
Ġse ques
Ġcom is
Ġre tic
Ġre truc
Ã² metres
ec ologia
Ġb os
Ġin us
Ġin acab
Ġin def
ĠL ara
Ġe pid
Ġe ficients
tes sin
tu rem
ĠD ES
ĠB of
ĠB ang
Ãº lies
ver d
ĠF R
Ġac orda
ĠG P
ĠV ega
ĠV Ã¡zquez
ĠI di
ĠI ber
im entar
im mer
Ġr ÃŃt
Ġcons ag
ves tre
Ġfer ot
Ġpres cin
Ġar oma
Ġten c
Ġob rim
pos ta
ĠH al
Ġaix i
Ġpass atge
Ã¯ es
Ġentre gat
Ġesc ull
Ġmar zo
Ġcre mat
Ġrep ic
ĠCom b
Ãłn dia
Es pa
Es col
Ġ19 14
ĠAl z
Ġcor di
Ã¼ ll
Ġins ub
vis ible
Ġconc edeix
end Ã¨ncies
Ġtin ga
Ġdesc rit
Ġtal lada
Ġw e
xa mp
Ġsab ÃŃem
Ġam istats
ĠCons ells
ni ficaciÃ³
ru guai
Ġbar res
Ġdoc trina
Ġpropos ats
ĠMa Ã§
Ġfinal ista
Ġconf lu
Ġguany s
Ġbaix ades
Ġjug ades
iss abte
Ġcl ari
Al m
ĠMon g
Ġdif unts
pec tiva
Ġpen jant
Ġna tal
vin yÃ³
ĠPu j
ĠcomenÃ§ar en
ĠCamp anya
rea k
Ġperd em
Ġindi cis
AR R
AC H
ĠZ o
ĠCor ella
Ġconser vats
Ġafeg irem
Ġjust os
Ġgen uÃ¯
ĠFundaciÃ³ n
Ġesti guem
Ġgol f
Ġrelacion en
Ġcob ren
ĠComun itats
Ġmarca des
Ġquedar ia
Ġsob tada
Ġcreu er
Ġrepresenta va
Or feÃ³
Ġpropor cionat
Ġviat ger
Ġelabor ant
Ġderro tat
Ġincorpor en
Ġge ogrÃłfic
ĠLe o
Ġfran ci
RE T
Ġreal isme
Ġentren ar
inf lu
Ġestruc turat
Ġpsic olÃ²gica
Ġfuncion alitats
Ġaprof item
Ġ193 4
Ġgar rot
Ġimagin ari
âĢľ ,
Ġbanc ari
Ġinver tit
Ġfemen ins
onÃ¨s ia
Ġconsider ant
Ġprogram ats
Ġompl en
acom panya
Ġxi quet
ĠBla sco
audi ta
ĠES P
ĠAjuntament s
Ġatrac cions
Ġarque olÃ²gics
interess os
lel es
imag inari
ĠCÃł mpings
Ġterror istes
har monia
Ġflor al
Ġallot jar
Ġetique tat
ĠTÃ¨c niques
Ġplantil les
ĠElec toral
Ġregula dores
Ab ril
Ġcontras ta
ĠTo tal
ĠHist Ã²rica
ĠquÃŃm ic
Ġorden ada
Ġorden ances
enfron ta
ĠEdu ardo
ĠIb Ã¡Ã±ez
auto via
Ġassass inats
Ġgall ina
ĠEstudi Ãł
ĠFlor ida
ĠRu tes
Ġmons tre
Ġrelax aciÃ³
Ġflex ible
Antoni o
Ġrebaix ar
Ġfactura ciÃ³
ĠcÃłl culs
Ġprogress ista
Ġexam en
Ġsubscrip tors
Ġofen siva
Ġofen siu
ĠJac ob
Ġfia bilitat
Ġencan tat
Ġmorta litat
ĠBan k
hÃłb it
ĠJut jat
ĠAten es
Ġinvas iÃ³
Ġsincer itat
Ġcart ografia
ĠCob la
gall Ã³
Ġpenedes enc
Ġfrar es
Ġlluit en
ÃŃf ex
ĠFÃł bre
blog s
Ġengl oba
Ġmaquill atge
ĠLlac una
ĠHall oween
Ġdinosau res
Af ganistan
Ġsubhas ta
adqui rir
ĠConflic tes
Ġatrib uts
Ġine quÃŃ
ĠShak espeare
Ġcint urÃ³
ĠObi ols
ĠCOLUM NA
B B
C u
F P
L e
N E
b ÃŃ
f l
i ti
i ve
j es
k en
x is
{ "
Ġ tic
Ġd ons
es tra
Ġp om
Ġc uraciÃ³
ar eny
ci ta
or um
un try
Ġt ront
in dica
Ġen Ã§Ãł
ra dor
ri gues
ro ja
Ġal ber
Ġal fab
ĠE garsat
Ã² via
ec ular
Ġb ibliotec
Ġno ci
le d
Ġcon jug
Ġo est
ĠS Ãł
ĠS tudi
ĠM om
ĠM ala
Ġca ble
tu ament
oc ells
di us
ĠD et
ĠD ub
ĠD OGC
ob la
ĠB Ãłr
il Ãłndia
ĠR at
Ġac udit
Ġac Ãºstica
ĠG obierno
ig ra
ig Ã¼
ens is
id ores
ac ar
eg i
ĠI B
Ġres titu
Ġrec ur
all uny
Ġpre co
Ġpres enti
Ġpres ses
Ġpres ump
Ġpres umptes
Ġtra ient
Ġvi tivin
op in
op ol
og en
ort h
ina ment
Ġimp ecable
ord enament
ĠH it
ĠH il
ĠH av
ex pec
fic e
Ġcos tarÃł
au x
Ġpl ug
Ã¨s ia
Ġtrob alles
Ġsegu iu
ĠCom en
ĠCom una
ĠNo vel
Ġins ol
Ġins ul
Ġins ular
Ġins eguretat
Ġab asta
Ġset ze
vis s
Ġestat us
Ġx amp
Ġent ranyable
Ġad Ã©u
Ġad quir
Ġco titzaciÃ³
Ġcul lera
ĠAn ys
fi quem
Ġam ist
ni k
Ġmaj estu
truc tor
ĠRe alment
Ġbar alla
Ġbar rera
esp l
ust os
Ġti rat
ĠPro ducciÃ³
Ġbl ues
ĠK han
ĠW il
Ġcu iners
ĠCal vo
Ġdesp en
imp lem
Ġdif unt
af avor
Ġ' '
Ġlla una
ĠBar ca
IC P
Ġne vades
Ġcomple tes
duÃ¯ m
cin g
Ġamp lis
Ġson en
Ġcateg or
ĠcomenÃ§a ments
Ġind ÃŃgenes
Ġcur ar
Ġconsum s
tÃłn dard
Ġcontrol ada
ĠOr gan
Ġtur ons
Ġpremi at
ĠRes ultats
ĠFin ances
Ġinteg rals
ide al
ĠCh ac
Ġobs ol
Ġcam ina
ĠSab ater
ĠTen ir
Ġtend eixen
Ġdiver tits
Ġmasc les
Ġderi ven
Ġnota blement
Ġ196 1
Ġrepe tida
Ġfelici tats
ĠMari Ãł
199 5
Ġapun ts
espectac ular
Ġconform ar
abs tenciÃ³
Ġquali fica
Ġextraordin aris
Ġis raeli
ĠPri vada
Ġquotidi anitat
Ðµ Ð½
Ġpron Ã²stic
hist Ã²ric
Ġsubsc riure
ĠHist oria
Ġfir mar
Ġda urat
pers onal
ĠCel oni
Ġrevel at
ĠEst her
ĠdidÃłc tics
Ġhid ra
anunci s
ĠGin ebra
idi omes
Ġconci liaciÃ³
ĠPlan as
Ġplas mar
Ġï »¿
Ġespiri tuals
Ġtransmet en
Ġesmen es
Ġculmin ar
Inf ant
Ġbibli ografia
Ġhero i
ĠDispos a
Ġpastiss eria
Ġvor eres
Ġinnoc ents
Ġesbor rar
Ġsetman ari
Ġinfec cions
ĠvenÃ§ ut
enseny ar
ader ns
ĠNicol au
ĠTrÃł nsit
Ġrum ors
Ġlava bo
ĠStan ley
allen ge
Escal a
Ġsupermerc at
ĠPac ÃŃfic
ĠRenaix ement
ĠFul leda
Ġgorg Ã²nies
ĠColls erola
espat lla
Ġmister iÃ³s
ĠZarago za
Ġtony ina
E AP
F ins
O K
a fer
b ita
c era
f usiÃ³
f ite
h r
h ig
h ara
h imne
i ol
i ro
l els
n ant
p oli
s rc
t reball
es tres
en ri
Ġde tri
Ġa erop
Ġa tesa
Ġs c
Ġs emÃł
an ge
ti ria
Ġen du
Ġn an
ri ols
Ãł rab
em any
da dors
ÃŃ ode
ĠE ric
ĠP E
ĠP ren
ĠP aris
ĠP OD
as falt
ĠA QU
Ġb oles
Ġin du
Ġin gen
ĠL it
ĠL ife
Ġcon dol
ĠS AL
Ġe ixamp
ur u
Ġdes d
ĠD reams
ad her
ob erta
ĠT am
ĠT hi
ĠT IT
ĠT Ã²quio
ĠB ran
ĠB isbe
mp l
ĠF ood
ens os
ĠI M
Ġcomp orten
Ġmol l
Ġcons orci
Ġcap ta
de pera
Ġpos ts
Ġap u
tor o
Ġimp liquen
Ġma ti
enta ris
Ġesc ultura
ve ja
Ġinter rog
Ġcre gui
Ġpl oure
). [
Ġ19 27
min g
ĠMar quÃ¨s
Ġtreball aran
Ġab us
Ġco okie
Ġme tal
Ġaf iliats
Ġval ents
Ġdu ta
Ġtrans m
Ġtrans gÃ¨n
Ġtres ors
Ġsab Ã³
ĠCons istori
Ġpas sions
ĠRe forma
Ġtorn in
lec tivament
and s
Ġint ox
pe ace
ĠK o
ĠK itchen
Ġpermet ria
est ona
Ġlleg im
ĠCal der
Ġarribar em
ĠGu ies
Ġapar tament
ĠMun do
Ġmor tes
ov asc
Ġvisi tarÃł
ĠAc onsegu
Ġtreballa ven
Ã¨r cia
Ġvin guin
Ġplant er
ĠSanta mar
Ġafec tarÃł
Ġrom anes
Ġamp l
Ġeuro dipu
Ġprotagon itzar
Ġcorresp ons
Ġigual ar
oss ar
oss at
efici ent
Ġllu ir
ĠFranc olÃŃ
gen era
ĠCap devila
Ġdescon cer
Ġperiod ÃŃstica
Ġconcep tual
Ġsupos adament
Ġfona menta
Ġanterior itat
Ġimpuls or
ĠMed alla
ĠLlu is
Ġagrada va
Ġperman entment
ĠPl anes
Ġreal ista
Ãłb rica
ĠBer lin
ĠRom ania
Qu ina
Ġexcep cions
Ġpsic Ã²loga
Com un
Ġ193 5
enf rontar
ĠComp te
omÃł tics
ĠBe ach
ĠRos Ã©s
ĠTrans ports
Ġpertany ent
ĠRic o
ĠDom ini
Ġcurt metratge
ĠPe Ã±
ĠTur ÃŃstica
Ġdepend rÃł
Ġpet Ã³
Ġali at
Ġdenom inat
ĠPens em
Ġpersegu idors
Ġdescrip cions
Ġtanca va
ĠVir tual
Ap renentatge
ĠHist Ã²ries
Ġinterpreta da
ĠBlanc har
Ġprote Ã¯na
Ġdial og
ĠCOM P
inicia tives
ÃĴ mnium
ĠDic k
Ġpublici tari
Ġarquitect Ã²nica
Ġvulnera ble
Ġconsecu tius
Ġdescend ent
Ġdocumen tat
Ġincorpora cions
Ġposse eix
ĠMusic oterÃłpia
Ġignor ant
ĠdomÃ¨s tics
ĠFu entes
Ġascend ent
.Â» [
ĠMerca dÃ©
ĠSus ana
ĠPerp Ã¨tua
ĠManten iment
Ġfia ble
Ġatmos fera
Ġusu Ãłria
Ġcasol Ãł
ĠDomÃ¨n ec
Ġnobles a
hang hai
ĠXif rÃ©
ĠCadasc Ãº
explor aciÃ³
ACI ONS
ango ixa
ĠHong ria
Ġbutlle tins
sig ni
ĠincÃ²gn ita
Ġdesconnec tar
ĠTeat ro
Ġpseud Ã²nim
ĠfÃłrmac s
ĠBON MAR
atem ala
Ġramb la
ĠFilip ines
Ġfranci sc
Ġdetri ment
A ls
C am
D O
H el
L ES
O lÃŃmp
P ol
d rÃ©
e tern
g Ã³n
g aran
h otels
h ima
i zar
l ina
m ell
m ista
p ides
r oll
t v
t oca
Ä «
Ð ¼
Ñ ħ
ta vi
Ġc ros
ar ran
ci ar
Ġs mart
Ġm osa
Ġt est
at endre
os em
om o
om Ãłtica
ra ven
ri citat
is on
ĠC esc
Ġles bi
ĠP ica
Ġb acteris
Ġno tat
Ġin tra
ĠL P
ĠL ar
ir s
ĠM I
ĠM OBIL
Ġpro ven
Ġpro vid
Ġe gip
ĠD id
ob ar
te ta
tar d
ĠB ien
ĠB uda
ĠB ARCEL
Ãº b
ĠR y
ĠR as
ĠF ront
ĠF ires
ĠF idel
ĠV IA
ist r
ĠN Ãº
ass istir
Ġr ates
vi als
Ġpres encials
rÃł fica
Ġar gentÃŃ
oci s
op l
Ġten gut
Ġap rÃ¨n
Ġaquest os
Ġcas als
Ġvol c
car is
pos at
Ġma yo
Ġpass eja
Ġmar avell
Ġpl ou
ap as
ĠCom enÃ§
Ġlli gades
Es tic
Es tats
Ġ19 23
min o
Ġgu s
ĠMar keting
ĠIn tera
ĠSant es
Ġesta bles
Ġav ent
que jar
Ãłs ic
cab a
Ġcul tiva
Ġjo u
Ġtrac tarÃł
Ġdirec cions
ĠÂ º
Ġaut ores
emb urg
ĠPar es
Ġrealitz i
Ġpens Ãłvem
Ġacab aran
Ġacab aria
ĠCar rera
ĠCas anova
Ġti rada
Ġaconsegu its
ĠÃł via
Ġag ricultors
Ġreb ia
Ġexc uses
Ġsom iar
Ġpen Ãºltim
ĠMan ual
Ġtri o
Ġbo ig
Ġbo icot
En cara
Ġren des
Ġsen da
An ti
Ġpregun tava
Ġdist or
Ġne oc
Ġdesta quem
AC A
Ġid Ã¨n
Ġvic e
Ġ11 0
Ġconser vades
Ġfacili taciÃ³
Ġinclo urÃł
ĠSol ucions
Ġreflex iona
tÃłn ics
Ġmed alles
Ġpes at
apar tament
Ġmira va
opera bilitat
ĠBen issa
estr al
titz ats
ĠMo ya
ĠMo iÃł
Ġexpos ada
Ġhor Ãłria
Ġpal Ã¨s
ĠCh ica
Ġadap tacions
AS A
Ġsosten ir
ĠBo oking
Ġplan tat
Ġviat jat
Ġgesti onen
Ġequi vocar
Ġpublica va
Ġexig ents
Ġress egu
ĠEsp lugues
Ġregist rades
Ġcristi anes
ĠEc olog
ĠEc onom
eda d
ĠCiutad Ãł
Ġtractar an
ĠDoc umental
ĠBon o
Ġcarn aval
Ġdeleg ada
Ġclient ela
ĠImp res
Ġimme di
IM A
Ġcondi ciona
pot ser
equi voca
Ġacum ular
Ġquotidi anes
ĠTar dor
har ma
especi alitzaciÃ³
Ġnasc uts
Ġagu anta
IF E
Ġcim era
obser vatori
aug mentar
ĠParticip a
Ġtitu lacions
Ġaugment en
Ġmeta f
Ġtravess ant
Ġgiron ins
incor pora
Albert o
Ġprepara tius
Ġorgull Ã³s
ĠDEL S
ĠAM PA
Ġavi ons
utx aques
Ġguar di
Ġdedi quem
Ġmons tres
ĠHotel era
Ġtruc s
mas car
Ġalimenta ri
Ġprotec tor
Ġacons ell
ĠCoordin aciÃ³
Ġabund ants
ĠEurope an
ĠHol anda
Ġlamenta ble
Ġort ogrÃłfiques
Ġpantal ons
Ġanticip ada
Ġobstac le
Ġcombusti ble
Ġfrus traciÃ³
Ġferrovi ari
ĠplÃłn ols
Ġautoma titzat
Ġdesmun tar
ĠBB C
ĠGreen peace
Ġsectori al
Ġsectori als
ĠRoy al
Ġdesesper aciÃ³
ĠME UR
ĠDescon ec
ĠautÃ²ct ona
Ġraj oles
clo a
institu cions
Ġoportun es
Lle ida
Ġfomen tant
Ġprimordi al
Utilitz em
epis odi
Ġmigcamp ista
ĠTert Ãºlia
Ġpreco Ã§
D S
H ist
I r
c lar
h ola
l osa
m eric
o ver
u eta
v ins
x if
y mar
ã Ģ
Ġ 000
Ġ ....
Ġ Ñģ
es itat
en ha
en tants
Ġde cepciÃ³
Ġl ar
Ġp ÃŃc
ar y
qu a
Ġs h
Ġs avis
an era
Ġla mentar
Ġper dis
in ista
in osa
Ġun ida
Ġdel icada
da y
ĠC ec
ĠC up
it ora
Ġcom et
Ġre ven
Ġre habili
ĠP ec
ĠP ard
ec enatge
as es
ĠA valuaciÃ³
Ġb ret
Ġin ves
ĠL ink
ĠS id
ĠS tra
ĠS Ãºria
ĠS astre
ca ixent
ĠM Ã©
ĠM ART
Ġdi lu
tal les
Ġdes ocup
Ġdes enllaÃ§
ad ats
ad op
ad ella
Ġj er
te ig
Ġan iria
itz adors
ĠG EN
ĠG ay
ac lar
ac ks
eg Ã¼ent
ĠV erg
Ġres tant
Ġres istents
ab ra
ĠN oc
ass eny
Ġr ols
ins pec
all eria
ĠU SA
Ġpre histÃ²ria
Ġtra Ã§a
Ġtra uma
ĠEs lovÃ¨nia
car tes
Ġma inada
ĠH y
Ġter tu
alitz i
Ġcol oni
Ġnom bres
Ġpot encia
Ġpl Ãłstics
ĠO ne
Ġass eure
Ġfin anÃ§at
Ġtreball arem
Ġco hes
Ġmo vent
Ġmo cador
ĠQu ad
aix eca
Ġpo esies
oni Ãł
ag ent
Ġra m
Ġactu arÃł
Ġsin erg
ni er
Ġacab aven
Ġlle idatÃł
ĠDi rig
ĠDi versitat
enc reuament
Ġtorn Ãł
esp lai
ĠLl otja
Ġbas ar
Ġ9 4
Ġpropos ades
ĠK DE
Ġ8 9
Ã²s nia
Ġhom Ã²nim
Al fons
Ġapar ador
ĠMon cloa
imp rimir
Ġmon jo
Ġbus ques
ĠPu erto
lu ga
ress or
exp licaciÃ³
exp ressa
Ġenc on
Ġat ro
ĠZ a
rid o
Ġgen erada
Ġimm or
Ġmostra va
Ġcomb inant
Ġesper anÃ§
Ġtras torn
Ġadministra dor
Ġsur tin
opera cions
ĠInter ess
Ġcab ra
Ġcoordin adors
Ġmas si
ĠLe a
Ġtend ra
Ġadequ ar
Ġexig it
Ġmec enes
Com promÃŃs
Ġfuncion i
Ġaprof iten
Ġgar ro
Ġbri tÃłnics
ĠDoc ent
Ġ194 6
Ġ194 9
ĠIs lÃłndia
mig raciÃ³
Ġmad uraciÃ³
Ġllengu atges
Ġconnec tat
ĠAg ents
ĠfreqÃ¼ Ã¨ncies
Ġnarra cions
Ġpreten em
Ġdesper tat
ĠPe ter
ĠES C
Ġfant Ãłstics
ĠTur ull
Ġteat r
Ġimpar teix
Ġreper cu
ĠTri as
adap ta
Ġau gu
ĠhÃłb itats
Ġcops ar
Ġnoti cies
Ġadolesc Ã¨ncia
elim inatÃ²ria
Ġib n
Esp lugues
ĠMac edÃ²nia
Ġgiron ina
ĠmÃŃ tica
ĠOl ga
Ġmals on
Ġprob abilitat
Ġremun tada
Ġarquitect Ã²niques
ugu et
Ġirregular s
ĠPh ilip
assol iment
Ġentusias ta
aband onar
Ġhipot ec
Ġinstant Ãłnia
ĠMÃł laga
Ġpica bar
Ġxer rar
Ġconvic cions
ĠManten iments
Ġindirec tament
ĠRES P
Ġrevolucion Ãłria
Ġentrevis tat
Ø§ Ø
Ġebren cs
ĠViol Ã¨ncia
ĠAntic h
Ġinfla bles
Ġadsc rit
ĠGod Ã³
ĠAj uda
ĠAndre a
ĠEspectac le
ĠAntiga ment
Ind Ãºstria
Ġinconven ients
egr ins
infer n
ĠTes tament
Ġtrof eu
Ġprolifer aciÃ³
Pis cines
Ġinunda cions
ĠcontrovÃ¨r sia
lap se
? âĢĿ,
C or
C aixa
G A
G N
P ot
d y
f ol
f ocs
g ora
l ela
s egu
t le
Î ½
Ġ ermita
Ġd aurada
es capa
es piri
Ġs uro
on ges
or tat
Ġel ef
Ġt ons
Ġt ris
Ġf og
Ġf allar
in ing
in tegra
ra m
Ãł lies
ĠC hi
ĠC ER
ÃŃ acs
it ona
Ġcom Ã¨s
Ġcom andes
Ġre duÃ¯ts
Ġre desc
ĠP es
ĠP oli
ĠP unts
ot urisme
Ġin her
le ar
tal isses
ĠD rac
ĠT emple
ĠB ir
il o
il es
ĠR OSA
ĠF ina
itz i
ĠG rec
Ġex acte
ĠN arra
all ÃŃ
Ġcons agra
Ġpre ve
Ġpres tador
Ġmat erna
Ġap osten
Ġap Ã²stols
Ġpa us
Ġcar gol
Ġprim ari
ĠH osta
Ġman lleu
Ġesc um
Ġesc ombraries
Ġcre ien
Ġcan ad
tre am
Ġ19 28
ĠNo vell
ĠMar icel
ĠIn vestig
Ġins osten
vis ual
Ġdem and
ĠX ip
Ġesta di
Ġco ordina
Ġarrib ades
par a
Ġaf ins
ud ia
Ġben Ã¨
Ġtrans accions
Ġactu alitzacions
ll or
Ġaut ocar
inc endis
ĠPar ra
ĠCons trucciÃ³
Ã¨c nic
Ġgovern at
Ġpens ats
ĠCar caixent
ĠCas tel
ĠLl um
Ġmin is
Ġaconsegu ÃŃ
ĠGener aciÃ³
Ġhab iten
Ġneg at
Ġaj udi
Ġnecess iteu
Ġprop erament
Ġdisc uti
Ġgra va
Ġsig les
ĠSer an
Al umnes
Al ternativa
aud itoria
ern et
ĠMon toro
ĠCol Ã²nia
ale ts
Ġmor als
Ġlla Ã§
Ġcli queu
ĠAc c
ĠAc ord
ara gua
Ġcaus ats
ĠAv entura
Ġmi ro
ĠGir on
dem ocrÃł
Ġassegu rada
agra Ã¯ment
Ġcompl int
Ġlabor atoris
lan ada
Ġvist os
Ġcontrac tat
ĠRam aderia
Euro pe
Ġfranc eses
Ġesdeven int
Ġviol Ã¨ncies
ĠMor unys
Ġregid ores
Ġrem ol
inici aciÃ³
inici arÃł
Ġconsul teu
Ġconsidera cions
Ġbenefici aris
ĠCh ris
Ġprocess ament
Ġparticular itats
Ġexerci nt
Ġmis Ã¨ries
Ġplan taciÃ³
Ġir ri
ĠCer tificat
Ġpreocup en
Ġge omÃ¨t
Ġinno vacions
Ġestran ys
ĠPl ans
Ġfal tes
CI ES
ĠFor um
ĠPas torets
Ġconcent ren
Ġpsic Ã²leg
ĠPolÃŃ tics
ĠcomenÃ§ o
uf era
Ãºn ior
Ġapareix ia
Ġsubstitu eix
ĠÐ ½
Ġaband onada
ĠTreball s
Ġcerti ficar
Ġdesig nat
Ex cel
ht ml
Ġgo al
Ġmera velles
Ġ195 7
udit oria
Ġmass atge
Ġatac ant
ĠHer eu
Ġcondem nats
Ġsucc essions
Ġcompos itors
Ġali anÃ§a
Ġcompleix i
ĠTi ana
ĠVI H
Ġerr Ã²nia
inform em
Ġestre ts
ĠFon tan
Ġtop Ã²nim
ĠSc ratch
Ġatre ure
ĠBlanc h
Ġagrup acions
Ġblo ca
Ġembl emÃłtiques
Ġexecu tat
orden ades
ĠDeix em
lig Ã¨ncies
Ġtip ologies
Ġperdu des
Ġescla tar
Di vendres
ĠescÃ¨n ic
identi ficar
ĠOl tra
ĠDemocrÃł tic
ĠAM B
Ġarti ficials
Ġsep tentri
Ġequilib rat
Ġtamb e
gna cio
Ġmagist rat
Ġajus tat
Ġautob Ãºs
Ġtert Ãºlies
alar ma
ĠCient ÃŃfica
ĠDisc ussiÃ³
ĠMÃł rius
ĠAgu il
Ġhos tes
Ġsetman als
ĠConsul teu
Ġpronunci at
ĠÃī S
ĠPeriod isme
ĠtÃ¨r mica
Ġpractic ant
ĠNecess item
Ġagl om
Ġdescri uen
ĠGastr onomia
ĠcÃ¨n tims
Ġcist ella
Ġdesn onaments
Ġfantas ma
ĠBB VA
Ġgamb es
Ġmotiv at
Ġdemoc ra
Ġparado xa
ĠVÃŃde o
Ġdistan cia
Ġapropi at
ĠlÃł mines
empa tia
Ġdespro por
ĠpÃ¨ ls
Ġperform ance
urr Ã¨ncia
ĠpartÃŃ cip
ĠInau guraciÃ³
atemp tat
Ġpassap ort
ĠMoixigan guers
ĠpÃŃc nic
G B
L IC
L loc
X TVL
i tives
i lades
p p
s en
s Ã³n
v ana
x ada
z ona
Â ³
Ã »
Å ¡
en via
Ġde ro
Ġp iss
Ġp icat
Ġc il
Ġc anya
ar o
qu ena
Ġs p
an di
re ig
or er
or it
al o
al Ãº
Ġv ar
Ġper f
os e
om at
ra g
Ġun Ãłnim
Ġdel iciÃ³s
Ġes tival
ĠC Ã©
ĠC AL
Ġamb i
ĠP H
ĠP O
ĠP ant
ĠP EN
ĠP AS
ot eques
ĠA ina
Ġb eu
Ġcon j
ĠS ona
ĠS Ã²nia
ĠS ports
ca dors
ĠM embre
si bles
Ġdes ar
Ġdes viar
di um
ĠD isb
ob riment
era c
te ja
ĠB assa
ĠB erta
ĠR SS
et t
ĠF OT
ost el
ĠG la
ĠV id
ĠJ am
Ġll otja
ĠN il
ins tant
Ġta many
Ġta quilla
Ġcap elles
Ġvi al
ades ses
ĠH ig
ex portaciÃ³
Ġpr or
ga mi
Ġform ulaciÃ³
Ġentre mig
Ġpu e
Ġpol ic
Ãºs ter
tre t
int enta
Ġ19 15
Ġ19 25
Ġcor ba
ĠMar y
Ġab orda
Ġexp ec
Ġent errat
Ġad ulta
Ġdos sier
Ġcontin ents
Ġesta rien
Ġarrib o
rem is
Ãłs ia
Ġfor Ã§
eta da
Ġpens ades
Ġacab Ãł
ĠCar la
ĠCar mel
Ġcanvi arÃł
Ġfot re
ĠLl ÃŃria
ï¿½ ï¿½
Ġop rim
Ġdiss et
Ã²g ic
Ġz omb
ĠVal le
Ġ8 2
ĠMa estrat
of en
Ġnecessi tin
Ġag rÃłria
Ġag rÃłries
ES A
Ġcompar tides
Al ba
dis sea
ĠCan di
Ġpen ja
Ġpen jada
Ġmon ogrÃłfic
Ġfam oses
Ġestudi en
lu cin
An im
exp liquen
ej e
Ġ0 80
Ġmi res
lici tada
Ġtor tura
Ġfacili tada
Ġamp les
Ġpopular ment
Ġgen oci
ĠPod reu
Ġesti guis
Ġdestin arÃł
Ġâ ĶĢ
Ġdur at
ĠSegu ir
Ġorig inar
Ġconven ciment
ĠOr tiz
Ġenll u
ĠTe oria
Ġpan carta
odi citat
Ġviol aciÃ³
ĠRes earch
Ġrepresenta tius
ĠDia bles
Ġpropor cional
rist Ã²
Ġestran yes
reix ement
ĠMat erials
Ġintro duc
ĠPed rera
amp liar
Ad vocats
Ġfuncion at
Ġ193 3
equ ador
Ġcontes ta
ĠUE FA
ĠIs land
Ġconvers ar
Ġperme teu
Ġproced eix
Ġdiv ÃŃ
ĠCab ot
ĠGal lego
Ġrequer ir
199 4
Ġmad ura
ĠNe ymar
ĠOb jectius
ĠÃŃn teg
Ġcontempor Ãłnies
ĠPres enta
ĠOn line
Ġfu ga
ĠTur Ã³
Ġhotel era
ĠSor tim
Ġinterp el
Ġenlla Ã§ar
Ġreflec tit
Ġmantin dre
Ġoper adors
ĠEste ban
ĠCÃł mping
Ġentra va
Ġdemostra cions
ĠMet ge
Ġlog o
ĠBern ab
ĠlÃ²g icament
ĠProm oure
Ġsenc ers
ĠMob ile
Ġinterac tius
Ġ36 5
Ġevolu cionat
Ġagrup aciÃ³
ĠBus iness
ĠpolÃ¨m ic
Ġballar ins
Ġhid rÃł
ĠSen egal
ĠLiter ari
Ġopera tius
Ġtrop ical
ĠGol d
ĠGol f
ĠResp onsable
ĠsÃŃn drome
Ġenregist rar
Ġinfin ita
emerg Ã¨ncies
ĠRef lex
ĠencapÃ§al at
ĠanÃ²nim s
import Ãłncia
Ġaplic ades
Ġvalles Ãł
Ġcomplementa ris
Ġvalora cions
Ġeclesi Ãłstica
Ġtaul ell
Ġenginy er
ĠFed eral
ĠFerro carrils
ĠPA U
Ġafric Ãł
Ġexhaus tiva
vit ge
Ġdespres tigi
Ġvideoc lip
amet lla
Ġafron ta
Ġsupermerc ats
acum ulaciÃ³
Ġates es
Ġlab ors
Ġespat lles
Ġut opia
ĠInteg ral
Edit orial
Ġsuscep tibles
Ciu tat
Ġpeb rot
ĠBurg os
Ġbarreg en
ĠSci ence
ĠSall ent
Ġdimi tir
ĠmÃłrtir s
leug er
ĠCollb atÃ³
ĠEsdeven iments
ĠMong Ã²lia
afavor ir
A igÃ¼es
C asa
H ebron
L lu
M AN
R EN
R AM
T reball
V am
b ur
b utxaques
d ents
i an
m ala
n abis
u de
v aran
y r
Ġ ×
Ġ eres
Ġ áĥ
es panyola
er an
Ġc ota
Ġi con
Ġs ents
an ual
Ġf alles
os u
ol ir
Ã¨ lica
ĠC OR
Ġre cau
as tres
Ġb in
Ġin grÃ©s
ĠS un
ĠS ou
ĠS opar
ir Ã³
ca va
Ġpro gressiÃ³
Ġe g
Ġdi reu
Ġdi etes
Ġdes acord
Ġdes enf
Ġ( *
ĠT rof
[...]
