{"<s>":0,"<pad>":1,"</s>":2,"<unk>":3,"<mask>":4,"!":5,"\"":6,"#":7,"$":8,"%":9,"&":10,"'":11,"(":12,")":13,"*":14,"+":15,",":16,"-":17,".":18,"/":19,"0":20,"1":21,"2":22,"3":23,"4":24,"5":25,"6":26,"7":27,"8":28,"9":29,":":30,";":31,"<":32,"=":33,">":34,"?":35,"@":36,"A":37,"B":38,"C":39,"D":40,"E":41,"F":42,"G":43,"H":44,"I":45,"J":46,"K":47,"L":48,"M":49,"N":50,"O":51,"P":52,"Q":53,"R":54,"S":55,"T":56,"U":57,"V":58,"W":59,"X":60,"Y":61,"Z":62,"[":63,"\\":64,"]":65,"^":66,"_":67,"`":68,"a":69,"b":70,"c":71,"d":72,"e":73,"f":74,"g":75,"h":76,"i":77,"j":78,"k":79,"l":80,"m":81,"n":82,"o":83,"p":84,"q":85,"r":86,"s":87,"t":88,"u":89,"v":90,"w":91,"x":92,"y":93,"z":94,"{":95,"|":96,"}":97,"~":98,"¡":99,"¢":100,"£":101,"¤":102,"¥":103,"¦":104,"§":105,"¨":106,"©":107,"ª":108,"«":109,"¬":110,"®":111,"¯":112,"°":113,"±":114,"²":115,"³":116,"´":117,"µ":118,"¶":119,"·":120,"¸":121,"¹":122,"º":123,"»":124,"¼":125,"½":126,"¾":127,"¿":128,"À":129,"Á":130,"Â":131,"Ã":132,"Ä":133,"Å":134,"Æ":135,"Ç":136,"È":137,"É":138,"Ê":139,"Ë":140,"Ì":141,"Í":142,"Î":143,"Ï":144,"Ð":145,"Ñ":146,"Ò":147,"Ó":148,"Ô":149,"Õ":150,"Ö":151,"×":152,"Ø":153,"Ù":154,"Ú":155,"Û":156,"Ü":157,"Ý":158,"Þ":159,"ß":160,"à":161,"á":162,"â":163,"ã":164,"ä":165,"å":166,"æ":167,"ç":168,"è":169,"é":170,"ê":171,"ë":172,"ì":173,"í":174,"î":175,"ï":176,"ð":177,"ñ":178,"ò":179,"ó":180,"ô":181,"õ":182,"ö":183,"÷":184,"ø":185,"ù":186,"ú":187,"û":188,"ü":189,"ý":190,"þ":191,"ÿ":192,"Ā":193,"ā":194,"Ă":195,"ă":196,"Ą":197,"ą":198,"Ć":199,"ć":200,"Ĉ":201,"ĉ":202,"Ċ":203,"ċ":204,"Č":205,"č":206,"Ď":207,"ď":208,"Đ":209,"đ":210,"Ē":211,"ē":212,"Ĕ":213,"ĕ":214,"Ė":215,"ė":216,"Ę":217,"ę":218,"Ě":219,"ě":220,"Ĝ":221,"ĝ":222,"Ğ":223,"ğ":224,"Ġ":225,"ġ":226,"Ģ":227,"ģ":228,"Ĥ":229,"ĥ":230,"Ħ":231,"ħ":232,"Ĩ":233,"ĩ":234,"Ī":235,"ī":236,"Ĭ":237,"ĭ":238,"Į":239,"į":240,"İ":241,"ı":242,"Ĳ":243,"ĳ":244,"Ĵ":245,"ĵ":246,"Ķ":247,"ķ":248,"ĸ":249,"Ĺ":250,"ĺ":251,"Ļ":252,"ļ":253,"Ľ":254,"ľ":255,"Ŀ":256,"ŀ":257,"Ł":258,"ł":259,"Ń":260,"Ġd":261,"es":262,"en":263,"Ġde":264,"Ġa":265,"er":266,"Ġl":267,"Ġp":268,"ta":269,"Ġc":270,"ar":271,"qu":272,"el":273,"Ġi":274,"ci":275,"Ġs":276,"an":277,"on":278,"re":279,"or":280,"Ġla":281,"Ġm":282,"al":283,"un":284,"Ġqu":285,"Ġel":286,"ti":287,"âĢ":288,"Ġque":289,"Ã³":290,"ent":291,"Ġt":292,"at":293,"Ġf":294,"âĢĻ":295,"Ã©":296,"Ġv":297,"Ġper":298,"os":299,"om":300,"in":301,"ol":302,"Ġen":303,"Ġn":304,"ra":305,"Ġun":306,"ri":307,"Ãł":308,"Ġdel":309,"ciÃ³":310,"em":311,"is":312,"Ġes":313,"Ġh":314,"Ã©s":315,"res":316,"ic":317,"tat":318,"mb":319,"da":320,"ro":321,"Ġal":322,"Ã¨":323,"ĠC":324,"ÃŃ":325,"it":326,"Ġles":327,"Ġse":328,"gu":329,"ia":330,"ĠE":331,"ons":332,"ix":333,"Ġcom":334,"Ġre":335,"la":336,"Ġamb":337,"Ã²":338,"ĠP":339,"Ġels":340,"ec":341,"ment":342,"ot":343,"as":344,"ques":345,"ĠA":346,"Ġb":347,"us":348,"Ġno":349,"Ġin":350,"Ġg":351,"ant":352,"ĠL":353,"le":354,"Ġcon":355,"Ġo":356,"va":357,"ĠS":358,"ir":359,"ca":360,"ĠM":361,"Ġpro":362,"Ġuna":363,"Ġe":364,"li":365,"aciÃ³":366,"Ġha":367,"ur":368,"Ġca":369,"Ġdi":370,"tal":371,"si":372,"ĠÃ©s":373,"ts":374,"ul":375,"tes":376,"Ġdes":377,"Ġva":378,"tu":379,"oc":380,"di":381,"Ġpar":382,"ĠD":383,"ad":384,"ob":385,"ĠmÃ©s":386,"era":387,"Ġ(":388,"Ġj":389,"te":390,"ĠT":391,"cia":392,"tar":393,"ĠB":394,"tan":395,"Ġdels":396,"il":397,"Ã§":398,"Ġ2":399,"ĠEl":400,"Ġ1":401,"als":402,"mp":403,"Ġan":404,"eix":405,"Ãº":406,"itat":407,"ica":408,"Ã¨n":409,"ter":410,"ona":411,"ran":412,"od":413,"ell":414,"Ġaques":415,"..":416,"ĠR":417,"et":418,"Ġser":419,"cions":420,"up":421,"orm":422,"ver":423,"Ġtot":424,"ĠF":425,"ost":426,"eu":427,"Ġac":428,"emp":429,"itz":430,"ĠG":431,"ada":432,"any":433,"ig":434,"ens":435,"id":436,"Ġex":437,"ac":438,"bl":439,"eg":440,"um":441,"tin":442,"ĠV":443,"ĠI":444,"ria":445,"Ġcomp":446,"ut":447,"Ġres":448,"ĠJ":449,"ist":450,"ĠLa":451,"im":452,"Ġll":453,"ors":454,"ats":455,"Ġmol":456,"Ã¨ncia":457,"Ġrec":458,"ĠâĢ":459,"ab":460,"Â·":461,"Ġ20":462,"ĠN":463,"ass":464,"fer":465,"Ġr":466,"Ġfa":467,"du":468,"tic":469,"ins":470,"all":471,"ici":472,"ents":473,"Ġcons":474,"Ġesp":475,"Ã³n":476,"vi":477,"Ġta":478,"ĠU":479,"ves":480,"entre":481,"Ġsi":482,"Ġfer":483,"rim":484,"bre":485,"Ġpod":486,"tr":487,"Ġpre":488,"Ġpres":489,"ana":490,"Ġseu":491,"rÃł":492,"Ġar":493,"ĠCa":494,"ss":495,"Ġcap":496,"ans":497,"Ġtra":498,"oci":499,"ĠEn":500,"Ġvi":501,"ades":502,"ge":503,"obre":504,"Ġhi":505,"tant":506,"ari":507,"de":508,"op":509,"Ġens":510,"Ġten":511,"mbÃ©":512,"tra":513,"ys":514,"des":515,"Ġpers":516,"cion":517,"ĠperÃ²":518,"av":519,"ÃŃs":520,"Ġparti":521,"ora":522,"Ġseva":523,"Ġpos":524,"ĠPer":525,"me":526,"arc":527,"Ġmat":528,"ĠEs":529,"Ġals":530,"Ġmolt":531,"Ġ201":532,"ill":533,"og":534,"Ġob":535,"ma":536,"âĢĿ":537,"na":538,"Ġap":539,"tres":540,"ĠâĢľ":541,"Ġpel":542,"Ġsobre":543,"ed":544,"tica":545,"Ġaquest":546,"ren":547,"ess":548,"ort":549,"tor":550,"Ġnost":551,"per":552,"Ġcas":553,"Ġdis":554,"tiu":555,"Ġvol":556,"ili":557,"...":558,"tats":559,"ina":560,"eb":561,"Ġpa":562,"Ġcar":563,"jec":564,"car":565,"pos":566,"ha":567,"Ġimp":568,"ya":569,"Ã§a":570,"Ġprim":571,"ord":572,"Ġma":573,"tament":574,"una":575,"ĠH":576,"Ġja":577,"ers":578,"Ġaix":579,"ven":580,"iu":581,"ones":582,"Ġpass":583,"form":584,"les":585,"egu":586,"ĠtambÃ©":587,"enta":588,"ex":589,"Ã¯":590,"Ġpr":591,"ub":592,"Ġter":593,"ga":594,"cip":595,"Ġform":596,"reb":597,"00":598,"alitz":599,"alitat":600,"rib":601,"tÃł":602,"rec":603,"ep":604,"gra":605,"Ġhan":606,"iÃ³":607,"Ġman":608,"lar":609,"rob":610,"Ġvan":611,"siÃ³":612,"cies":613,"Ġentre":614,"Ġseg":615,"Ġpu":616,"tiva":617,"ĠCatal":618,"ĠsÃ³n":619,"vol":620,"orn":621,"Ġcol":622,"Ġnom":623,"Ġesc":624,"Ġaquesta":625,"Ġpot":626,"fic":627,"ble":628,"ve":629,"Ġcos":630,"dre":631,"qui":632,"Ġinter":633,"Ġanys":634,"Ġon":635,"quÃ¨":636,"ten":637,"ener":638,"ista":639,"ris":640,"se":641,"au":642,"Ġmar":643,"ita":644,"ĠUn":645,"Ġcre":646,"Ġ\"":647,"urs":648,"aques":649,"Ġpl":650,"Ġfins":651,"Ġtreb":652,"Ġcan":653,"tiv":654,"Ġtemp":655,"Ġgran":656,"ĠEls":657,"pa":658,"pr":659,"Ã¨s":660,"ies":661,"Ġrep":662,"blic":663,"ure":664,"Ġpol":665,"enti":666,"Ġ3":667,"ĠperquÃ¨":668,"leg":669,"Ġtrob":670,"Ãºs":671,"Ġsegu":672,"tre":673,"ap":674,"Ġdia":675,"am":676,"Ġmateix":677,"ota":678,").":679,"ura":680,"ĠCom":681,"Ġsoci":682,"til":683,"unya":684,"Ġlli":685,"uc":686,"Ġsol":687,"gun":688,"alment":689,"ĠO":690,"Ġdon":691,"Ġass":692,"arcel":693,"Ġfin":694,"Ãłn":695,"Ġsens":696,"ament":697,"int":698,"ĠCatalunya":699,"ants":700,"Es":701,"gut":702,"hi":703,"Ġem":704,"tura":705,"Ġ19":706,"ĠAl":707,"ges":708,"Ġsup":709,"Ġtots":710,"ĠNo":711,"min":712,"prÃ©s":713,"Ġgu":714,"rat":715,"rer":716,"Ġquan":717,"essi":718,"Ġho":719,"Ġcor":720,"arÃł":721,"lic":722,"ĠMar":723,"Ġ-":724,"ĠIn":725,"ĠAques":726,"Ã¼":727,"Ġins":728,"Ġcatal":729,"Ġpor":730,"),":731,"Ġmill":732,"esc":733,"Ġfet":734,"urant":735,"Ġrel":736,"titu":737,"ug":738,"Ġor":739,"arcelona":740,"Ġtreball":741,"tir":742,"Ġni":743,"Ġpart":744,"Ã²ria":745,"atge":746,"Ġab":747,"duc":748,"Ġciu":749,"ĠÃ":750,"Ġset":751,"ÃŃn":752,"gui":753,"Ġmes":754,"Ġvis":755,"ai":756,"lo":757,"ui":758,"embre":759,"Ġmen":760,"vers":761,"Ġdifer":762,"ola":763,"vis":764,"Ġsense":765,"fici":766,"unt":767,"rup":768,"ĠestÃł":769,"Ġlloc":770,"Ġdem":771,"gan":772,"itj":773,"Ġseus":774,"Ġcal":775,"Ġveu":776,"ĠBarcelona":777,"pi":778,"ĠaixÃ²":779,"tivitat":780,"Ġestat":781,"ema":782,"ics":783,"Ġpersones":784,"Ġconc":785,"via":786,"esti":787,"Ġtan":788,"end":789,"vern":790,"ĠQ":791,"itu":792,"ĠtÃ©":793,"Ġexp":794,"ls":795,"Ãłria":796,"cional":797,"ĠquÃ¨":798,"Ġx":799,"Ġent":800,"ĠpolÃŃ":801,"Ġad":802,"Ġprojec":803,"ments":804,"tit":805,"Ġdos":806,"Ġpob":807,"dor":808,"Ġcontin":809,"Ġaltres":810,"rar":811,"ing":812,"Ġcontra":813,"Ġcada":814,"Ġtin":815,"ella":816,"ĠSant":817,"Ġinform":818,"Ġfe":819,"Ġli":820,"ĠX":821,"Ġesta":822,"ena":823,"eny":824,"Ġco":825,"Ġarrib":826,"Ġinc":827,"Ġmo":828,"Ġme":829,"par":830,"its":831,"gi":832,"Ġus":833,"Ġcamp":834,"Ã²n":835,"Ġparticip":836,"Ġgener":837,"Ġsor":838,"rem":839,"Ġmun":840,"Ġav":841,"Ġresp":842,"overn":843,"cara":844,"enci":845,"ert":846,"tim":847,"ĠQu":848,"Ġtran":849,"Ġaf":850,"ric":851,"ĠdesprÃ©s":852,"Ġemp":853,"Ġmanera":854,"Ġnec":855,"quip":856,"Ġ4":857,"Ġprof":858,"ular":859,"Ġprimer":860,"Ġtemps":861,"tius":862,"Ġdeix":863,"que":864,"ret":865,"taciÃ³":866,"ud":867,"pany":868,"Ġdesc":869,"ĠpÃº":870,"ĠnomÃ©s":871,"Ġtal":872,"Ġaqu":873,"Ġhem":874,"ement":875,"Ã¨ncies":876,"aix":877,"erra":878,"Ġpe":879,"Ġmillor":880,"ĠLes":881,"Ġve":882,"Ġara":883,"ior":884,"met":885,"acions":886,"ilitat":887,"Ãłs":888,"Ġval":889,"Ġw":890,"Ġtant":891,"anes":892,"cab":893,"ĠDes":894,"ĠJo":895,"ĠCon":896,"Ġpo":897,"altres":898,"Ġcul":899,"ula":900,"Ġqual":901,"Ġmal":902,"ganitz":903,"iciÃ³":904,"bles":905,"Ġpla":906,"Ġquals":907,"Ġcomen":908,"Ġveg":909,"Ġdurant":910,"âĢ¦":911,"Ġjo":912,"Ġver":913,"ador":914,"reu":915,"oni":916,"Ġserve":917,"Ġalgun":918,"tiques":919,"Ġsal":920,"Ġcomun":921,"ja":922,"ag":923,"īs":924,"Ġmitj":925,"Ġoc":926,"Ġperson":927,"jun":928,"tics":929,"osa":930,"Ġben":931,"Ġencara":932,"Ġtrac":933,"ĠbÃ©":934,"aran":935,"men":936,"Ġdu":937,"Ġdirec":938,"atre":939,"ĠSi":940,"Ġdir":941,"uro":942,"Ġhist":943,"eci":944,"ries":945,"tac":946,"Ġra":947,"ard":948,"mÃŃ":949,"ĠAn":950,"aris":951,"Ġ5":952,"ĠÂ":953,"ells":954,"Ġfor":955,"dic":956,"ho":957,"versi":958,"Ġproc":959,"empre":960,"ĠaixÃŃ":961,"fi":962,"Ġera":963,"Ġveure":964,"cid":965,"isme":966,"Ġdef":967,"Ġte":968,"Ġvida":969,"Ġtrans":970,"nes":971,"Ġmom":972,"ĠÃīs":973,"Ġactu":974,"Ġnostra":975,"Ġsin":976,"ib":977,"Ġtres":978,"oca":979,"Ġsitu":980,"ns":981,"Ġpublic":982,"Ġgrup":983,"Ã²m":984,"Ġdiferents":985,"Ġreg":986,"fica":987,"esta":988,"Ġqui":989,"sa":990,"bor":991,"ien":992,"eixen":993,"Ġcel":994,"xa":995,"Ġpoder":996,"ll":997,"Ġseves":998,"han":999,"ĠmÃ³n":1000,"ural":1001,"anc":1002,"Ġnostre":1003,"olog":1004,"oria":1005,"Ġaut":1006,"inc":1007,"emb":1008,"oll":1009,"ont":1010,"Ġcurs":1011,"Ġnou":1012,"Ġfun":1013,"eta":1014,"gua":1015,"duca":1016,"istes":1017,"ores":1018,"Ġsec":1019,"incip":1020,"Ġsab":1021,"Ġsempre":1022,"Ġprimera":1023,"Ġpassat":1024,"Ġam":1025,"lia":1026,"Ġtenir":1027,"Ġim":1028,"juntament":1029,"ĠPar":1030,"Ġnostres":1031,"Ġpossi":1032,"ĠCons":1033,"Ġprogra":1034,"ou":1035,"ars":1036,"Ġproduc":1037,"âĢĿ.":1038,"ines":1039,"Ġsetm":1040,"por":1041,"Ġrealitz":1042,"Ġuns":1043,"Ġ200":1044,"Ġweb":1045,"tad":1046,"Ġforma":1047,"ni":1048,"ols":1049,"ru":1050,"Ã¨c":1051,"Ġgovern":1052,"tis":1053,"Ġpens":1054,"Ġju":1055,"Ġacab":1056,"ĠÃº":1057,"fec":1058,"Ġespeci":1059,"Ġ6":1060,"ixer":1061,"envol":1062,"Ġsub":1063,"atges":1064,"Ġdies":1065,"Ġtotes":1066,"Ġet":1067,"tilitz":1068,"ĠCar":1069,"Ġmaj":1070,"esa":1071,"20":1072,"ida":1073,"ĠmÃł":1074,"etat":1075,"jar":1076,"vid":1077,"El":1078,"ser":1079,"Ġprincip":1080,"Ġprojecte":1081,"emes":1082,"Ġcanvi":1083,"ĠCas":1084,"Ġciutat":1085,"Ġri":1086,"Ġlle":1087,"truc":1088,"Ġpas":1089,"Ġcla":1090,"raciÃ³":1091,"Ġcent":1092,"ĠRe":1093,"ne":1094,"ĠDi":1095,"erc":1096,"Ġec":1097,"Ġsenti":1098,"Ġfot":1099,"Ġcontinu":1100,"enc":1101,"Ġtorn":1102,"Ġbar":1103,"avant":1104,"esp":1105,"entaciÃ³":1106,"ira":1107,"Ġactivitat":1108,"envolup":1109,"tives":1110,"Ġhavia":1111,"Ġmod":1112,"tell":1113,"Ġinf":1114,"adors":1115,"tants":1116,"Ġofer":1117,"aquest":1118,"anda":1119,"mes":1120,"lec":1121,"anÃ§":1122,"onsegu":1123,"Ġest":1124,"Ġdoc":1125,"Ġelec":1126,"eri":1127,"ĠDe":1128,"ĠLl":1129,"Ġceleb":1130,"Ġmin":1131,"ust":1132,"evol":1133,"ĠTa":1134,"Ġorganitz":1135,"anta":1136,"Ġbas":1137,"Ġti":1138,"utilitz":1139,"and":1140,"resa":1141,"Ġcasa":1142,"Ġdonar":1143,"¿½":1144,"Ãłr":1145,"ï¿½":1146,"Ġop":1147,"Ġdivers":1148,"Ġnov":1149,"guin":1150,"uny":1151,"Ġimpor":1152,"Ġmoment":1153,"Ġint":1154,"Ġany":1155,"icip":1156,"Ġpoden":1157,"Ġtota":1158,"Ġtar":1159,"ĠTot":1160,"rip":1161,"Ġapro":1162,"ori":1163,"lla":1164,"diciÃ³":1165,"Ġpels":1166,"ĠAquest":1167,"xim":1168,"he":1169,"Ġcer":1170,"Ġgent":1171,"tudi":1172,"uciÃ³":1173,"sos":1174,"Ġtenen":1175,"ĠâĢĵ":1176,"lica":1177,"alla":1178,"Ã¡":1179,"laciÃ³":1180,"ĠinformaciÃ³":1181,"onÃ²m":1182,"ĠAmb":1183,"dia":1184,"aquesta":1185,"gl":1186,"Ġ9":1187,"Ġdiss":1188,"Ã²g":1189,"ĠĠ":1190,"iversi":1191,"ĠAix":1192,"Ġpropos":1193,"Ġrepres":1194,"ĠpÃºblic":1195,"Ã³s":1196,"Ġpun":1197,"Ġdavant":1198,"Ġrecup":1199,"Ġdades":1200,"ĠPro":1201,"blica":1202,"Ġref":1203,"pe":1204,"Ġresul":1205,"Ġz":1206,"Ġespany":1207,"Ġdesenvolup":1208,"Ġpoc":1209,"Ġbl":1210,"Ġdues":1211,"cep":1212,"ull":1213,"teix":1214,"Ġloc":1215,"entar":1216,"ĠcatalÃł":1217,"ĠAr":1218,"ĠVal":1219,"Ġ10":1220,"ient":1221,"Ġaconsegu":1222,"igu":1223,"reg":1224,"ĠUna":1225,"Ġvaig":1226,"ologia":1227,"vell":1228,"citat":1229,"dar":1230,"Ġsocial":1231,"qÃ¼":1232,"eres":1233,"los":1234,"mar":1235,"Ġcop":1236,"ĠGener":1237,"if":1238,"Ġsigui":1239,"ĠK":1240,"Ġllar":1241,"lus":1242,"Ġcri":1243,"Ġ8":1244,"Ġto":1245,"Ġsetmana":1246,"Ġdar":1247,"rada":1248,"rÃŃ":1249,"var":1250,"Ġaquests":1251,"âĢĿ,":1252,"Ġmolts":1253,"umen":1254,"Ġcosa":1255,"Ġequip":1256,"Ġhab":1257,"vÃ©s":1258,"Ġresta":1259,"osaltres":1260,"ĠW":1261,"Â»":1262,"Ġ7":1263,"ĠPerÃ²":1264,"ĠMa":1265,"Ġnova":1266,"Ġpresid":1267,"ĠVi":1268,"Ġqualsevol":1269,"ava":1270,"minist":1271,"Ġtrobar":1272,"Ġabans":1273,"ession":1274,"La":1275,"Ã§ar":1276,"Ġanar":1277,"Ġcont":1278,"ĠsinÃ³":1279,"uÃ¯":1280,"pend":1281,"Ġhe":1282,"Ġven":1283,"ron":1284,"Ġall":1285,"Ġpermet":1286,"Ġdins":1287,"terior":1288,"Ġneg":1289,"Ġbon":1290,"ĠtravÃ©s":1291,"Ġfinal":1292,"ĠÃł":1293,"eria":1294,"Ġpartit":1295,"Ġpoble":1296,"nos":1297,"Ġ18":1298,"els":1299,"Ġmost":1300,"peri":1301,"ĠTambÃ©":1302,"dors":1303,"atura":1304,"rica":1305,"of":1306,"Ġllen":1307,"Ġpartir":1308,"sc":1309,"Ġconf":1310,"Ġutilitz":1311,"ĠJoan":1312,"hom":1313,"Ġnecessi":1314,"Ġsuper":1315,"est":1316,"ĠSal":1317,"Ġvegada":1318,"ules":1319,"Ġag":1320,"Ġhum":1321,"Ġpunt":1322,"Ã²p":1323,"Ã¨ixer":1324,"cs":1325,"Ġrefer":1326,"Ġreb":1327,"Ġguany":1328,"Ġaj":1329,"ĠAquesta":1330,"Ġdec":1331,"Ġdiu":1332,"elles":1333,"anÃ§a":1334,"Ġbaix":1335,"cil":1336,"raf":1337,"ĠfamÃŃ":1338,"Ġestan":1339,"iter":1340,"estiÃ³":1341,"Ġsist":1342,"Ġjug":1343,"Ġlleg":1344,"ES":1345,"rom":1346,"able":1347,"ĠserÃł":1348,"ĠJa":1349,"201":1350,"ĠÂ«":1351,"edi":1352,"iv":1353,"lex":1354,"Ġfut":1355,"iss":1356,"pu":1357,"Ġnecess":1358,"ber":1359,"Ġ[":1360,"Ġpeti":1361,"tori":1362,"Ġprop":1363,"ros":1364,"Ġdispos":1365,"Ġ15":1366,"Ġdisc":1367,"tors":1368,"Ġcu":1369,"ĠhistÃ²ria":1370,"tubre":1371,"Ã²s":1372,"Ġprem":1373,"Ġconeix":1374,"Ġclar":1375,"Ġserveis":1376,"Ġserv":1377,"Ġvam":1378,"Ġescol":1379,"Ġmant":1380,"erci":1381,"Ġgra":1382,"Ġprobl":1383,"Ġsig":1384,"dat":1385,"rets":1386,"Ġmenys":1387,"ĠCal":1388,"no":1389,"aut":1390,"Ġhom":1391,"voc":1392,"panya":1393,"ranc":1394,"Ġinteress":1395,"ĠpolÃŃtica":1396,"ecciÃ³":1397,"reta":1398,"ĠJos":1399,"Ġprom":1400,"pus":1401,"Ġarribar":1402,"labor":1403,"jectiu":1404,"ĠSer":1405,"ions":1406,"Ġcl":1407,"Ġporta":1408,"Ġciutad":1409,"Ġcompar":1410,"Ġgrans":1411,"Ġprofession":1412,"Ġfan":1413,"ĠGu":1414,"olÃ²g":1415,"arra":1416,"tals":1417,"Ġpat":1418,"Ġ2018":1419,"Ajuntament":1420,"ril":1421,"umnes":1422,"ral":1423,"ĠpaÃŃs":1424,"depend":1425,"Ġconsid":1426,"Ġavui":1427,"Ġro":1428,"cal":1429,"Ġrela":1430,"Al":1431,"Ġactivitats":1432,"000":1433,"Ġexemp":1434,"Ġide":1435,"Ġposar":1436,"uts":1437,"Ġmunicip":1438,"Ġbona":1439,"Ġapar":1440,"eren":1441,"Ġalg":1442,"ducaciÃ³":1443,"dis":1444,"bilitat":1445,"Ġdin":1446,"aud":1447,"ern":1448,"Ġunes":1449,"ĠLle":1450,"Ġhores":1451,"ures":1452,"sions":1453,"Ġcat":1454,"Ġsegons":1455,"ograf":1456,"art":1457,"ĠmÃºs":1458,"Ġfaci":1459,"Ġescri":1460,"Ġservei":1461,"quen":1462,"icia":1463,"nica":1464,"vaciÃ³":1465,"Ġbanda":1466,"Ġcoses":1467,"Ġrespec":1468,"\".":1469,"Ġquatre":1470,"Ãłncia":1471,"ual":1472,"ĠtÃ¨c":1473,"iversitat":1474,"ion":1475,"gn":1476,"gon":1477,"ltim":1478,"Ġimportant":1479,"Ġjorn":1480,"Ġcentre":1481,"Ġcontr":1482,"gar":1483,"gat":1484,"Ġaltra":1485,"Ãłg":1486,"ficaciÃ³":1487,"Ġaltre":1488,"Ġalguns":1489,"uda":1490,"ĠeconÃ²m":1491,"assa":1492,"gin":1493,"com":1494,"ero":1495,"Ġrespons":1496,"Ġpropi":1497,"Ġmoltes":1498,"Ġtempor":1499,"Ġllibre":1500,"icaciÃ³":1501,"Ġtipus":1502,"Ġexc":1503,"vat":1504,"Ġpunts":1505,"Ġas":1506,"ĠCan":1507,"itats":1508,"Ġrecon":1509,"anya":1510,"equip":1511,"emÃł":1512,"Ġmus":1513,"Ġprograma":1514,"Ġdeman":1515,"aqu":1516,"Ġdesp":1517,"Ġagra":1518,"Ġrecord":1519,"ĠMon":1520,"Ġempres":1521,"ÃŃc":1522,"Â´":1523,"ĠgrÃł":1524,"rÃłc":1525,"Ġterc":1526,"Ġ12":1527,"Ġespec":1528,"Ġtracta":1529,"Ġ|":1530,"dica":1531,"imp":1532,"Ġcapa":1533,"eraciÃ³":1534,"Ġmet":1535,"inter":1536,"Ġpassar":1537,"ĠMun":1538,"Ġdif":1539,"af":1540,"Ġdefens":1541,"jo":1542,"tot":1543,"ordin":1544,"19":1545,"actu":1546,"entat":1547,"Ġestar":1548,"embla":1549,"erca":1550,"Ġaquestes":1551,"ĠCol":1552,"nic":1553,"Ġnorm":1554,"Ġsom":1555,"pec":1556,"Ġmai":1557,"Ġnosaltres":1558,"ale":1559,"Ġfil":1560,"ritori":1561,"Ġproper":1562,"iment":1563,"Ġqualitat":1564,"rendre":1565,"Ġmili":1566,"onom":1567,"Ġpresident":1568,"rig":1569,"ĠPla":1570,"Ġconver":1571,"Ġalumnes":1572,"gues":1573,"Ġvost":1574,"ĠPa":1575,"Ġpri":1576,"ok":1577,"\",":1578,"tur":1579,"rir":1580,"Ġmor":1581,"ociaciÃ³":1582,"ĠEuro":1583,"unci":1584,"arem":1585,"Ġnovembre":1586,"ĠpublicaciÃ³":1587,"Ġpen":1588,"bres":1589,"ĠprÃłc":1590,"Ãłries":1591,"Ġmateixa":1592,"Ġna":1593,"ov":1594,"Ġmon":1595,"omp":1596,"orre":1597,"tia":1598,"Ġ'":1599,"ciona":1600,"ĠMan":1601,"Ġlla":1602,"hora":1603,"Ġmarc":1604,"Ġtel":1605,"teg":1606,"Ġhaver":1607,"ER":1608,"Ġobli":1609,"aven":1610,"Ġsistema":1611,"ÃŃcia":1612,"vin":1613,"!!":1614,"Ġsuport":1615,"Ġvisi":1616,"ĠUniversitat":1617,"ÃŃt":1618,"ordi":1619,"Ġtenim":1620,"II":1621,"ĠprocÃ©s":1622,"Ġtri":1623,"Ġinici":1624,"Ġpodem":1625,"Ġcli":1626,"Ar":1627,"Ġleg":1628,"Ġbus":1629,"Ġjoc":1630,"Ġgeneral":1631,"Ġbo":1632,"Ġterme":1633,"rac":1634,"cat":1635,"Ġgaud":1636,"ĠSeg":1637,"En":1638,"Ġdona":1639,"Ġcarrer":1640,"ĠsÃŃ":1641,"asc":1642,"let":1643,"Ġacc":1644,"Ġpartits":1645,"vor":1646,"Ġfent":1647,"Ġren":1648,"vesti":1649,"unda":1650,"Ġespanyol":1651,"Ġfam":1652,"Ġ14":1653,"Ġil":1654,"Ġestudi":1655,"Ġexplic":1656,"Ġsetembre":1657,"octubre":1658,"rera":1659,"Ġllarg":1660,"Ġmaig":1661,"Ġmanten":1662,"vant":1663,"Ġpossible":1664,"Ġsocietat":1665,"ĠPu":1666,"dres":1667,"Ġnat":1668,"Ġ17":1669,"Ġtotal":1670,"ine":1671,"Ġdecid":1672,"essiÃ³":1673,"mat":1674,"drÃł":1675,"acte":1676,"aria":1677,"omen":1678,"ĠâĢĺ":1679,"eca":1680,"Ġtu":1681,"Ġsegona":1682,"Ġzona":1683,"Ġpersona":1684,"ĠsituaciÃ³":1685,"Ġmig":1686,"lament":1687,"Ġ13":1688,"Ġxar":1689,"ĠConsell":1690,"Ġ2017":1691,"ĠGeneralitat":1692,"ĠBar":1693,"ÃŃstica":1694,"ĠpÃłg":1695,"lu":1696,"Ġpersonal":1697,"tural":1698,"Ġsegle":1699,"Ġsen":1700,"erm":1701,"periÃ¨ncia":1702,"ĠAc":1703,"tada":1704,"dicions":1705,"ĠRec":1706,"Ġgai":1707,"ĠAixÃŃ":1708,"Ã§os":1709,"ress":1710,"Ġcompany":1711,"Ġtreballa":1712,"ĠmÃºsica":1713,"liol":1714,"posiciÃ³":1715,"ursos":1716,"oma":1717,"ĠcomenÃ§ar":1718,"Ġfill":1719,"ĠconÃ¨ixer":1720,"terna":1721,"ĠPal":1722,"ides":1723,"Ġinterna":1724,"Ġmeu":1725,"cionals":1726,"Ġdefin":1727,"Ã©u":1728,"Ġvalor":1729,"bol":1730,"Ġfem":1731,"teri":1732,"ĠcÃłr":1733,"ĠHi":1734,"irÃł":1735,"Ġprepar":1736,"Ġcastell":1737,"urÃł":1738,"ulta":1739,"tru":1740,"itzaciÃ³":1741,"In":1742,"Ġfeina":1743,"An":1744,"Ġdret":1745,"ode":1746,"issiÃ³":1747,"Ġnivell":1748,"opular":1749,"Ġsent":1750,"Ġdeixar":1751,"Ġacom":1752,"retat":1753,"Ġsentit":1754,"guts":1755,"iques":1756,"ĠAra":1757,"erg":1758,"rers":1759,"ĠlÃŃn":1760,"Ġsembla":1761,"Ġmentre":1762,"Ġfes":1763,"gual":1764,"ĠCamp":1765,"alta":1766,"uns":1767,"ĠfÃł":1768,"IC":1769,"Ġtren":1770,"Ġindepend":1771,"oli":1772,"irc":1773,"und":1774,"Ġsobretot":1775,"Ġcin":1776,"erar":1777,"exp":1778,"ej":1779,"Ġlec":1780,"Ġ/":1781,"Ã¨r":1782,"Ġmesos":1783,"ecn":1784,"ĠVila":1785,"Ġpaper":1786,"ĠformaciÃ³":1787,"ites":1788,"ĠVa":1789,"ĠSoci":1790,"Ġrecupera":1791,"AT":1792,"Ġ16":1793,"Ġfavor":1794,"st":1795,"ces":1796,"Ġprojectes":1797,"onomia":1798,"Ġreun":1799,"ements":1800,"Ġinten":1801,"Ġsocials":1802,"tida":1803,"Ġsegon":1804,"ĠÃ¨":1805,"rea":1806,"ĠDesprÃ©s":1807,"Ġdiversos":1808,"Ġparlar":1809,"Ġexemple":1810,"Ġpregun":1811,"Ġproductes":1812,"Ġell":1813,"val":1814,"Ġcatalana":1815,"Ġtall":1816,"Ġjuliol":1817,"Ġmajor":1818,"Ġaconseguir":1819,"ĠVall":1820,"Ġdom":1821,"Ġesde":1822,"Ġvin":1823,"ĠJordi":1824,"ano":1825,"Ġ2016":1826,"ĠhistÃ²":1827,"ĠJosep":1828,"uta":1829,"xes":1830,"visiÃ³":1831,"Ġdesembre":1832,"Ġjuny":1833,"ĠaquÃŃ":1834,"ibli":1835,"ĠlÃŃ":1836,"Ġsota":1837,"Ġur":1838,"Ġterritori":1839,"Ġmica":1840,"ots":1841,"umenge":1842,"Ġcompte":1843,"Ġpresentar":1844,"ĠfamÃŃlia":1845,"udi":1846,"cis":1847,"Ġvegades":1848,"ultura":1849,"enes":1850,"uls":1851,"Ġnoves":1852,"ĠrelaciÃ³":1853,"Ġefec":1854,"Ġestr":1855,"ĠforÃ§a":1856,"Ġtemporada":1857,"ara":1858,"Ġconegu":1859,"ĠcamÃŃ":1860,"Ġmedi":1861,"Ġsa":1862,"Ġdist":1863,"abte":1864,"Ġmateri":1865,"uros":1866,"alitzaciÃ³":1867,"Ġetc":1868,"ĠgestiÃ³":1869,"Ġcaus":1870,"Ġdeb":1871,"glÃ©s":1872,"Ġdiverses":1873,"Ġmajoria":1874,"Ġpresent":1875,"tima":1876,"Ġespai":1877,"anÃ§ant":1878,"Ġ0":1879,"Estat":1880,"ĠAv":1881,"ip":1882,"Ġprofess":1883,"alitzar":1884,"Ġperd":1885,"Ġrealitat":1886,"ĠÃºltim":1887,"Ã¨g":1888,"onar":1889,"ala":1890,"orta":1891,"Ġmi":1892,"Ġ30":1893,"30":1894,"Ġdrets":1895,"Ġdeci":1896,"ĠPol":1897,"ĠGir":1898,"activitat":1899,"Ass":1900,"Ã±":1901,"Ãłc":1902,"Ġseny":1903,"Ġinstitu":1904,"tany":1905,"ĠGovern":1906,"Ġobjec":1907,"Ġ,":1908,"Ġinstal":1909,"junt":1910,"ĠediciÃ³":1911,"Ġvolun":1912,"Ġmassa":1913,"Ġne":1914,"eti":1915,"Ġenc":1916,"ĠgrÃłcies":1917,"Ġdesta":1918,"duir":1919,"Ã²r":1920,"lici":1921,"vien":1922,"for":1923,"ĠVic":1924,"Ġpara":1925,"uen":1926,"Ġenti":1927,"Ġells":1928,"Ġnot":1929,"Ġindi":1930,"ĠmarÃ§":1931,"ata":1932,"ebrer":1933,"escola":1934,"ĠparticipaciÃ³":1935,"Ġcomple":1936,"hir":1937,"Ġsel":1938,"AR":1939,"ivers":1940,"antil":1941,"ĠpolÃŃtics":1942,"Ġcultura":1943,"amb":1944,"ĠprÃ²p":1945,"ĠpoblaciÃ³":1946,"ficar":1947,"ografia":1948,"Ġjornada":1949,"Ġalguna":1950,"ĠcÃłrrec":1951,"Ġsem":1952,"objectiu":1953,"Ġsaber":1954,"Ġnens":1955,"ĠnÃº":1956,"Ġmanif":1957,"Ġdescob":1958,"ba":1959,"ĠplaÃ§a":1960,"AC":1961,"lat":1962,"Ġjoves":1963,"ĠMus":1964,"aigua":1965,"Ġid":1966,"Ġtoc":1967,"adal":1968,"erat":1969,"aren":1970,"Ġ2015":1971,"Ã©n":1972,"uit":1973,"Ġ25":1974,"Ġterra":1975,"duÃ¯":1976,"formaciÃ³":1977,"enya":1978,"ĠTer":1979,"Ġllengua":1980,"rien":1981,"ĠMol":1982,"Ġajud":1983,"ĠCo":1984,"Ġat":1985,"Ġtor":1986,"ĠValÃ¨ncia":1987,"nat":1988,"ds":1989,"Ġcirc":1990,"ministra":1991,"ĠsegÃ¼":1992,"dem":1993,"Ġplant":1994,"Ã¨ri":1995,"Ġvic":1996,"ĠEx":1997,"Ġ11":1998,"Ġtothom":1999,"ogrÃł":2000,"ĠQuan":2001,"ĠmÃłxim":2002,"Ġassegu":2003,"quer":2004,"ĠcomunicaciÃ³":2005,"erta":2006,"Ġpin":2007,"Ãłl":2008,"tures":2009,"ocrÃł":2010,"vista":2011,"tarÃł":2012,"ducciÃ³":2013,"ÃŃem":2014,"trÃ²n":2015,"Ġpresenta":2016,"vestig":2017,"Ġfi":2018,"illa":2019,"Ġseua":2020,"Ġacompany":2021,"Ġdiumenge":2022,"Ġden":2023,"ĠZ":2024,"Ġdirig":2025,"ĠEspanya":2026,"vendres":2027,"forma":2028,"ibliot":2029,"Ġgrups":2030,"Ġgaudir":2031,"acc":2032,"AN":2033,"tudis":2034,"ĠpÃºblica":2035,"vent":2036,"Ġseguir":2037,"Ġfebrer":2038,"Ġfos":2039,"bil":2040,"orca":2041,"Ġofici":2042,"acord":2043,"Ġdissabte":2044,"Ġeduca":2045,"uari":2046,"Ġperm":2047,"Ġespecial":2048,"Ġfutur":2049,"Ġtex":2050,"ĠSanta":2051,"Ġmort":2052,"bli":2053,"Ġdones":2054,"Ġalgunes":2055,"Ġdesenvolupament":2056,"den":2057,"risme":2058,"Ġobres":2059,"Ġcomprom":2060,"cin":2061,"trucciÃ³":2062,"Ġtenia":2063,"ang":2064,"ĠCor":2065,"glÃ©sia":2066,"Ġanim":2067,"Ġdub":2068,"Ġconser":2069,"Ġafec":2070,"ĠrÃł":2071,"Ãłm":2072,"Ġafeg":2073,"Ġmeva":2074,"Ã¨m":2075,"ĠGirona":2076,"Ġrom":2077,"pai":2078,"Ġnous":2079,"Ã¡n":2080,"rid":2081,"laboraciÃ³":2082,"Ġcatalans":2083,"ocup":2084,"endre":2085,"Ġfesta":2086,"uria":2087,"ĠDÃ©u":2088,"Ġempreses":2089,"resp":2090,"vocat":2091,"ĠallÃ²":2092,"ticle":2093,"ania":2094,"Ġlocal":2095,"ressiÃ³":2096,"ĠGran":2097,"rimoni":2098,"ivil":2099,"der":2100,"Ġrecerca":2101,"Ġtreballar":2102,"ĠPS":2103,"Ġfacili":2104,"Ġfou":2105,"Ġdarrer":2106,"ms":2107,"Ġ#":2108,"Ġamp":2109,".[":2110,"ĠmitjanÃ§ant":2111,"Ġpodeu":2112,"Ġdisseny":2113,"ĠCl":2114,"undaciÃ³":2115,"osos":2116,"Ġconjunt":2117,"Ġtas":2118,"ortun":2119,"ch":2120,"ĠĠĠĠ":2121,"osta":2122,"ĠJes":2123,"Ġmerc":2124,"Ġcontac":2125,"ĠMas":2126,"ÃŃtol":2127,"Ġpopular":2128,"isteix":2129,"ze":2130,"Ġvisita":2131,"ĠCentre":2132,"Ġservir":2133,"Ġjun":2134,"agra":2135,"ĠReg":2136,"Ġteu":2137,"obra":2138,"Ġsector":2139,"Ġjust":2140,"Ġk":2141,"ĠfÃłcil":2142,"co":2143,"Ġeren":2144,"guÃ©s":2145,"omb":2146,"ere":2147,"Ġtecn":2148,"venciÃ³":2149,"cola":2150,"mÃł":2151,"Ġfora":2152,"Ã¯sos":2153,"Ġcinc":2154,"mbit":2155,"ĠAixÃ²":2156,"ĠDE":2157,"ĠAvui":2158,"Ġconfi":2159,"Ġfamili":2160,"Ġsum":2161,"ixa":2162,"Ġinicia":2163,"ĠMaria":2164,"estat":2165,"Ġ21":2166,"Ġgen":2167,"Ġ2014":2168,"istÃ¨ncia":2169,"Ġ199":2170,"ĠPod":2171,"ĠmatÃŃ":2172,"Ġnit":2173,"Ġllocs":2174,"arca":2175,"aula":2176,"ĠCastell":2177,"Ġeuro":2178,"titut":2179,"termin":2180,"Ġson":2181,"tagon":2182,"lies":2183,"Ġdeclar":2184,"Ġmodel":2185,"Ġcateg":2186,"Ġparla":2187,"Ġviure":2188,"Ġprofessionals":2189,"Ġinclo":2190,"Ġequips":2191,"ĠFundaciÃ³":2192,"Ġrespecte":2193,"abor":2194,"Ġcostat":2195,"ĠelectrÃ²n":2196,"Ġpassa":2197,"ĠqÃ¼":2198,"Ġcompl":2199,"grat":2200,"ON":2201,"ĠPP":2202,"Ġtornar":2203,"Ġliter":2204,"icle":2205,"Ġespor":2206,"Ġnav":2207,"osten":2208,"estar":2209,"âĢ¦]":2210,"ets":2211,"Ġlabor":2212,"inar":2213,"Ġminuts":2214,"abril":2215,"Ġtema":2216,"ĠNa":2217,"Ġproblemes":2218,"Ġprotagon":2219,"ÃĢ":2220,"ĠveÃ¯":2221,"Ġacabar":2222,"Ġmillorar":2223,"ĠTarra":2224,"oses":2225,"Ġabs":2226,"Ġ[âĢ¦]":2227,"ĠSol":2228,"Ġconsell":2229,"alt":2230,"Ġesti":2231,"ani":2232,"Ġdivendres":2233,"ĠcomenÃ§a":2234,"EN":2235,"tecciÃ³":2236,"Ġtradi":2237,"Ġparticipar":2238,"ĠMi":2239,"ĠJu":2240,"ĠCatalana":2241,"Ġseguretat":2242,"Ġmitjans":2243,"Ġind":2244,"Ġllibres":2245,"ingÃº":2246,"Ġpromo":2247,"aj":2248,"Ġsu":2249,"Ġdedic":2250,"Ġresol":2251,"Ġgol":2252,"Ġprimers":2253,"Ġcur":2254,"ĠMad":2255,"Ġconsum":2256,"Ġresultats":2257,"rÃ©s":2258,"Ġidenti":2259,"Ġresid":2260,"Ġrecursos":2261,"Ġcampanya":2262,"cada":2263,"Ġdestin":2264,"ĠJesÃºs":2265,"gona":2266,"Ġclass":2267,"ÃŃfic":2268,"Ġreflex":2269,"tÃ²ria":2270,"Ġimm":2271,"Ġfons":2272,"Ġmilions":2273,"acter":2274,"Ġnatural":2275,"Ġmolta":2276,"Ġtext":2277,"lida":2278,"ĠDurant":2279,"otel":2280,"Ġ2012":2281,"edir":2282,"ativa":2283,"Ġâ":2284,"Ġperi":2285,"Ġcorresp":2286,"ministraciÃ³":2287,"talla":2288,"Ġigual":2289,"tÃłn":2290,"Ġdeu":2291,"ĠAd":2292,"ĠprÃłctica":2293,"Ġmotiu":2294,"uaris":2295,"Ġpotser":2296,"Ġcontrol":2297,"carreg":2298,"Ġmostra":2299,"Ġrealitzar":2300,"Ġvul":2301,"Ġsimp":2302,"rebÃ©":2303,"Ġdoncs":2304,"Ġdur":2305,"ficat":2306,"organitz":2307,"ĠcreaciÃ³":2308,"altra":2309,"ĠFer":2310,"oss":2311,"lacions":2312,"Ã¨tica":2313,"Ġespa":2314,"ĠpÃłgina":2315,"net":2316,"davant":2317,"Ġrecom":2318,"aquests":2319,"Ġmusic":2320,"Ġrelacion":2321,"ĠSegu":2322,"ÃŃa":2323,"itzar":2324,"Ġrespos":2325,"Ġdocu":2326,"licaciÃ³":2327,"Ġcomenta":2328,"Ġestem":2329,"Ġfre":2330,"ĠlÃŃnia":2331,"ĠRa":2332,"ez":2333,"abilitat":2334,"Ġnaveg":2335,"Ġ...":2336,"Ġmed":2337,"Ġvolem":2338,"Ġdemost":2339,"AL":2340,"Ġautor":2341,"cciÃ³":2342,"acciÃ³":2343,"gaf":2344,"Ġorig":2345,"Ġdit":2346,"Ġconven":2347,"ĠPere":2348,"Ġparaules":2349,"Ġdirector":2350,"crip":2351,"lan":2352,"her":2353,"tiga":2354,"Ġpes":2355,"ĠÃĢ":2356,"Ġ24":2357,"ribu":2358,"Ġsuc":2359,"Ġmot":2360,"Ġurb":2361,"onal":2362,"itÃłria":2363,"Ġsigni":2364,"istre":2365,"Ġpensar":2366,"sim":2367,"Ġ2013":2368,"Ġcrear":2369,"Ġcultural":2370,"Ġespecialment":2371,"vos":2372,"Ġsis":2373,"ĠCiu":2374,"11":2375,"Ġtroba":2376,"ĠMart":2377,"Ġllei":2378,"ÃŃstiques":2379,"Ġdol":2380,"Ġcondicions":2381,"ĠdifÃŃ":2382,"tual":2383,"quÃŃ":2384,"ĠFran":2385,"ĠDep":2386,"Ġcomb":2387,"Ġsols":2388,"ssa":2389,"Ġcaracter":2390,"efici":2391,"Ġple":2392,"xe":2393,"Ġparl":2394,"Ġcob":2395,"Ġsalut":2396,"guany":2397,"Ġexplica":2398,"Ġmovi":2399,"Ġcorrespon":2400,"Ġtingut":2401,"ĠTarragona":2402,"Ġmunicipal":2403,"Ġocup":2404,"Ġposi":2405,"Ġcreix":2406,"ĠnÃºm":2407,"anar":2408,"entment":2409,"ĠHa":2410,"OR":2411,"Ġmillors":2412,"Ġcot":2413,"Ġsap":2414,"Ġllu":2415,"menta":2416,"ĠRo":2417,"ĠOr":2418,"Ġvist":2419,"ĠPrim":2420,"200":2421,"etes":2422,"Ġenll":2423,"Ġesper":2424,"port":2425,"ĠexperiÃ¨ncia":2426,"Ġtur":2427,"Ġcontrac":2428,"ĠServe":2429,"Ġentitats":2430,"adora":2431,"Ġofereix":2432,"tenciÃ³":2433,"Ġtit":2434,"ĠningÃº":2435,"ĠFranc":2436,"Ġtarda":2437,"lles":2438,"ecu":2439,"10":2440,"Ġobra":2441,"gen":2442,"Ġcomerci":2443,"apro":2444,"Ġprincipal":2445,"Ã§at":2446,"ĠgairebÃ©":2447,"Ġresultat":2448,"EC":2449,"ĠEns":2450,"Ġestava":2451,"ela":2452,"Ġmil":2453,"Ġmemb":2454,"ollir":2455,"isi":2456,"Ġfas":2457,"Ġfutbol":2458,"ĠdemocrÃł":2459,"Ġquin":2460,"Ġbase":2461,"ĠperÃŃ":2462,"Ġregu":2463,"Ġgl":2464,"tina":2465,"ospi":2466,"ĠCat":2467,"dio":2468,"Ġproblema":2469,"ovint":2470,"ÃŃnim":2471,"ĠhaurÃł":2472,"ÃŃstic":2473,"ĠLli":2474,"Ġy":2475,"Ġxarxa":2476,"ĠComun":2477,"Ġconstitu":2478,"ital":2479,"Ġtemes":2480,"Ġseria":2481,"Ġdetermin":2482,"Ġespectac":2483,"ĠTor":2484,"viat":2485,"Ġeuros":2486,"Ġlliber":2487,"guda":2488,"Ġprou":2489,"Ġaquells":2490,"ĠpaÃ¯sos":2491,"Ġfac":2492,"pre":2493,"Ġfigu":2494,"Ġbi":2495,"ĠpodrÃł":2496,"Ġimatge":2497,"atÃ¨g":2498,"eli":2499,"ĠpresentaciÃ³":2500,"guer":2501,"ĠTe":2502,"Ġ22":2503,"Ġformat":2504,"Ġgas":2505,"Ġanat":2506,"Ġtras":2507,"Ġconeixement":2508,"Ġmarca":2509,"Ġsortir":2510,"iblioteca":2511,"Ġmembres":2512,"ĠRam":2513,"ĠSan":2514,"Ġconsci":2515,"Ġgaran":2516,"Ġaccep":2517,"Ġart":2518,"Ġ.":2519,"Ġllum":2520,"Ġpodria":2521,"quit":2522,"Ġcentres":2523,"Ġbarri":2524,"xit":2525,"Ġpan":2526,"Ġqueda":2527,"Ġdic":2528,"Ġevi":2529,"empresa":2530,"blement":2531,"Ã³na":2532,"apar":2533,"Ġlliure":2534,"Ãłcter":2535,"vem":2536,"Ġvia":2537,"ĠcarÃłcter":2538,"Euro":2539,"ĠTerra":2540,"Ġpugui":2541,"poca":2542,"veu":2543,"Ġenf":2544,"mpoc":2545,"Ġfranc":2546,"tival":2547,"do":2548,"dit":2549,"ĠmÃŃnim":2550,"Ã¨ria":2551,"Ġincor":2552,"Ġfeia":2553,"Ġpetit":2554,"tenir":2555,"Ġanomen":2556,"vors":2557,"Ã¼es":2558,"voca":2559,"Ġdim":2560,"ĠMadrid":2561,"ĠfamÃŃlies":2562,"Ġbloc":2563,"Ġesdeven":2564,"Ġcara":2565,"ĠAnt":2566,"ĠCi":2567,"ĠSup":2568,"Ġaquell":2569,"cionar":2570,"Ġportar":2571,"Ġmira":2572,"maciÃ³":2573,"eric":2574,"Ġnombre":2575,"Ġeleccions":2576,"Ġespais":2577,"Ġcontinguts":2578,"odi":2579,"Ġocas":2580,"Ġedi":2581,"renys":2582,"Ġcr":2583,"Ġvalenci":2584,"iments":2585,"ĠdÃ³na":2586,"Ãłleg":2587,"ances":2588,"Ins":2589,"Ġvig":2590,"Ġtractament":2591,"iem":2592,"Ġquedar":2593,"ĠPau":2594,"Ġviol":2595,"ĠY":2596,"Ġvo":2597,"guem":2598,"ilitats":2599,"Ġcert":2600,"hab":2601,"Ġmob":2602,"ÃŃde":2603,"....":2604,"Ġviatge":2605,"ĠfarÃł":2606,"pea":2607,"estudi":2608,"ĠPrem":2609,"ĠMor":2610,"ĠGra":2611,"Ġmalal":2612,"Ġsan":2613,"tanya":2614,"to":2615,"Ġadministra":2616,"Ã¨rie":2617,"Ġsob":2618,"Ãłmbit":2619,"Ġproposta":2620,"ĠcrÃŃ":2621,"ume":2622,"Ġrob":2623,"Ġinternacional":2624,"Ġestabl":2625,"Ġactual":2626,"Ġpremi":2627,"educaciÃ³":2628,"Ġmantenir":2629,"Ġport":2630,"ferÃ¨ncia":2631,"tivament":2632,"uals":2633,"Ġsur":2634,"Ġhauria":2635,"capa":2636,"Ġcapacitat":2637,"Els":2638,"Ġcasos":2639,"lle":2640,"ĠÂ·":2641,"ĠpolÃŃtic":2642,"jous":2643,"Ġfru":2644,"ĠtindrÃł":2645,"Ġimpos":2646,"Ġpogut":2647,"guen":2648,"Ġcelebrar":2649,"Ġmercat":2650,"lor":2651,"estiu":2652,"tari":2653,"Ġnecessitat":2654,"ĠprÃ²pia":2655,"ssi":2656,"accÃ©s":2657,"Ġ2011":2658,"Ġmoments":2659,"artament":2660,"ĠPuig":2661,"ĠMuseu":2662,"Ġgols":2663,"Ġprincipals":2664,"Ãłtica":2665,"ĠMunicip":2666,"Ġllegir":2667,"cap":2668,"Ġusuaris":2669,"AssociaciÃ³":2670,"ger":2671,"ĠcanÃ§":2672,"lusiÃ³":2673,"Ġaspec":2674,"lÃŃc":2675,"pro":2676,"Ġcategoria":2677,"Ġrecol":2678,"ĠconstrucciÃ³":2679,"ĠParlament":2680,"Ġdiferent":2681,"Ġconte":2682,"Ġregid":2683,"Ġmul":2684,"Ġtre":2685,"Ġdecidir":2686,"Ġsembl":2687,"Ġsubs":2688,"Ġcausa":2689,"sup":2690,"asi":2691,"Ġof":2692,"dial":2693,"Ġreser":2694,"ÃŃcies":2695,"Ġgrat":2696,"tint":2697,"ĠDepartament":2698,"ocia":2699,"Ġrem":2700,"Ġvila":2701,"essin":2702,"IN":2703,"entrada":2704,"ÃŃfica":2705,"ĠMont":2706,"Ġnacional":2707,"Ġprofessional":2708,"ĠsÃ¨rie":2709,"ĠCap":2710,"Ġteva":2711,"ĠLleida":2712,"aten":2713,"ĠdifÃŃcil":2714,"Ġfunciona":2715,"okies":2716,"Ġcontacte":2717,"ĠRep":2718,"ĠpolÃŃtiques":2719,"Ġagaf":2720,"Ġmem":2721,"litat":2722,"ĠGar":2723,"ĠVol":2724,"cad":2725,"ĠdirecciÃ³":2726,"Ġrebre":2727,"olÃ²gic":2728,"ĠtÃŃtol":2729,"ini":2730,"rega":2731,"ĠAb":2732,"Ġpots":2733,"Ġclub":2734,"Ġidea":2735,"Ġdefensa":2736,"espai":2737,"Ġnord":2738,"Ġpares":2739,"autor":2740,"eig":2741,"Ġmodi":2742,"Ġlocals":2743,"Ġfalta":2744,"ĠpresÃ¨ncia":2745,"ible":2746,"cial":2747,"opera":2748,"Ġhagi":2749,"Ġcolor":2750,"Ġtele":2751,"Ġrecorre":2752,"ĠGeneral":2753,"Ġexplicar":2754,"Ġsorp":2755,"Ġguanyar":2756,"ĠeconÃ²mica":2757,"avi":2758,"ĠtrÃł":2759,"Ġdigi":2760,"Ġpil":2761,"Ġplat":2762,"Ġsortida":2763,"Ġciutadans":2764,"tora":2765,"ĠRes":2766,"ps":2767,"Ġsovint":2768,"ĠFin":2769,"Ġfoto":2770,"inaciÃ³":2771,"icipi":2772,"Ġcompeti":2773,"Ġhabitu":2774,"bert":2775,"Ġexper":2776,"Ġvolen":2777,"Ġgerm":2778,"ticular":2779,"ĠEsc":2780,"Ġvinc":2781,"avia":2782,"Ġcreu":2783,"Europa":2784,"ĠgratuÃ¯":2785,"cer":2786,"inici":2787,"iten":2788,"ĠMÃ©s":2789,"Ġguerra":2790,"ĠDel":2791,"Ġ23":2792,"irar":2793,"ofer":2794,"gÃ¨ncia":2795,"ĠVil":2796,"Ġinteg":2797,"entatge":2798,"ĠperÃŃode":2799,"ĠBen":2800,"Ġseran":2801,"quitec":2802,"AM":2803,"Ġinvestig":2804,"Ġnecessitats":2805,"ĠsÃ©":2806,"Ġrei":2807,"aquestes":2808,"Ġvari":2809,"Ġpare":2810,"18":2811,"esper":2812,"Ġintel":2813,"ospital":2814,"ĠVer":2815,"ĠSegons":2816,"gia":2817,"osc":2818,"resid":2819,"ĠMal":2820,"ĠQue":2821,"Ġrepresen":2822,"Ġcorreu":2823,"ww":2824,"estr":2825,"Ġtaula":2826,"Ġaug":2827,"Ġperdre":2828,"ĠCultura":2829,"Ġreconeix":2830,"eqÃ¼":2831,"usuari":2832,"Ġdescon":2833,"Ġseguit":2834,"Ġresposta":2835,"ĠEm":2836,"altre":2837,"Ġ27":2838,"Ġfills":2839,"Ġimatges":2840,"olÃ²gica":2841,"Ĥ¬":2842,"ĠLlei":2843,"ting":2844,"Ġmunicipi":2845,"Ġarriba":2846,"Ġconsul":2847,"titz":2848,"Ġconsidera":2849,"Ġlim":2850,"Ġ50":2851,"ĠJaume":2852,"Ġder":2853,"ĠbÃłs":2854,"Ġbenefici":2855,"ĠMonts":2856,"Ã³r":2857,"ĠvÃŃde":2858,"Ãłss":2859,"Ġimportants":2860,"oles":2861,"ĠEntre":2862,"Ġhavien":2863,"agost":2864,"Ġpetits":2865,"rics":2866,"Ġrepresenta":2867,"Ġllibertat":2868,"ĠDia":2869,"ĠBale":2870,"Ġperiod":2871,"tec":2872,"Ġorigin":2873,"Ġbat":2874,"oble":2875,"vada":2876,"ĠMo":2877,"Ġpressup":2878,"Ġvoltant":2879,"Ġcomunitat":2880,"ide":2881,"Ġcapital":2882,"Ġconcep":2883,"Ãºl":2884,"Ġtermin":2885,"Ġpuguin":2886,"Ġ198":2887,"Ġdemanar":2888,"Ġdebat":2889,"rats":2890,"Ġcient":2891,"ingÃ¼":2892,"alitats":2893,"tem":2894,"Ġprofessor":2895,"ront":2896,"Ġahir":2897,"Ã©ixer":2898,"Ġhora":2899,"Ġexpos":2900,"Ã²ries":2901,"Ġteatre":2902,"ĠproducciÃ³":2903,"Ġlo":2904,"entis":2905,"dap":2906,"Ġsupos":2907,"ĠdÃ¨":2908,"tall":2909,"encial":2910,"Ġoferir":2911,"Ġvisitar":2912,"ĠsegÃ¼ent":2913,"Ġimport":2914,"ĠpÃºblics":2915,"ossos":2916,"Ġobjectiu":2917,"Ġhomes":2918,"Ġconstru":2919,"Ġdonat":2920,"Ġmans":2921,"usta":2922,"ĠconseqÃ¼":2923,"erts":2924,"Ġcadasc":2925,"Ġfra":2926,"Ġclassi":2927,"grÃ©s":2928,"Ġella":2929,"dora":2930,"Ġfona":2931,"Ġsiguin":2932,"alitzat":2933,"Ġhor":2934,"Ġdijous":2935,"ĠÃºltims":2936,"Institut":2937,"Ġord":2938,"Ãºblica":2939,"Ebre":2940,"Ġmarxa":2941,"Ġpal":2942,"ĠCh":2943,"Ġpatrimoni":2944,"Ġ2010":2945,"ĠAm":2946,"jecte":2947,"Escola":2948,"Ġmiss":2949,"alum":2950,"Espanya":2951,"ĠsessiÃ³":2952,"tique":2953,"Ġpreu":2954,"hib":2955,"quel":2956,"Ġci":2957,"rades":2958,"Ġevitar":2959,"ĠNom":2960,"Ġpais":2961,"Ġmenjar":2962,"Ġrebut":2963,"ĠenllÃł":2964,"Ġer":2965,"Ġcivil":2966,"onat":2967,"Ġelements":2968,"âĢ¢":2969,"Ġfar":2970,"llaÃ§":2971,"Ġsala":2972,"Ġcontemp":2973,"Ġrelig":2974,"Ġprocess":2975,"ĠDipu":2976,"rop":2977,"ĠUs":2978,"Or":2979,"querra":2980,"ĠInterna":2981,"ĠreferÃ¨ncia":2982,"Aques":2983,"iental":2984,"Ġtercer":2985,"ultat":2986,"Ġcandi":2987,"estruc":2988,"ĠMall":2989,"Ġcontingut":2990,"Ġveritat":2991,"Ġparticular":2992,"risti":2993,"ĠTots":2994,"unta":2995,"Ġciutadania":2996,"Ġperfec":2997,"Ġacord":2998,"anys":2999,"Ġpersonals":3000,"arrib":3001,"lluns":3002,"ĠEuropa":3003,"Ġsegur":3004,"ĠPre":3005,"Ġentorn":3006,"Ġevid":3007,"Ġ100":3008,"ast":3009,"Ġped":3010,"ĠXX":3011,"sic":3012,"Ġadap":3013,"Ġtampoc":3014,"Ġcanviar":3015,"glÃ¨s":3016,"Ġpost":3017,"ĠPat":3018,"Ġcompta":3019,"Ġmaterial":3020,"Ġdilluns":3021,"Ġanterior":3022,"Ġdarrera":3023,"alles":3024,"Ġmateixos":3025,"Ġpropostes":3026,"Ġris":3027,"ĠDirec":3028,"ĠNacional":3029,"rit":3030,"Ġimpuls":3031,"Ġindivid":3032,"enda":3033,"ties":3034,"Ġtram":3035,"Ã²nica":3036,"Ġcuina":3037,"ĠClub":3038,"jat":3039,"liment":3040,"Ġclau":3041,"isc":3042,"Ġestudis":3043,"Ġfets":3044,"Ġvalors":3045,"Ġamics":3046,"ĠSocial":3047,"titud":3048,"Ġvoluntat":3049,"Ġvista":3050,"Ġpropor":3051,"ĠFa":3052,"go":3053,"rant":3054,"uix":3055,"Ġllista":3056,"ense":3057,"encs":3058,"Ġjur":3059,"Ġpec":3060,"omf":3061,"ecres":3062,"Ġexerci":3063,"ĠavanÃ§":3064,"Ġriu":3065,"gres":3066,"idar":3067,"Ġquanti":3068,"ĠInter":3069,"Ã¨t":3070,"trac":3071,"Ġobs":3072,"Ġtard":3073,"Ġul":3074,"Ġanunci":3075,"tista":3076,"tades":3077,"Ġmis":3078,"Ġconvocat":3079,"Ġafir":3080,"Ġdiners":3081,"ĠParc":3082,"Ġpetita":3083,"Ġcompartir":3084,"Ġlluita":3085,"enari":3086,"incid":3087,"Ġrepar":3088,"ĠMed":3089,"Ġcam":3090,"urals":3091,"ĠGrÃł":3092,"eus":3093,"Ġcab":3094,"turals":3095,"AS":3096,"Ġcarrers":3097,"Ġdura":3098,"isb":3099,"Ġconvi":3100,"ĠLlu":3101,"calde":3102,"Ġsosten":3103,"Ġcoordin":3104,"ĠÃºs":3105,"Ġfamiliar":3106,"havia":3107,"ĠâĢĶ":3108,"Ġobjectius":3109,"ĠCarles":3110,"IS":3111,"dria":3112,"Ġaviat":3113,"legi":3114,"Ġsenz":3115,"ĠMunicipal":3116,"eixi":3117,"Ġpis":3118,"ĠBo":3119,"Ġpressupost":3120,"Ġrisc":3121,"rent":3122,"uran":3123,"Ġplan":3124,"Ġcrisi":3125,"Ġlectura":3126,"Ġperill":3127,"quia":3128,"Ġdific":3129,"Ġoculta":3130,"Ġai":3131,"Ġconflic":3132,"ĠAss":3133,"ĠValenci":3134,"Ġcompet":3135,"Ġconvid":3136,"Ġdata":3137,"Ġespanyola":3138,"Ġconn":3139,"Ġsim":3140,"Ġbaixa":3141,"Ġpren":3142,"Ġposa":3143,"Ġendavant":3144,"ĠGrup":3145,"Ġllavors":3146,"ce":3147,"ĠNadal":3148,"Ġviat":3149,"Ġtrobada":3150,"versitat":3151,"Ġtreballadors":3152,"ĠBalears":3153,"Ġfon":3154,"Ġgesti":3155,"ĠFes":3156,"Ġiniciativa":3157,"Ġmare":3158,"ums":3159,"dorra":3160,"ĠfunciÃ³":3161,"Ġblog":3162,"vador":3163,"haver":3164,"Ġmesures":3165,"Ġtinc":3166,"espec":3167,"egut":3168,"niques":3169,"lada":3170,"organitzaciÃ³":3171,"orda":3172,"Ġfoc":3173,"ĠimportÃłncia":3174,"Ġmesura":3175,"Ġpossibilitat":3176,"Ġagrada":3177,"ĠfÃŃs":3178,"Ãłnica":3179,"tegra":3180,"Ġjove":3181,"Ġnovel":3182,"Ġresponsable":3183,"ĠMarc":3184,"Ġtriomf":3185,"Ġfavorita":3186,"Ġelabor":3187,"ensa":3188,"Ġimpres":3189,"Ġnegoci":3190,"Ġrecorregut":3191,"ĠFac":3192,"Ġselec":3193,"ĠAntoni":3194,"15":3195,"loc":3196,"Ġ26":3197,"Ġanti":3198,"ĠPen":3199,"Ġcanvis":3200,"Ġdefini":3201,"Ġdep":3202,"ĠPot":3203,"Ġlluny":3204,"ĠHo":3205,"Ġmalgrat":3206,"bliques":3207,"ror":3208,"ĠIns":3209,"Ã²nia":3210,"Ġsentir":3211,"Ġajudar":3212,"ĠMallorca":3213,"ev":3214,"ĠSab":3215,"ĠprotecciÃ³":3216,"quil":3217,"Ġteniu":3218,"exc":3219,"rist":3220,"erÃ§":3221,"guÃ©":3222,"Ġutilitzar":3223,"IT":3224,"Ãĵ":3225,"Ġprefer":3226,"cle":3227,"ĠTra":3228,"atenciÃ³":3229,"Ġestim":3230,"ĠPor":3231,"Ġentendre":3232,"tatge":3233,"ustri":3234,"Ġpocs":3235,"Ġcelebra":3236,"Ã²bil":3237,"ografies":3238,"tion":3239,"tistes":3240,"Ġcorrec":3241,"riu":3242,"Ġextra":3243,"ĠprÃ²":3244,"Ġcontinuar":3245,"licar":3246,"fa":3247,"ĠAut":3248,"Ġderro":3249,"peu":3250,"Ġir":3251,"Ġvaren":3252,"dacciÃ³":3253,"Ġinfantil":3254,"ortunitat":3255,"ĠmitjÃł":3256,"metre":3257,"ĠalgÃº":3258,"Ġjocs":3259,"emÃłtica":3260,"otes":3261,"Ġmer":3262,"gel":3263,"Ġviu":3264,"Ġtreballs":3265,"ĠveÃ¯ns":3266,"Ã§ada":3267,"IB":3268,"ĠCer":3269,"ĠÂ»":3270,"Ġvir":3271,"Ġincorpor":3272,"ederaciÃ³":3273,"Ġdubte":3274,"Ġ*":3275,"Ġcrea":3276,"Ġcookies":3277,"Ġsuperior":3278,"Ġabsol":3279,"Ġcicle":3280,"oti":3281,"Ġdisp":3282,"Ġdarrers":3283,"ĠSÃ³n":3284,"ĠPSC":3285,"Ġpreocup":3286,"Ġjugadors":3287,"ĠclÃłss":3288,"Ġge":3289,"rans":3290,"torn":3291,"exposiciÃ³":3292,"Ġnecessari":3293,"cadÃ¨m":3294,"ĠEmp":3295,"icar":3296,"teriors":3297,"Ġequi":3298,"istÃ²ria":3299,"Ġsegueix":3300,"Ġmoviment":3301,"Ġcost":3302,"ĠFel":3303,"Ġempresa":3304,"Ġveh":3305,"Â».":3306,"ĠmemÃ²ria":3307,"ĠMiquel":3308,"Ġmusical":3309,"Ġdimecres":3310,"sion":3311,"Ġarribat":3312,"Ġparticipants":3313,"Ġinteressant":3314,"Ġresponsabilitat":3315,"Ġpub":3316,"Ġrelle":3317,"ulaciÃ³":3318,"fiques":3319,"itx":3320,"Ġentrar":3321,"Ġmunicipals":3322,"dats":3323,"Ġmas":3324,"Ġinno":3325,"Ġ28":3326,"Ġmillora":3327,"Ġadre":3328,"ÃŃm":3329,"Ġestran":3330,"Ġade":3331,"inat":3332,"ologies":3333,"ĠÃºnica":3334,"Ġjugar":3335,"nia":3336,"Ġprendre":3337,"ĠPr":3338,"Ġrecla":3339,"Ġambient":3340,"ĠHem":3341,"Ġaspectes":3342,"istir":3343,"ĠLleg":3344,"ĠTen":3345,"Ġassol":3346,"17":3347,"edat":3348,"cie":3349,"Ġmetres":3350,"Ġ197":3351,"Ġdeixa":3352,"Ġampli":3353,"ĠLe":3354,"Ġconcert":3355,"Ġtercera":3356,"amor":3357,"lot":3358,"Ġtend":3359,"12":3360,"Ġprova":3361,"Ġrespon":3362,"ĠelectrÃ²nic":3363,"za":3364,"âĢĵ":3365,"ĠmatÃ¨ria":3366,"Ġinfants":3367,"Ġdescobrir":3368,"Ãłnim":3369,"ĠestratÃ¨g":3370,"Ġsignifica":3371,"Ġparaula":3372,"Ġglob":3373,"iran":3374,"Ġactes":3375,"Ġpodia":3376,"Ġpublica":3377,"dueix":3378,"viar":3379,"Ġconcurs":3380,"Ãłlisi":3381,"Ġtradicional":3382,"Ġball":3383,"forÃ§":3384,"Ġperman":3385,"icions":3386,"reix":3387,"ĠCent":3388,"Ġdiver":3389,"ogrÃłfic":3390,"roc":3391,"Ġ2009":3392,"ĠCada":3393,"ĠPl":3394,"Ġproteg":3395,"Ġhome":3396,"No":3397,"Ġfran":3398,"Ġenerg":3399,"dament":3400,"ĠMedi":3401,"Ġ29":3402,"Ġganes":3403,"Ġmena":3404,"Ġtasca":3405,"lectiu":3406,"umental":3407,"ĠInternacional":3408,"AD":3409,"RE":3410,"renentatge":3411,"Ã¨l":3412,"Ġexperi":3413,"Ġapor":3414,"Ġlegis":3415,"Ġtorna":3416,"ĠPremi":3417,"apos":3418,"Ġcrec":3419,"ĠespÃ¨":3420,"Ġsetmanes":3421,"Ġdreta":3422,"ĠPel":3423,"usti":3424,"Ġinstitucions":3425,"--":3426,"Ġviv":3427,"Ġtrobem":3428,"ĠraÃ³":3429,"elec":3430,"gular":3431,"ĠMen":3432,"vÃ©":3433,"emble":3434,"Ġestudiants":3435,"quet":3436,"Ġplena":3437,"Ġjornades":3438,"Ġ>":3439,"siva":3440,"ilar":3441,"Ġaccions":3442,"ĠDiputaciÃ³":3443,"Ġacos":3444,"estaciÃ³":3445,"Ġobert":3446,"Ġmaterials":3447,"fon":3448,"Ġreal":3449,"Ġhas":3450,"Ġfinalitat":3451,"ĠXV":3452,"Ġadequ":3453,"Ġret":3454,"ĠBaix":3455,"Ġsatis":3456,"Ġpleg":3457,"Ġalhora":3458,"Ġcontex":3459,"ua":3460,"Ġdiari":3461,"Ġpodran":3462,"Ġ40":3463,"Ġconfir":3464,"omes":3465,"Ġbal":3466,"ĠMat":3467,"entitat":3468,"amunt":3469,"Ġdiuen":3470,"encia":3471,"ĠBi":3472,"avui":3473,"Ġcosta":3474,"acab":3475,"toral":3476,"Ġdemana":3477,"pid":3478,"Ġrecep":3479,"ĠXavi":3480,"Ġmuntanya":3481,"Ġblanc":3482,"Ġfal":3483,"Ã¨dia":3484,"Ġescrit":3485,"ĠFrancesc":3486,"ĠTV":3487,"essions":3488,"Ġtransport":3489,"Ġexig":3490,"cades":3491,"aquÃŃ":3492,"Ġclients":3493,"Ġclasse":3494,"Ġdigital":3495,"ĠcastellÃł":3496,"Ġhumans":3497,"Ġxarxes":3498,"Ġtaller":3499,"ismes":3500,"ki":3501,"icat":3502,"taris":3503,"orial":3504,"ĠNomÃ©s":3505,"con":3506,"zar":3507,"ribun":3508,"Ġsort":3509,"Ġzones":3510,"ĠRib":3511,"experiÃ¨ncia":3512,"Ġmec":3513,"ĠTu":3514,"tria":3515,"usiÃ³":3516,"iva":3517,"Ġcomarca":3518,"Ġquina":3519,"giques":3520,"AP":3521,"nics":3522,"quem":3523,"orig":3524,"Ġjut":3525,"retera":3526,"ĠgÃ¨n":3527,"ĠSa":3528,"Ġrelacions":3529,"Ġproducte":3530,"Ġrecuperar":3531,"Ġrecordar":3532,"interÃ¨s":3533,"eses":3534,"unes":3535,"ĠUniÃ³":3536,"Ġconvertir":3537,"bi":3538,"ĠtradiciÃ³":3539,"Ġpremsa":3540,"can":3541,"hores":3542,"Ġciutats":3543,"Ġ2008":3544,"Ġquar":3545,"itaciÃ³":3546,"UP":3547,"cina":3548,"Ġcontinua":3549,"Ġbuscar":3550,"guns":3551,"Ġreno":3552,"duÃ¯t":3553,"dal":3554,"lÃŃ":3555,"taforma":3556,"ĠvictÃ²ria":3557,"quin":3558,"Ã¨via":3559,"Ġfinals":3560,"ĠAquests":3561,"Ġpersonatges":3562,"Ġdirecte":3563,"Ãłb":3564,"ĠBer":3565,"ĠdecisiÃ³":3566,"Ġsop":3567,"Ġgust":3568,"Ġintro":3569,"Ġlaboral":3570,"Ġsepar":3571,"Ġconsol":3572,"ĠJosÃ©":3573,"bo":3574,"fil":3575,"ĠcomÃº":3576,"Ġaquella":3577,"Ġquad":3578,"ĠCul":3579,"Ġfinalment":3580,"ĠTeatre":3581,"ĠRamon":3582,"Ġfuncionament":3583,"50":3584,"quis":3585,"Ġdipu":3586,"ĠFira":3587,"Ġmitjana":3588,"ĠcompromÃŃs":3589,"cul":3590,"ĠPed":3591,"ĠIlles":3592,"Ġpobles":3593,"Ġcampanes":3594,"Ġprincipi":3595,"Ġtallers":3596,"lÃŃcula":3597,"CI":3598,"ĠEuropea":3599,"istents":3600,"ĠnÃºmero":3601,"ticles":3602,"aments":3603,"agrada":3604,"ĠBa":3605,"Ġformar":3606,"itari":3607,"Ġsensi":3608,"Ġcomentaris":3609,"tava":3610,"entorn":3611,"Ġparc":3612,"ĠRom":3613,"alitzada":3614,"Ġprimeres":3615,"marts":3616,"mon":3617,"anim":3618,"Ġmasc":3619,"Ãłp":3620,"Ġaquelles":3621,"Ġima":3622,"ĠFor":3623,"Ġdesenvolupar":3624,"cio":3625,"Ġobtenir":3626,"Ġaprofi":3627,"ertes":3628,"Ã³c":3629,"ĠTerc":3630,"ĠcelebraciÃ³":3631,"anÃ§ament":3632,"ĠLla":3633,"ÃŃssi":3634,"Ġdisponi":3635,"ĠContin":3636,"ates":3637,"Ã¨rica":3638,"Ġposat":3639,"Ġso":3640,"esglÃ©sia":3641,"ino":3642,"ĠLluÃŃs":3643,"Ã²leg":3644,"Ġdestac":3645,"ompl":3646,"Ġvac":3647,"Ġfunda":3648,"ĠeconÃ²mic":3649,"ĠprÃ²xim":3650,"Ġdimarts":3651,"riure":3652,"Ġinau":3653,"Ġacabat":3654,"Ġpi":3655,"adament":3656,"Ġmagn":3657,"Ġentren":3658,"enyament":3659,"Ġbones":3660,"Ãºltim":3661,"Ġobser":3662,"Ġcarretera":3663,"ĠXar":3664,"ĠtÃ¨cnic":3665,"Ġcinema":3666,"Ġcentral":3667,"capacitat":3668,"olÃŃ":3669,"teu":3670,"ĠposiciÃ³":3671,"ĠtÃ¨cnica":3672,"lecciÃ³":3673,"Ġtermini":3674,"Ġfonamen":3675,"ĠallÃł":3676,"ĠselecciÃ³":3677,"Ġdocument":3678,"EducaciÃ³":3679,"ong":3680,"Ġfix":3681,"inf":3682,"Ġcoincid":3683,"Ġllarga":3684,"ĠPas":3685,"Ġrecull":3686,"ports":3687,"ĠreuniÃ³":3688,"OS":3689,"Qu":3690,"Ġvuit":3691,"Ġarticle":3692,"uraciÃ³":3693,"Ġculturals":3694,"ionat":3695,"ejar":3696,"rament":3697,"Ġestruc":3698,"Ġbla":3699,"ĠSec":3700,"Ġrit":3701,"ĠqÃ¼esti":3702,"Ġess":3703,"Ġress":3704,"Ġsituat":3705,"Ġescriure":3706,"Ġrecoman":3707,"Ġjudi":3708,"cripciÃ³":3709,"Ġexcep":3710,"ĠqÃ¼estiÃ³":3711,"che":3712,"ĠRei":3713,"ega":3714,"Ġjuntament":3715,"ĠEsp":3716,"anisme":3717,"guraciÃ³":3718,"ĠNou":3719,"pes":3720,"vo":3721,"ĠdiferÃ¨ncia":3722,"emÃłtiques":3723,"Ġconstruir":3724,"Ġpeces":3725,"Ġregist":3726,"olesc":3727,"Ġdispu":3728,"Ġtranquil":3729,"Â»,":3730,"xiu":3731,"Ġdeixat":3732,"Ġcotxe":3733,"EM":3734,"Ġbons":3735,"Ġparts":3736,"vall":3737,"ĠMerc":3738,"tana":3739,"Ġpremis":3740,"Ġescoles":3741,"ĠBl":3742,"forme":3743,"rg":3744,"Ġfel":3745,"Ġsolu":3746,"Ġcontribu":3747,"itor":3748,"ĠindependÃ¨ncia":3749,"Ġconegut":3750,"14":3751,"uel":3752,"Ġderi":3753,"Ġuniversi":3754,"ĠâĢ¦":3755,"vel":3756,"xi":3757,"licitat":3758,"Ġpaga":3759,"Ġconcent":3760,"amp":3761,"Ġnota":3762,"Ġfestes":3763,"OE":3764,"Ġdamunt":3765,"Ġpsic":3766,"Ġrevol":3767,"Ġpresentat":3768,"ĠpÃºbliques":3769,"Ad":3770,"Ġbra":3771,"Ġpaci":3772,"ĠpÃłgines":3773,"ĠServei":3774,"ĠvÃŃdeo":3775,"Com":3776,"etats":3777,"itar":3778,"Ġplaces":3779,"ĠcontinuaciÃ³":3780,"Ġoficial":3781,"Ìģ":3782,"informaciÃ³":3783,"Ġplu":3784,"Ġguard":3785,"erior":3786,"ĠsÃ²":3787,"Ġsil":3788,"Ġtroben":3789,"Ġdeia":3790,"Ġalt":3791,"ellÃł":3792,"Ġposterior":3793,"Ġexpress":3794,"Ġfuncion":3795,"Ġcompanys":3796,"Ġlid":3797,"tingut":3798,"estÃł":3799,"Ãłvem":3800,"Ãłstic":3801,"Ġactuacions":3802,"Ġprincipis":3803,"ton":3804,"Ġaprof":3805,"Ġeix":3806,"ĠDon":3807,"ĠDav":3808,"ĠprÃłctiques":3809,"vats":3810,"Ġdedica":3811,"Ġruta":3812,"ĠversiÃ³":3813,"ibilitat":3814,"ĠMin":3815,"Ġcompanyia":3816,"ĠnotÃŃcia":3817,"ables":3818,"ental":3819,"ĠHe":3820,"Ġtitular":3821,"OM":3822,"cl":3823,"'s":3824,"Ġthe":3825,"Ġfom":3826,"Ġvesp":3827,"graf":3828,"Ġnomb":3829,"dreu":3830,"Ġfotografies":3831,"Ġsud":3832,"Ġ193":3833,"13":3834,"Ġnove":3835,"escrip":3836,"Ġmostrar":3837,"Ġ:":3838,"ĠCatalÃł":3839,"osiciÃ³":3840,"Ġalta":3841,"ĠFins":3842,"Ġpublicat":3843,"Ġcursos":3844,"Ġquantitat":3845,"esia":3846,"alu":3847,"ĠMaj":3848,"ĠprÃ¨via":3849,"reball":3850,"Ġemb":3851,"Ġcristi":3852,"ellot":3853,"ĠForm":3854,"Ġnenes":3855,"vades":3856,"Ġfotos":3857,"ka":3858,"ĠmÃ²bil":3859,"tip":3860,"ĠlÃŃder":3861,"OL":3862,"ĠPerquÃ¨":3863,"resident":3864,"Ġrestaurant":3865,"Ġtreure":3866,"Ġgar":3867,"mÃłtic":3868,"redi":3869,"ĠConstitu":3870,"Ġcreixement":3871,"onada":3872,"Ġsenyor":3873,"ET":3874,"dran":3875,"ef":3876,"mbits":3877,"ĠRi":3878,"Ġcontext":3879,"Ġfl":3880,"Ġactualment":3881,"rin":3882,"Ġ196":3883,"Ġturisme":3884,"Ġindustri":3885,"tt":3886,"enf":3887,"iniÃ³":3888,"Ġpassant":3889,"ĠXI":3890,"ĠSalut":3891,"Ġaccedir":3892,"Ġgaire":3893,"Ġsant":3894,"Ġobrir":3895,"man":3896,"article":3897,"Ġfront":3898,"Ġeng":3899,"Ġorganitza":3900,"Ġindic":3901,"actual":3902,"Ġmic":3903,"reses":3904,"urar":3905,"activitats":3906,"buix":3907,"icles":3908,"Ġbosc":3909,"idors":3910,"Ġpret":3911,"ĠSala":3912,"Ġpeu":3913,"Ġvers":3914,"opa":3915,"Ġpregunta":3916,"ĠEc":3917,"Ġcompor":3918,"ivin":3919,"Ġtocar":3920,"Ã¨tic":3921,"olÃ²gics":3922,"Ġvostra":3923,"ĠEstats":3924,"Ġdirectament":3925,"rarÃł":3926,"usa":3927,"Ġfigura":3928,"ĠAp":3929,"Ġbici":3930,"Ġtreballant":3931,"Ġdespla":3932,"ociacions":3933,"equ":3934,"ĠComissiÃ³":3935,"Ġanimals":3936,"eda":3937,"rees":3938,"ĠPolÃŃ":3939,"Ġbe":3940,"Ġhagut":3941,"siques":3942,"ĠGo":3943,"ribuciÃ³":3944,"ĠQuÃ¨":3945,"ĠsegÃ¼ents":3946,"ĠTerrassa":3947,"ĠexperiÃ¨ncies":3948,"cant":3949,"ĠPob":3950,"Ġvolta":3951,"ĠNova":3952,"ĠtÃ¨cniques":3953,"ĠTercera":3954,"enÃ§":3955,"Ġtoca":3956,"Ġvisc":3957,"Ġpossibles":3958,".-":3959,"Ġbell":3960,"Ġrepe":3961,"Per":3962,"Ġalterna":3963,"Ġarreu":3964,"Ġheu":3965,"Ġcases":3966,"Ġplanta":3967,"Ġprogrames":3968,"ĠpromociÃ³":3969,"ĠFederaciÃ³":3970,"Ġacte":3971,"cament":3972,"Ġextre":3973,"ĠAquestes":3974,"Ġaconseguit":3975,"ĠSet":3976,"Ġcamin":3977,"ters":3978,"Ġexisteix":3979,"Ġformes":3980,"ĠvisiÃ³":3981,"ĠconvocatÃ²ria":3982,"ĠvÃł":3983,"Ġvols":3984,"metres":3985,"Un":3986,"errat":3987,"ocs":3988,"aire":3989,"Ġmodern":3990,"Ġdestacar":3991,"emblea":3992,"Ġdesitj":3993,"administraciÃ³":3994,"Ġexclus":3995,"reus":3996,"Ġretorn":3997,"ĠcomenÃ§":3998,"ranca":3999,"giny":4000,"III":4001,"ĠFranÃ§a":4002,"Ġrepresentants":4003,"ĠCiutad":4004,"uf":4005,"Ġdorm":4006,"Ãºn":4007,"Ġaprendre":4008,"Ġpassada":4009,"Ġdescens":4010,"Ġvostre":4011,"Ġfase":4012,"Ãłnia":4013,"ach":4014,"ĠPalau":4015,"alumnat":4016,"Ġimagin":4017,"gent":4018,"jada":4019,"def":4020,"arcal":4021,"home":4022,"mem":4023,"Ġdonen":4024,"ĠJorn":4025,"ĠPi":4026,"vistes":4027,"mit":4028,"udes":4029,"enar":4030,"Ġrealment":4031,"Ġorganitzat":4032,"Ġkm":4033,"ĠTan":4034,"Ġsigut":4035,"Ãºstria":4036,"Ġsign":4037,"Ġtotalment":4038,"Ġefectes":4039,"Ġreivin":4040,"ĠNat":4041,"ĠActu":4042,"chez":4043,"Ġsus":4044,"Ġrepro":4045,"ribunal":4046,"truÃ¯":4047,"ÃŃstics":4048,"Ġexcel":4049,"Ġprac":4050,"tides":4051,"Ġban":4052,"talls":4053,"Ãºnic":4054,"Ġpagar":4055,"Ġverm":4056,"Ġplatja":4057,"ID":4058,"ultats":4059,"Ġvolia":4060,"ĠCasa":4061,"ĠBarÃ§a":4062,"Ġprocessos":4063,"ĠlingÃ¼":4064,"Ġfacilitar":4065,"Ġeurope":4066,"Ã³rrer":4067,"Ġama":4068,"Ġquedat":4069,"ficient":4070,"Ġfotografia":4071,"umentaciÃ³":4072,"Ġasseny":4073,"edifici":4074,"Ġajuda":4075,"udio":4076,"ĠDavid":4077,"Ġtenien":4078,"Ġinclou":4079,"Ġulls":4080,"âĤ¬":4081,"economia":4082,"Ġcomprar":4083,"otaciÃ³":4084,"ĠMartÃŃ":4085,"ĠgÃ¨nere":4086,"ĠLu":4087,"Ġand":4088,"Ġru":4089,"Ġmarx":4090,"ĠComp":4091,"Ġsabem":4092,"hor":4093,"iÃł":4094,"Ġquil":4095,"Ġquart":4096,"Ã²giques":4097,"eracions":4098,"Ġcoopera":4099,"Ġnecessita":4100,"Ġub":4101,"Ġunivers":4102,"Les":4103,"enciar":4104,"Ġ2007":4105,"ĠviolÃ¨ncia":4106,"//":4107,"16":4108,"Ġpac":4109,"Ġestic":4110,"tirar":4111,"licitu":4112,"Ġsatisf":4113,"bilitats":4114,"Ġdibuix":4115,"ĠII":4116,"Ġexplicat":4117,"ses":4118,"Ġpau":4119,"Ġconcre":4120,"ĠnotÃŃcies":4121,"ĠXarxa":4122,"atiu":4123,"itants":4124,"rÃ²":4125,"ork":4126,"ĠjustÃŃcia":4127,"Ac":4128,"Ãłdio":4129,"ĠÃłmbits":4130,"gers":4131,"onor":4132,"Ġba":4133,"Ġpropietat":4134,"ĠâĨ":4135,"vÃ¨ncia":4136,"Ġ31":4137,"Ġapareix":4138,"zz":4139,"Ġ+":4140,"dores":4141,"Ġperdut":4142,"Ġfelici":4143,"ke":4144,"osp":4145,"Ġportes":4146,"Ġidees":4147,"Ġliteratura":4148,"Ġpista":4149,"ĠBiblioteca":4150,"Ġcarta":4151,"ĠConc":4152,"Ġestaven":4153,"Ġincl":4154,"vocar":4155,"Ġcontrari":4156,"ĠconfianÃ§a":4157,"Ġsof":4158,"siu":4159,"ĠVan":4160,"Ġcolors":4161,"Ġedifici":4162,"Ġsubstitu":4163,"IA":4164,"Ġeines":4165,"ĠBor":4166,"anova":4167,"ĠhistÃ²ric":4168,"Ġbri":4169,"ĠSÃŃ":4170,"Ġescrip":4171,"Ġinterpre":4172,"Ġconeixements":4173,"Ġproves":4174,"Ġemoci":4175,"Ġcuri":4176,"mo":4177,"Ġend":4178,"ĠprÃ²pies":4179,"Ġreconeixement":4180,"ories":4181,"Ġvull":4182,"mentar":4183,"Ġescolar":4184,"Ġdinar":4185,"Ġconseller":4186,"ire":4187,"âĢľ":4188,"Ġfab":4189,"ĠUnits":4190,"vist":4191,"ĠÐ":4192,"Ġneu":4193,"ulat":4194,"itzat":4195,"Ã¨ct":4196,"off":4197,"Ġdocuments":4198,"Ġfres":4199,"ĠPep":4200,"icacions":4201,"Ġpujar":4202,"tils":4203,"Ġxerra":4204,"Ġmeitat":4205,"Ġtractar":4206,"Ġrealitzat":4207,"ĠMartÃŃn":4208,"Ġcatalanes":4209,"Ġcursa":4210,"teixen":4211,"carregar":4212,"origen":4213,"://":4214,"Emp":4215,"Ġdoble":4216,"Ġprec":4217,"AB":4218,"itatge":4219,"Ġtrobat":4220,"Ġmoder":4221,"Ġrefug":4222,"alcalde":4223,"ĠCorn":4224,"ĠDoc":4225,"Ġ60":4226,"ump":4227,"Ġfort":4228,"Ġinfer":4229,"Ġcontes":4230,"Ġ194":4231,"Ġsuposa":4232,"ĠRedacciÃ³":4233,"!!!":4234,"ĠcaracterÃŃstiques":4235,"ĠFinalment":4236,"Ġrevista":4237,"ĠMari":4238,"Ġmeus":4239,"RC":4240,"Ġmembre":4241,"Ġllic":4242,"obregat":4243,"ĠlÃŃnies":4244,"Ġtens":4245,"Ã¨poca":4246,"Ġgir":4247,"Ġeta":4248,"erament":4249,"ĠUE":4250,"taments":4251,"aplicaciÃ³":4252,"Ġguia":4253,"Ġformen":4254,"Ġemo":4255,"Ġfeta":4256,"Ġmotius":4257,"Ã²c":4258,"ĠSe":4259,"ĠBon":4260,"itza":4261,"ofia":4262,"ĠGuerra":4263,"Ġvostres":4264,"ĠfrancÃ¨s":4265,"ales":4266,"ĠIs":4267,"ĠFestival":4268,"irem":4269,"pora":4270,"tÃŃ":4271,"ĠGe":4272,"Ġaband":4273,"quets":4274,"Aquest":4275,"mits":4276,"enten":4277,"Ġprohib":4278,"ĠLlobregat":4279,"Ġacaba":4280,"ĠThe":4281,"ĠRub":4282,"bleix":4283,"iversari":4284,"lent":4285,"ĠPos":4286,"ĠAlbert":4287,"Ġsecreta":4288,"Ġcerta":4289,"ĠdisposiciÃ³":4290,"Ġgarantir":4291,"omÃł":4292,"Ġrecorda":4293,"Ã¯t":4294,"Ġsistemes":4295,"Ãºltima":4296,"ĠacadÃ¨m":4297,"Ġenguany":4298,"ĠCivil":4299,"adell":4300,"Ġassum":4301,"Ġgrau":4302,"Ġinteressos":4303,"Ġhabitual":4304,"ĠTurisme":4305,"Ġlos":4306,"ĠTreball":4307,"Ġpoesia":4308,"Ġdesapar":4309,"Ãºsica":4310,"ĠjurÃŃ":4311,"ĠAquÃŃ":4312,"Ġobstant":4313,"gÃ¼es":4314,"ĠEtique":4315,"Ġcarn":4316,"Ġcerti":4317,"Ġmunicipis":4318,"ansa":4319,"Ġvenir":4320,"Ġclasses":4321,"operaciÃ³":4322,"Ġdocumental":4323,"ĠMediter":4324,"Ġaigua":4325,"tel":4326,"Ġgreu":4327,"Ġconvers":4328,"odes":4329,"ĠNi":4330,"gida":4331,"Ġsorg":4332,"ĠrepresentaciÃ³":4333,"ĠPaÃŃs":4334,"ĠÃ¨xit":4335,"arr":4336,"Ġquant":4337,"Ġnuc":4338,"Ġdesig":4339,"ĠBra":4340,"Ã¨nd":4341,"Ġcerca":4342,"actualitat":4343,"ĠVallÃ¨s":4344,"Ġnete":4345,"ĠreflexiÃ³":4346,"estructura":4347,"mor":4348,"Ġful":4349,"Ġbanc":4350,"Ġinflu":4351,"xill":4352,"vencions":4353,"Ġprior":4354,"Ġenvol":4355,"ÃŃp":4356,"Ġconta":4357,"cionat":4358,"ĠcanÃ§ons":4359,"Ġnombros":4360,"ĠFern":4361,"ĠpresÃ³":4362,"Ġpuc":4363,"Ġrefor":4364,"Ġtecnologia":4365,"cit":4366,"Ġaplica":4367,"Ġqued":4368,"Ġfira":4369,"Ġnatura":4370,"ĠprogramaciÃ³":4371,"Ġritme":4372,"Ġperme":4373,"Ġcad":4374,"ĠDec":4375,"Ġministre":4376,"ĠrÃłpi":4377,"ĠtelevisiÃ³":4378,"Ġpaisatge":4379,"Ãłrea":4380,"lega":4381,"Ġconsulta":4382,"ĠEncara":4383,"cipl":4384,"Ãį":4385,"rot":4386,"Ġanem":4387,"Ã¨ries":4388,"ĠBe":4389,"ĠJust":4390,"Ġescoltar":4391,"vells":4392,"Ġoberta":4393,"ogrÃłfica":4394,"ĠCultural":4395,"ĠvÃŃc":4396,"ults":4397,"Ġterres":4398,"Ġsolid":4399,"pen":4400,"Ġpell":4401,"âĢĻ,":4402,"Ġinver":4403,"ĠRos":4404,"Ġarticles":4405,"itacions":4406,"Ġtingui":4407,"Ġproced":4408,"espera":4409,"Ġvenda":4410,"tacions":4411,"Ġfusta":4412,"ado":4413,"Ġtercers":4414,"Ġfemen":4415,"ĠPrat":4416,"Ġ80":4417,"actuaciÃ³":4418,"Ġtraslla":4419,"OC":4420,"isteri":4421,"dez":4422,"Ġnaturals":4423,"Ġsenzill":4424,"quad":4425,"Ġelim":4426,"olÃ²giques":4427,"Ġcomplex":4428,"Ġmenor":4429,"Ãłmica":4430,"Ġfamiliars":4431,"Ġpon":4432,"ilib":4433,"Ġcant":4434,"gueu":4435,"las":4436,"urg":4437,"Ġelectoral":4438,"ĠPotser":4439,"UR":4440,"Ġsac":4441,"onÃ¨s":4442,"guera":4443,"Ġdiv":4444,"Ġantic":4445,"Ġtransform":4446,"ĠsecciÃ³":4447,"len":4448,"ĠcÃ²m":4449,"ĠCamb":4450,"ÃŃssim":4451,"Ġtancar":4452,"lleu":4453,"ĠCab":4454,"ĠFesta":4455,"Ã¨gim":4456,"hum":4457,"lem":4458,"iscal":4459,"ficacions":4460,"gaciÃ³":4461,"iny":4462,"Ġcalend":4463,"Ġvacances":4464,"Ex":4465,"ĠArenys":4466,"Ġoctubre":4467,"ĠocasiÃ³":4468,"eral":4469,"Ġqueden":4470,"aprenentatge":4471,"Ġdenunci":4472,"Ġmissatge":4473,"ĠpretÃ©n":4474,"bia":4475,"Ġpeix":4476,"Ġvot":4477,"ĠRod":4478,"dura":4479,"itges":4480,"ĠDem":4481,"igÃ¼es":4482,"Ġpreguntes":4483,"Ġacostu":4484,"rus":4485,"enca":4486,"Ġbiblioteca":4487,"icament":4488,"ĠServeis":4489,"Ġgens":4490,"ĠexposiciÃ³":4491,"dua":4492,"Ġvolgut":4493,"Ġadqui":4494,"Ġcampana":4495,"Ã²nim":4496,"cisament":4497,"Ġjusti":4498,"ĠaccÃ©s":4499,"ĠdemocrÃłcia":4500,"25":4501,"licat":4502,"Ġsex":4503,"Ġdeleg":4504,"ĠFigu":4505,"Ġsituacions":4506,"Ġpetites":4507,"Ġdalt":4508,"Ġconduc":4509,"ĠsoluciÃ³":4510,"ĠÃ¨poca":4511,"ĠGrÃłcies":4512,"Ġvaria":4513,"Ġcompro":4514,"ĠĠĠĠĠĠĠĠ":4515,"arques":4516,"Ġfont":4517,"ĠGal":4518,"Ġaporta":4519,"vic":4520,"Ġnoms":4521,"Ġopcions":4522,"Ġtrobareu":4523,"Ġagents":4524,"Ġdiscurs":4525,"Ġclara":4526,"Ġdra":4527,"avor":4528,"ĠPodem":4529,"ediciÃ³":4530,"Ġtret":4531,"Ġrequer":4532,"Ġgal":4533,"sible":4534,"ĠCongrÃ©s":4535,"Ġnormativa":4536,"Ġgastr":4537,"ĠpÃ¨r":4538,"Ġvesti":4539,"Ġperfil":4540,"lab":4541,"Ġpresents":4542,"venil":4543,"Ġdefensar":4544,"Ġindependentis":4545,"Ġdestaca":4546,"ĠMontserrat":4547,");":4548,"ĠTrans":4549,"Ġtraves":4550,"Ġtenint":4551,"ĠÃºnic":4552,"ĠSegona":4553,"Ġmedia":4554,"ĠMajor":4555,"Ġrecollir":4556,"ĠvalenciÃł":4557,"Ġfaran":4558,"ĠdiÃłleg":4559,"ocal":4560,"Ġperspec":4561,"Ġvisitants":4562,"ebre":4563,"osofia":4564,"ĠBat":4565,"ĠcrÃŃtica":4566,"hes":4567,"Ġconstant":4568,"Ġiniciar":4569,"enat":4570,"Ġtr":4571,"Ġrat":4572,"Ã¨x":4573,"ĠtelÃ¨":4574,"ĠhistÃ²rica":4575,"Ġdecisions":4576,"ĠJuan":4577,"ht":4578,"ĠMÃºsica":4579,"queta":4580,"199":4581,"mig":4582,"Ġpena":4583,"Ġcaure":4584,"onament":4585,"Ġprevist":4586,"essor":4587,"2018":4588,"Ġdomici":4589,"tells":4590,"ĠPass":4591,"ĠRÃłdio":4592,"Ġentrada":4593,"ĠÂ¿":4594,"ollit":4595,"Ġpossibilitats":4596,"ĠrecuperaciÃ³":4597,"Ġoriginal":4598,"Ġintegra":4599,"camp":4600,"ĠhaguÃ©s":4601,"Ġvoleu":4602,"ĠcomenÃ§at":4603,"ĠmantÃ©":4604,"Ġconsider":4605,"ras":4606,"Ġenseny":4607,"ĠPers":4608,"ĠPSOE":4609,"Ġresoldre":4610,"Ġxif":4611,"ĠnecessÃłria":4612,"Ð¾":4613,"issions":4614,"ĠCosta":4615,"ĠMag":4616,"Ġclient":4617,"Ġmalaltia":4618,"Ã¨ndum":4619,"Ġcinqu":4620,"estre":4621,"Ġmad":4622,"Ġmanca":4623,"Ġescola":4624,"Ġhabitants":4625,"EL":4626,"ĠSense":4627,"Ġjard":4628,"line":4629,"enatge":4630,"Ġmir":4631,"Ġquasi":4632,"Ġeina":4633,"ĠImp":4634,"iÃ³s":4635,"ĠcientÃŃfic":4636,"uncia":4637,"Ã¨xit":4638,"reny":4639,"Ġregal":4640,"Ġimme":4641,"Ġllengu":4642,"Ġhumana":4643,"ĠCiutat":4644,"Ġsopar":4645,"Ġpess":4646,"sign":4647,"Ġparticipat":4648,"tisme":4649,"Ġmorir":4650,"euros":4651,"Ġmirar":4652,"Ġreci":4653,"Ġbany":4654,"teres":4655,"Ã²noma":4656,"Ġpublicar":4657,"ĠatenciÃ³":4658,"Ġsot":4659,"atori":4660,"Ġcompra":4661,"ristes":4662,"Ġcreat":4663,"Ãłnic":4664,"Ġmundial":4665,"Ġaproxim":4666,"gatz":4667,"ĠMundial":4668,"ĠmÃ¨t":4669,"Ġapun":4670,"ÃŃtols":4671,"Ġpitj":4672,"ĠsÃ³c":4673,"rez":4674,"Ġbol":4675,"ĠTribunal":4676,"Ġjugador":4677,"24":4678,"IÃĵ":4679,"Ġparella":4680,"tiner":4681,"Ġvoler":4682,"Ġcorrup":4683,"panyol":4684,"Ġresponsables":4685,"Ġreserva":4686,"udiovis":4687,"Ġsessions":4688,"Ġfrac":4689,"Ġdelic":4690,"idor":4691,"Ġdonant":4692,"times":4693,"cident":4694,"Ġprogram":4695,"Ġdisposa":4696,"rgell":4697,"xillerat":4698,"Ġnaix":4699,"Ġseues":4700,"Ġpoca":4701,"Ġpodi":4702,"osament":4703,"ĠanglÃ¨s":4704,"rere":4705,"Ġtranspar":4706,"ĠconseqÃ¼Ã¨ncia":4707,"ĠXavier":4708,"Ġdepar":4709,"Ġtesti":4710,"Ġtru":4711,"Ãºnica":4712,"ĠCornellÃł":4713,"lÃł":4714,"vÃŃn":4715,"Ġfitx":4716,"ĠPo":4717,"ĠprimÃłria":4718,"Ġsocis":4719,"Ġquants":4720,"ĠNe":4721,"ĠintervenciÃ³":4722,"jant":4723,"inari":4724,"ĠJun":4725,"Ġsindic":4726,"Ġmilitar":4727,"ĠcompeticiÃ³":4728,"franca":4729,"iga":4730,"ferÃ¨ncies":4731,"tri":4732,"Ġpreveu":4733,"Ġconsultar":4734,"Ġvespre":4735,"Ġcru":4736,"tuals":4737,"eixo":4738,"ĠJap":4739,"Ġron":4740,"obreix":4741,"ĠrÃ¨gim":4742,"Ġpermetre":4743,"Ġobligat":4744,"Ġmirada":4745,"emanya":4746,"Ġargu":4747,"ficina":4748,"ĠPlaÃ§a":4749,"Ġprofessors":4750,"Ã²rum":4751,"Ġconnec":4752,"Ġvosaltres":4753,"taran":4754,"ĠinterÃ¨s":4755,"ĠOc":4756,"Ġenten":4757,"tÃłncies":4758,"Ġele":4759,"Ġhtt":4760,"Ġtindre":4761,"ĠdifusiÃ³":4762,"Ġelles":4763,"EsglÃ©sia":4764,"Ġpropis":4765,"Ġfestival":4766,"lement":4767,"Ġmitja":4768,"Ġactuals":4769,"caldes":4770,"Ã¡nchez":4771,"Ġcomercial":4772,"ĠinvestigaciÃ³":4773,"cel":4774,"item":4775,"ĠcomerÃ§":4776,"ĠAg":4777,"mateix":4778,"ĠPort":4779,"lustra":4780,"ĠMatar":4781,"ĠRepÃºblica":4782,"Des":4783,"guessin":4784,"Ġambiental":4785,"Ġindica":4786,"Ġevol":4787,"Ġparell":4788,".,":4789,"rants":4790,"Ġajuntament":4791,"Ġvint":4792,"ĠconferÃ¨ncia":4793,"Ġtrajec":4794,"arien":4795,"ĠnavegaciÃ³":4796,"jament":4797,"ĠelÃ¨ct":4798,"Ġartistes":4799,"Ġprocedi":4800,"Ġempresari":4801,"Ġmanteniment":4802,"ĠVilanova":4803,"vas":4804,"Ġompl":4805,"Ġpertany":4806,"allar":4807,"...]":4808,"ĠQui":4809,"ĠcanÃ§Ã³":4810,"orament":4811,"Ġcorre":4812,"ĠllengÃ¼es":4813,"espectac":4814,"IM":4815,"urien":4816,"Ġestigui":4817,"Ġperc":4818,"Ġboca":4819,"ĠFont":4820,"Ġpati":4821,"Ġpedra":4822,"Ġcondi":4823,"ĠOb":4824,"Ġsilenci":4825,"Ġdomicili":4826,"ventut":4827,"ocupaciÃ³":4828,"ENT":4829,"Ġrelacionats":4830,"ĠfreqÃ¼":4831,"fÃŃ":4832,"onats":4833,"âĢĶ":4834,"Ġdiversitat":4835,"ulari":4836,"Ġpermeten":4837,"ĠmÃłxima":4838,"ĠCUP":4839,"ĠSÃ¡nchez":4840,"Ġespera":4841,"Ġresulta":4842,"Ġeducatiu":4843,"',":4844,"rÃ³":4845,"esquerra":4846,"Ġconjun":4847,"acom":4848,"ficats":4849,"Ġlliga":4850,"Ġforces":4851,"Ġteus":4852,"Ġautors":4853,"Ġbarre":4854,"Ġparlant":4855,"ĠciÃ¨ncia":4856,"cen":4857,"ogle":4858,"escol":4859,"Ġpropera":4860,"Ġpropieta":4861,"ĠPalma":4862,"Ġreligi":4863,"Ġglobal":4864,"ĠDiss":4865,"Ġentitat":4866,"Ġenca":4867,"Ġedit":4868,"ĠUr":4869,"ĠProf":4870,"ĠcapaÃ§":4871,"Ġdecidit":4872,"Ġinternacionals":4873,"ĠespÃ¨cies":4874,"uti":4875,"uri":4876,"ĠMir":4877,"ĠDis":4878,"Ġmapa":4879,"ĠfinanÃ§ament":4880,"Ġtradicionals":4881,"ĠFacultat":4882,"Ġdo":4883,"ĠnÃ©ixer":4884,"ite":4885,"Ġanteriors":4886,"Ġplay":4887,"Ġinicial":4888,"ĠintenciÃ³":4889,"CAT":4890,"Ġfen":4891,"ĠBas":4892,"Ġnivells":4893,"ĠdemÃł":4894,"Ġprotagonistes":4895,"ĠresoluciÃ³":4896,"ias":4897,"Ġarquitec":4898,"Ã²sit":4899,"Ġdedicat":4900,"oms":4901,"riques":4902,"ĠRip":4903,"Ġinterior":4904,"ĠÃłrees":4905,"gÃ³":4906,"oraciÃ³":4907,"ĠenllaÃ§":4908,"tatges":4909,"Ãºria":4910,"edÃ¨s":4911,"Ġmag":4912,"TV":4913,"del":4914,"Ã²graf":4915,"ĠTel":4916,"Ġviatges":4917,"Ġ70":4918,"tÃłncia":4919,"ĠMalgrat":4920,"gatzem":4921,"ĠLi":4922,"Ġfinanc":4923,"nsit":4924,"Ġconcepte":4925,"RA":4926,"pot":4927,"istent":4928,"alitza":4929,"Ġseguint":4930,"Ġxi":4931,"Ġintentar":4932,"ĠconsciÃ¨ncia":4933,"Ġdificultats":4934,"ĠÃŃn":4935,"Ġmaneres":4936,"ĠInf":4937,"Ġmala":4938,"Ġsuperar":4939,"ecuciÃ³":4940,"rana":4941,"Ġmarge":4942,"ĠOri":4943,"Ġespanyols":4944,"Ġrendi":4945,"Ġvel":4946,"liquen":4947,"Ġvisites":4948,"ĠhumÃł":4949,"ĠPodeu":4950,"Ġexperim":4951,"Ġcura":4952,"ĠSom":4953,"ĠEstÃł":4954,"itud":4955,"ĠAndorra":4956,"Ġconeguda":4957,"Ġespectacle":4958,"Ġagafar":4959,"60":4960,"gles":4961,"wit":4962,"guis":4963,"Ġreac":4964,"ĠRic":4965,"ĠCiÃ¨ncies":4966,"Ġrecollida":4967,"Ġaten":4968,"ĠDret":4969,"Ġllo":4970,"Ġcarreg":4971,"Ġmares":4972,"Ġnegre":4973,"ĠTerritori":4974,"cindi":4975,"Ġespectacular":4976,"Ġrefugi":4977,"Ġ@":4978,"Ġfla":4979,"actes":4980,"Ġresum":4981,"Ġpreus":4982,"Ġpoeta":4983,"Ġorganitzar":4984,"Ġlegal":4985,"ĠVilafranca":4986,"Ġsurt":4987,"Ġdefinitiva":4988,"EU":4989,"eques":4990,"sia":4991,"interior":4992,"Ġconform":4993,"eixin":4994,"Ġpodreu":4995,"Ġ[...]":4996,"ĠAf":4997,"Ġconvertit":4998,"Ġcontempor":4999,"mi":5000,"Ġpend":5001,"ĠCurs":5002,"ĠDom":5003,"Ġurban":5004,"ck":5005,"Ġdetec":5006,"ossa":5007,"rab":5008,"ĠBla":5009,"Ġcarrera":5010,"audi":5011,"Ġfranqu":5012,"Ġcalendari":5013,"Ġmel":5014,"Ġvots":5015,"ĠCopa":5016,"ĠSerra":5017,"ĠRob":5018,"Ġconcret":5019,"ĠgeneraciÃ³":5020,"Ġrod":5021,"ĠtÃ¨cnics":5022,"Ġfonamental":5023,"Barcelona":5024,"org":5025,"orat":5026,"Ġgo":5027,"Ġdiscapacitat":5028,"Ġllegint":5029,"Ġbusca":5030,"Ġregidor":5031,"Ġpermanent":5032,"eval":5033,"esos":5034,"ertura":5035,"Ġreduir":5036,"abs":5037,"ĠNord":5038,"ĠreferÃ¨ndum":5039,"ĠgratuÃ¯ta":5040,"ĠPenedÃ¨s":5041,"eja":5042,"eros":5043,"Ġmera":5044,"Ġvent":5045,"Ġnarra":5046,"Ġpreten":5047,"Ġcamps":5048,"ĠManlleu":5049,"ĠSocietat":5050,"Ġcurt":5051,"Ġperiodista":5052,"quina":5053,"ĠPres":5054,"Ġseguiment":5055,"Ġtants":5056,"joy":5057,"aletes":5058,"Ġestablir":5059,"ĠfÃŃsica":5060,"ĠPolÃŃtica":5061,"TA":5062,"hem":5063,"Ġcommem":5064,"Ġquali":5065,"Ġesdeveniments":5066,"Ġllenguatge":5067,"IL":5068,"Ġcita":5069,"are":5070,"liÃł":5071,"Ġdesper":5072,"Ġsegles":5073,"Ġfuncions":5074,"ĠdocumentaciÃ³":5075,"igual":5076,"Ġtasques":5077,"ĠOn":5078,"ĠsensaciÃ³":5079,"Ġ2006":5080,"Ġtecnologies":5081,"pl":5082,"Ġfu":5083,"ĠPe":5084,"rÃŃem":5085,"ay":5086,"Ġfeu":5087,"Ġcolla":5088,"Ġincre":5089,"Ġtarge":5090,"Ġplegat":5091,"Ġinaugu":5092,"ĠpÃ¨rdua":5093,"ĠDani":5094,"Ġcomptar":5095,"Ġviuen":5096,"Ġ195":5097,"Ġinforma":5098,"ecutiu":5099,"Ġmobilitat":5100,"arribada":5101,"Ġfonts":5102,"bar":5103,"Ġapren":5104,"Ġdescans":5105,"Ãłstica":5106,"lectius":5107,"Ġbases":5108,"judi":5109,"ĠEL":5110,"Ġreforma":5111,"ĠeducaciÃ³":5112,"daria":5113,"Ġafegit":5114,".âĢĿ":5115,"Ġol":5116,"ĠFil":5117,"Ġtardor":5118,"enÃ§a":5119,"Ġdetalls":5120,"Ġnen":5121,"riÃł":5122,"ĠPopular":5123,"ĠMic":5124,"accep":5125,"rÃłnia":5126,"Ġesdevin":5127,"Ġpopulars":5128,"ĠMenorca":5129,"ĠES":5130,"udit":5131,"ĠdistribuciÃ³":5132,"po":5133,"tador":5134,"Ġenrere":5135,"rani":5136,"ricultura":5137,"rontar":5138,"vestigaciÃ³":5139,"ĠComunitat":5140,"Ġfruit":5141,"Ġexclusiva":5142,"ĠMatarÃ³":5143,"orar":5144,"istat":5145,"tern":5146,"Ġoct":5147,"Ġocasions":5148,"Ġvotar":5149,"Ġaprofitar":5150,"ĠquilÃ²":5151,"ED":5152,"ires":5153,"jol":5154,"ĠERC":5155,"erada":5156,"Ġaniversari":5157,"tÃłria":5158,"Ġcomplir":5159,"Ġprotagonista":5160,"Ġassenyal":5161,"efec":5162,"Âº":5163,"imentaciÃ³":5164,"exerci":5165,"prom":5166,"ĠorganitzaciÃ³":5167,"ĠRajoy":5168,"hotel":5169,"Ġordin":5170,"Ġator":5171,"ĠLA":5172,"Ġconsta":5173,"Ġregistre":5174,"witter":5175,"ellÃ³":5176,"Ġfines":5177,"Ġplataforma":5178,"Ġpropers":5179,"Ġpromoure":5180,"ĠEtiquetes":5181,"Ġavis":5182,"Ġher":5183,"ĠEll":5184,"teris":5185,"arcelon":5186,"Ġmenors":5187,"ximitat":5188,"ĠActualment":5189,"ito":5190,"ĠPir":5191,"Ġferro":5192,"ordÃł":5193,"Ġprocla":5194,"Ġamic":5195,"40":5196,"tro":5197,"Ġment":5198,"Ġfant":5199,"obli":5200,"Ġlliura":5201,"Ġadministracions":5202,"Ġsostenible":5203,"ĠTur":5204,"Ã§al":5205,"ribuÃ¯":5206,"Ãłster":5207,"ajuda":5208,"ĠqÃ¼estions":5209,"jud":5210,"ublic":5211,"ĠcÃł":5212,"ĠLo":5213,"tans":5214,"mplia":5215,"Ġanava":5216,"Ġllui":5217,"Ġdistin":5218,"Ġtermes":5219,"alitzats":5220,"encials":5221,"ĠregiÃ³":5222,"ĠdistÃłncia":5223,"cleta":5224,"anitat":5225,"ĠRel":5226,"Ġpatir":5227,"Ġpolicia":5228,"menys":5229,"ĠAndreu":5230,"ĠopciÃ³":5231,"Ġvehicles":5232,"sin":5233,"Ġfid":5234,"deven":5235,"ĠEsper":5236,"ebo":5237,"Ġrepte":5238,"ĠDoncs":5239,"ĠtelÃ¨fon":5240,"Ġvins":5241,"ĠManuel":5242,"Ġconflicte":5243,"Ġderrota":5244,"Ġindustrial":5245,"ks":5246,"edit":5247,"americ":5248,"Ġdarrere":5249,"Ġsumar":5250,"cula":5251,"fons":5252,"Ġestiu":5253,"ĠMe":5254,"Ġpreparar":5255,"anÃłlisi":5256,"Ġincid":5257,"ordre":5258,"Ġassoci":5259,"Ġpersonatge":5260,"Ġblan":5261,"Ġresidus":5262,"licitud":5263,"IU":5264,"mana":5265,"Ġdepend":5266,"Ġcompliment":5267,"tadors":5268,"Ġdoctor":5269,"Ġorganitzacions":5270,"Ġafegir":5271,"oportunitat":5272,"Ġpoques":5273,"Ġdisposi":5274,"Ġmuseu":5275,"ĠInternet":5276,"ĠValenciana":5277,"ositat":5278,"Ġregi":5279,"ĠTrob":5280,"Ġacus":5281,"Ġarr":5282,"hivern":5283,"Ġ90":5284,"Ġsimple":5285,"):":5286,"ĠprovÃŃn":5287,"Ġcavall":5288,"avera":5289,"Ġpagament":5290,"CO":5291,"equi":5292,"nis":5293,"elabor":5294,"associaciÃ³":5295,"Ġtinguin":5296,"Ġlleis":5297,"lectual":5298,"Ġquines":5299,"entura":5300,"Ġflu":5301,"Ġproximitat":5302,"ticar":5303,"Ġpeda":5304,"Ġtransc":5305,"ESO":5306,"ĠindÃºstria":5307,"fe":5308,"Ġsug":5309,"ĠAjuntament":5310,"Ġabril":5311,"ĠPartit":5312,"Ġplantes":5313,"ĠrÃłpid":5314,"Ġmalalties":5315,"Ġnovetats":5316,"ders":5317,"estil":5318,"Ġhotel":5319,"ĠCla":5320,"Ġsola":5321,"Ġadop":5322,"ĠactuaciÃ³":5323,"Ġclaus":5324,"Ġideal":5325,"Ġdeclaracions":5326,"ĠSabadell":5327,"Ġextraordin":5328,"ĠtrajectÃ²ria":5329,"Ġis":5330,"itÃł":5331,"ĠPri":5332,"ĠconstruÃ¯":5333,"eguda":5334,"Ġplantej":5335,"Ġtextos":5336,"Ġdestacat":5337,"Ġetapa":5338,"io":5339,"sitat":5340,"Ġmateixes":5341,"ĠTerres":5342,"áĥ":5343,"Ã¨cia":5344,"ĠToni":5345,"Ġcompon":5346,"Ġbenestar":5347,"ĠSalvador":5348,"idaritat":5349,"ĠÃłnim":5350,"gudes":5351,"ĠSu":5352,"jectes":5353,"gunes":5354,"Ãłrrega":5355,"Ġintera":5356,"Ġrelacionades":5357,"Hospital":5358,"mer":5359,"Ġales":5360,"ussiÃ³":5361,"ĠSor":5362,"Ġdimen":5363,"ĠFar":5364,"Ġsecund":5365,"Ġmarcat":5366,"Ġassegurar":5367,"Ġcorresponent":5368,"Ġviscut":5369,"ĠMartÃŃnez":5370,"Ġpitjor":5371,"Ãīs":5372,"Ãłtic":5373,"Ġxoc":5374,"onÃ²mic":5375,"Ġpresenten":5376,"ĠcÃłn":5377,"ĠMitj":5378,"Ġinterp":5379,"Ġreptes":5380,"Ġinstru":5381,"Ġrelat":5382,"Ã¡ndez":5383,"ĠconseqÃ¼Ã¨ncies":5384,"otidi":5385,"oposiciÃ³":5386,"rened":5387,"Ġtreballen":5388,"Ġguanyat":5389,"Ġcircums":5390,"mad":5391,"enllaÃ§":5392,"Ġmass":5393,"Ġep":5394,"Ġplani":5395,"Ġmoviments":5396,"Ġsolucions":5397,"Ġatur":5398,"sil":5399,"Ġarran":5400,"aixÃ²":5401,"Ġduel":5402,"Ġprivi":5403,"Ã±a":5404,"ajuntament":5405,"tÃ²ries":5406,"Ġbut":5407,"Ġcreure":5408,"ĠComarcal":5409,"ĠDesenvolup":5410,"ĠReus":5411,"Ġquins":5412,"ĠesforÃ§":5413,"Ġbot":5414,"ĠJunta":5415,"Ġfeien":5416,"ionar":5417,"Ġregular":5418,"ĠGoogle":5419,"ĠFigueres":5420,"Arenys":5421,"mac":5422,"Ġcalor":5423,"Ġamor":5424,"ĠeconÃ²mics":5425,"Ġnormal":5426,"Ġcandidat":5427,"ĠFeliu":5428,"SS":5429,"Ġpic":5430,"tigi":5431,"ĠClar":5432,"ixes":5433,"questa":5434,"Ġacum":5435,"energia":5436,"Ġassistir":5437,"Ġportal":5438,"Ġpeus":5439,"Ġatrac":5440,"amar":5441,"Ġconcerts":5442,"Ġverita":5443,"evoluciÃ³":5444,"ĠtrÃłnsit":5445,"Ġimprescindi":5446,"Ġassolir":5447,"80":5448,"ltima":5449,"arda":5450,"Ġfron":5451,"diques":5452,"ĠTant":5453,"Ġ35":5454,"Ġmodels":5455,"Ġoportunitat":5456,"Ġproposa":5457,"ĠconservaciÃ³":5458,"Ġdolor":5459,"Ġsecretari":5460,"missiÃ³":5461,"ĠFab":5462,"ĠpeÃ§a":5463,"cidental":5464,"ross":5465,"Ġatac":5466,"Ã²lic":5467,"ĠPle":5468,"onestir":5469,"Ġterreny":5470,"Ġteat":5471,"ĠProgra":5472,"ĠPobla":5473,"ÃŃfiques":5474,"Ġimplica":5475,"Ġconten":5476,"urat":5477,"ĠacciÃ³":5478,"Ġcomptes":5479,"ĠCarlos":5480,"Ġtornat":5481,"rossa":5482,"Ġboti":5483,"Ġidentitat":5484,"Ġroba":5485,"Ġcamins":5486,"Ġabsoluta":5487,"Ġdedicada":5488,"rals":5489,"Ġvolum":5490,"Ġmigdia":5491,"Andorra":5492,"Si":5493,"alg":5494,"Ġvide":5495,"Ġinsc":5496,"ĠcompetÃ¨ncies":5497,"ellotge":5498,"GT":5499,"pat":5500,"Ġdob":5501,"Ġquotidi":5502,"Ã²l":5503,"ĠSub":5504,"ĠDesc":5505,"ĠBal":5506,"ariciÃ³":5507,"Ġmenj":5508,"tanyes":5509,"labora":5510,"Ara":5511,"don":5512,"Ġpreci":5513,"arÃłs":5514,"Ġexpres":5515,"Ġarriben":5516,"Ġavan":5517,"ĠrealitzaciÃ³":5518,"Ġevident":5519,"ĠDirecciÃ³":5520,"ĠValenciÃł":5521,"ngel":5522,"Ġtes":5523,"Ġfarem":5524,"Ġcomarques":5525,"Ġutilitza":5526,"Ġfred":5527,"canvi":5528,"Ġï¿½":5529,"undi":5530,"Ġproduir":5531,"Ġpodrien":5532,"ĠEstat":5533,"ĠHer":5534,"atÃŃ":5535,"ĠGer":5536,"Ġfaig":5537,"Ġarque":5538,"ĠProtecciÃ³":5539,"Art":5540,"Ġdirigit":5541,"ĠâĨĴ":5542,"Con":5543,"Ġ&":5544,"Ġpet":5545,"Ġfic":5546,"ĠEra":5547,"aconsegu":5548,"trat":5549,"Ġdisf":5550,"ĠLlegir":5551,"Ġdormir":5552,"promÃŃs":5553,"onia":5554,"Ġsingular":5555,"formes":5556,"Ġjuvenil":5557,"Ġinteressants":5558,"Ġdomin":5559,"Ġjunts":5560,"gressos":5561,"AdministraciÃ³":5562,"PA":5563,"pir":5564,"Ġdot":5565,"Ġvaix":5566,"Ġpolici":5567,"ĠAls":5568,"ĠreconÃ¨ixer":5569,"ĠestarÃł":5570,"ĠâĤ¬":5571,"Ġconveni":5572,"Ġsucce":5573,"ĠSuperior":5574,"fÃŃcie":5575,"Ġpedag":5576,"ĠMu":5577,"Ġprecisament":5578,"Ġcomunitats":5579,"ĠautÃ¨n":5580,"Ġorganitzada":5581,"velles":5582,"interess":5583,"ĠVaig":5584,"ĠRegne":5585,"Ġconflictes":5586,"lel":5587,"Ġeducatius":5588,"cons":5589,"Ġindre":5590,"egant":5591,"tins":5592,"Ġpag":5593,"Ġcostu":5594,"Inter":5595,"Ġindependent":5596,"ĠÃºltimes":5597,"ĠXIX":5598,"OT":5599,"ban":5600,"Ġhagin":5601,"Ġfiscal":5602,"Ġenlla":5603,"ĠSr":5604,"Ġteves":5605,"Ġsectors":5606,"vatori":5607,"Ġcondem":5608,"ĠGestiÃ³":5609,"Ġconsisteix":5610,"amÃŃ":5611,"Ġgenerals":5612,"ACIÃĵ":5613,"Ġteix":5614,"Ġestil":5615,"Ã¯tat":5616,"Ġmestres":5617,"pira":5618,"Ġnormes":5619,"Ġobjecte":5620,"Ġsucc":5621,"guard":5622,"oga":5623,"ĠinscripciÃ³":5624,"Ġprodu":5625,"ĠIC":5626,"ĠtraducciÃ³":5627,"Ġassociacions":5628,"Ġestona":5629,"Ġanomenat":5630,"21":5631,"Ag":5632,"esca":5633,"Ġentrevista":5634,"Ġveiem":5635,"ĠnÃºvol":5636,"Ġdurada":5637,"Ġoli":5638,"ĠmÃ¨":5639,"Ġrestes":5640,"ĠHan":5641,"Ġcrida":5642,"ĠWeb":5643,"Ġserveix":5644,"Ġfomentar":5645,"ostos":5646,"alls":5647,"ĠprevenciÃ³":5648,"Ġassistents":5649,"ĠXina":5650,"Ġiniciatives":5651,"ĠFerran":5652,"ĠCatÃŃ":5653,"-,":5654,"entes":5655,"Ġprovoca":5656,"ulats":5657,"ĠFot":5658,"ĠIN":5659,"Ġnecessaris":5660,"Ġdomini":5661,"Ġdubtes":5662,"Ġmobil":5663,"Ġirre":5664,"ĠPedro":5665,"Ðµ":5666,"ĠPÃº":5667,"Ã²nic":5668,"Ġmalament":5669,"ĠnecessÃłries":5670,"tits":5671,"tirÃł":5672,"ity":5673,"Ġconjuntament":5674,"Ġcompos":5675,"Ġcompren":5676,"ĠtransformaciÃ³":5677,"Ġprincipalment":5678,"ĠSergi":5679,"expressiÃ³":5680,"ĠJustÃŃcia":5681,"Ġaudiovis":5682,"alguns":5683,"ĠAqu":5684,"Ġbomb":5685,"Ġantiga":5686,"Ġonline":5687,"ĠÂ¦":5688,"Ġportaveu":5689,"ĠSeguretat":5690,"Ġmotor":5691,"Ġencarreg":5692,"Ġenviar":5693,"Ġunitat":5694,"Ġinj":5695,"Ġcapdavant":5696,"Ġpron":5697,"Ġlleug":5698,"ĠrestauraciÃ³":5699,"ĠFre":5700,"Ġfilosofia":5701,"cionada":5702,"Ġcomercials":5703,"Ġvarietat":5704,"ĠclassificaciÃ³":5705,"27":5706,"ati":5707,"ÌĢ":5708,"ĠTar":5709,"Ġimpar":5710,"Ġsituada":5711,"ĠprÃłcticament":5712,"Ġajuntaments":5713,"Ġita":5714,"oris":5715,"lades":5716,"aller":5717,"Ġtanta":5718,"Ġwww":5719,"ollers":5720,"Ġmanifesta":5721,"ortunitats":5722,"aluaciÃ³":5723,"Olot":5724,"Ġforn":5725,"Ġvet":5726,"rils":5727,"ÃŃg":5728,"Ġretalla":5729,"ĠIm":5730,"ĠHum":5731,"Ġcoll":5732,"Ġraons":5733,"ĠÃłmplia":5734,"ĠRecord":5735,"ner":5736,"dac":5737,"ĠBadal":5738,"ĠRaf":5739,"ĠGav":5740,"Ġpensament":5741,"Ġperspectiva":5742,"IR":5743,"ama":5744,"Ġhaurien":5745,"itaris":5746,"ĠInd":5747,"ĠIndepend":5748,"Ãłrdia":5749,"ĠcapaÃ§os":5750,"estan":5751,"Ġvess":5752,"Ġali":5753,"Ġprove":5754,"Ġtantes":5755,"Ġgenerar":5756,"Ġculpa":5757,"ĠcelebrarÃł":5758,"Ġreflec":5759,"Ġmanifest":5760,"ĠquilÃ²metres":5761,"jos":5762,"Ġelement":5763,"ĠEducaciÃ³":5764,"Ġreper":5765,"ĠMossos":5766,"ĠTri":5767,"anyes":5768,"ĠTotes":5769,"Ġgolej":5770,"Ġindividual":5771,"Ġgestionar":5772,"Am":5773,"gada":5774,"rÃ©":5775,"ÃĪ":5776,"Ġtut":5777,"Ġfals":5778,"gull":5779,"Ġbarcelon":5780,"Ġing":5781,"ĠSempre":5782,"Ġproba":5783,"Ġdirecta":5784,"Ġefecte":5785,"Ġcompleix":5786,"Ġcadascun":5787,"ore":5788,"esforÃ§":5789,"lim":5790,"Ġveus":5791,"Ġvigent":5792,"Ġordre":5793,"Ġfol":5794,"ligÃ¨ncia":5795,"ĠTort":5796,"ĠpressiÃ³":5797,"ĠCasal":5798,"Ġterritorial":5799,"Ġeducativa":5800,"ĠpermÃ¨s":5801,"ients":5802,"Ġinvesti":5803,"ĠLon":5804,"Ġhauran":5805,"Ġconsenti":5806,"ĠLlen":5807,"ĠhistÃ²ries":5808,"ĠCentral":5809,"ÃŃssima":5810,"Ġpluja":5811,"espectacle":5812,"ebook":5813,"Ġcog":5814,"Ġband":5815,"etre":5816,"adap":5817,"ĠUR":5818,"Ġformulari":5819,"Ġminut":5820,"onÃ²mica":5821,"Ġexemples":5822,"ĠsentÃ¨ncia":5823,"ĠVicent":5824,"Ġdetall":5825,"atÃ³":5826,"ĠFC":5827,"Ġmantin":5828,"quetes":5829,"ĠConf":5830,"Ġrealitza":5831,"Ġmedieval":5832,"demont":5833,"fÃ¨":5834,"Ġau":5835,"Ã²rica":5836,"Ġoper":5837,"ĠSeny":5838,"onesa":5839,"ĠMarta":5840,"Ġtindran":5841,"Ġaprovat":5842,"Ġllegit":5843,"Ġneteja":5844,"Ġdepartament":5845,"Ens":5846,"dol":5847,"ĠtemÃłtica":5848,"ĠEste":5849,"Ġorgan":5850,"ficial":5851,"ĠLlor":5852,"cepciÃ³":5853,"Ġestudiar":5854,"erop":5855,"Ġcic":5856,"urants":5857,"ils":5858,"teria":5859,"imag":5860,"Ġobtin":5861,"Ġcompleta":5862,"Ġgarant":5863,"ĠvÃłrem":5864,"Ġgaletes":5865,"ĠTi":5866,"opciÃ³":5867,"lars":5868,"Ġforen":5869,"Ġobliga":5870,"ĠclimÃłtic":5871,"Ġxerrada":5872,"ociÃ³":5873,"Ġasc":5874,"Ġlu":5875,"cials":5876,"ĠCÃł":5877,"ĠSE":5878,"ensenyament":5879,"Ġmestre":5880,"mentat":5881,"Ġdedicar":5882,"Ġbeneficis":5883,"ĠcientÃŃfica":5884,"Ġpacte":5885,"Ġesfor":5886,"Ġbreu":5887,"Ġros":5888,"allÃ²":5889,"Ġplats":5890,"ĠMare":5891,"ĠMolt":5892,"Ġsuma":5893,"ĠLliga":5894,"mant":5895,"Ġsang":5896,"Ġeste":5897,"ocitat":5898,"exiÃ³":5899,"Ġconsiderar":5900,"Ġrecomana":5901,"ĠAbans":5902,"esdeven":5903,"Ġactiva":5904,"ĠVis":5905,"ĠPuigdemont":5906,"Ġcontamin":5907,"23":5908,"cils":5909,"ticip":5910,"âĢĻ.":5911,"inal":5912,"rits":5913,"ĠDr":5914,"ĠNav":5915,"Ġpassen":5916,"Ġterror":5917,"Ġcorrent":5918,"Ġamena":5919,"esport":5920,"Ġcelebrat":5921,"2015":5922,"Ġsimplement":5923,"ĠvÃŃctimes":5924,"ĠBadalona":5925,"IV":5926,"gica":5927,"ical":5928,"Ġaleg":5929,"ĠTal":5930,"ĠUN":5931,"Ġvege":5932,"Ġbastant":5933,"ĠutilitzaciÃ³":5934,"ERC":5935,"Ġbellesa":5936,"Ð°":5937,"ĠSobre":5938,"ĠEsta":5939,"Ġdismin":5940,"inam":5941,"ĠOli":5942,"Ã²nies":5943,"Ġparticipa":5944,"Ġameric":5945,"ĠÃºltima":5946,"pez":5947,"ĠsuperfÃŃcie":5948,"Ġfilla":5949,"Una":5950,"independ":5951,"gust":5952,"ĠreducciÃ³":5953,"ĠTom":5954,"Ġdemanda":5955,"Ġmajors":5956,"Ġbotiga":5957,"ĠAutÃ²noma":5958,"eries":5959,"ĠSitges":5960,"Ġdescar":5961,"Ġintens":5962,"Ġdenom":5963,"Ġcotxes":5964,"isbe":5965,"ĠclÃłssic":5966,"Ob":5967,"frica":5968,"Ġtreballat":5969,"Ġdescomp":5970,"llat":5971,"Ġpensat":5972,"Ġnecessiten":5973,"Ġpreparat":5974,"Ġconserva":5975,"ĠPrincip":5976,"ĠcorrupciÃ³":5977,"atur":5978,"ĠSin":5979,"ĠSud":5980,"Ġequ":5981,"rimir":5982,"existÃ¨ncia":5983,"tÃłlia":5984,"Ġentra":5985,"Ġaprovar":5986,"novaciÃ³":5987,"laborar":5988,"ĠdeclaraciÃ³":5989,"Ġdemostra":5990,"Ġmereix":5991,"Ġnaixement":5992,"PC":5993,"ĠtÃŃp":5994,"aco":5995,"ĠVI":5996,"Ġpenso":5997,"Ġdemostrar":5998,"Ġafirma":5999,"fera":6000,"mun":6001,"ualment":6002,"olo":6003,"Ġesca":6004,"Ġrevis":6005,"Ġparal":6006,"ferm":6007,"Ġestad":6008,"Ġforta":6009,"Ġdarreres":6010,"Ġvulgui":6011,"Ġfrag":6012,"Ġerr":6013,"Ġmascul":6014,"Ġdut":6015,"Ġalem":6016,"Ġgel":6017,"ĠMod":6018,"Ġseri":6019,"Ġsaben":6020,"ando":6021,"Ġreferent":6022,"Ġoblidar":6023,"Ġeuropeu":6024,"ĠPrimera":6025,"Ġmilers":6026,"ĠMorella":6027,"ĠFormaciÃ³":6028,"be":6029,"iada":6030,"Ġestabli":6031,"Ġespecials":6032,"Ġcriteris":6033,"ĠespecÃŃfic":6034,"Ġpintura":6035,"ĠComunicaciÃ³":6036,"Ġsorpresa":6037,"ĠavanÃ§ar":6038,"Urgell":6039,"Ġfeli":6040,"ĠhÃłb":6041,"ĠCre":6042,"Ġconv":6043,"ĠAlguns":6044,"Ġmarcar":6045,"ĠRipoll":6046,"fes":6047,"har":6048,"Ġpont":6049,"Ġestats":6050,"Ġprotes":6051,"adre":6052,"ĠpermetrÃł":6053,"Ġdivul":6054,"Ġaleshores":6055,"Ġprobablement":6056,"UN":6057,"ĠSar":6058,"tivar":6059,"ĠvictÃ²ries":6060,"Ġlaborals":6061,"45":6062,"gor":6063,"llar":6064,"ĠTÃ©":6065,"Ġsimb":6066,"aurada":6067,"Ġdeixem":6068,"especi":6069,"aquells":6070,"ĠSetmana":6071,"quadra":6072,"ĠDesenvolupament":6073,"Ð¸":6074,"Ġfug":6075,"ĠPD":6076,"Ġdivid":6077,"tesa":6078,"ĠparrÃ²":6079,"Ġposici":6080,"Ġori":6081,"ĠvostÃ¨":6082,"ĠPrimer":6083,"Ġporten":6084,"lÃŃcules":6085,"Ãłpia":6086,"cor":6087,"edes":6088,"Ġatra":6089,"antic":6090,"ĠMet":6091,"ĠMÃ³n":6092,"Ġprevis":6093,"ficada":6094,"ĠRecerca":6095,"defels":6096,"ĠNatural":6097,"evi":6098,"ĠComerÃ§":6099,"ientals":6100,"Ġriques":6101,"Alt":6102,"Ġvinent":6103,"Ġmediter":6104,"Ġsorpren":6105,"ĠTortosa":6106,"Ec":6107,"PS":6108,"Ġtirar":6109,"elcom":6110,"ali":6111,"Ġprodueix":6112,"itatges":6113,"ĠCompromÃŃs":6114,"adores":6115,"ĠCarme":6116,"ĠelectrÃ²nica":6117,"Ġvulguin":6118,"Ġmusicals":6119,"Ġcontracte":6120,"Ġimpossible":6121,"Ġequipa":6122,"Ġpublicitat":6123,"ĠTanmateix":6124,"Ġcans":6125,"ondre":6126,"retes":6127,"âĢĺ":6128,"Ġenvi":6129,"ĠAhir":6130,"ĠSel":6131,"Ġedat":6132,"lides":6133,"Ġdiri":6134,"Ġ300":6135,"escenari":6136,"ĠAnna":6137,"mos":6138,"eng":6139,"olar":6140,"ĠColl":6141,"Ġdiaris":6142,"ĠVe":6143,"Ġrural":6144,"Ġentrades":6145,"ĠCerd":6146,"pass":6147,"Ġdig":6148,"Ġanual":6149,"ĠEspa":6150,"Ġsitua":6151,"Ġcops":6152,"aquell":6153,"Ġeuropeus":6154,"Ġpodien":6155,"dad":6156,"ĠCD":6157,"Ġrecap":6158,"Ġparlat":6159,"venir":6160,"ĠAltres":6161,"versions":6162,"Ġtornada":6163,"2017":6164,"Ġlectors":6165,"ĠValls":6166,"Ġobjectes":6167,"bit":6168,"ĠPÃ©":6169,"ĠMes":6170,"Ġparar":6171,"ĠDos":6172,"Ġpartida":6173,"Ġlliures":6174,"Ġcodi":6175,"ĠGranollers":6176,"ox":6177,"enguany":6178,"Ġlas":6179,"ĠAC":6180,"Ġnoti":6181,"Ġets":6182,"Ãºp":6183,"empor":6184,"Ġ2000":6185,"Ġveuen":6186,"oferta":6187,"ĠinnovaciÃ³":6188,"Ġquarta":6189,"xius":6190,"Ġmur":6191,"ater":6192,"ĠCrist":6193,"Ġhav":6194,"ĠfaÃ§":6195,"dues":6196,"Ġsegurament":6197,"apariciÃ³":6198,"ĠParÃŃs":6199,"Ġ2005":6200,"ĠEuropeu":6201,"Ġigualtat":6202,"ĠdemocrÃłtica":6203,"ĠReial":6204,",...":6205,"yes":6206,"Ġlog":6207,"inform":6208,"istit":6209,"ĠPens":6210,"ĠBern":6211,"ĠRoc":6212,"Ġconsens":6213,"edral":6214,"ĠInformaciÃ³":6215,"Ġvistes":6216,"viament":6217,"Ġparticipen":6218,"ĠDef":6219,"Ġdecret":6220,"berg":6221,"Ġmetod":6222,"alaguer":6223,"ĠConstituciÃ³":6224,"Oc":6225,"ow":6226,"toc":6227,"Ġtros":6228,"ĠCreu":6229,"itors":6230,"ĠcomissiÃ³":6231,"Ġinn":6232,"Ġpersegu":6233,"Ġactuar":6234,"ĠmanifestaciÃ³":6235,"ĠContinu":6236,"Ġhttp":6237,"ĠaigÃ¼es":6238,"ĠlÃ²g":6239,"Ġflor":6240,"ollida":6241,"ĠCu":6242,"Ġbru":6243,"ĠMigu":6244,"Ġprovin":6245,"eller":6246,"havien":6247,"amÃ³s":6248,"ĠInici":6249,"Ġacompanyat":6250,"Ġprofessorat":6251,"Ġuniversitats":6252,"histÃ²ria":6253,"Ġmida":6254,"Ã³pez":6255,"ĠRoca":6256,"Ġadolesc":6257,"Ġagost":6258,"hn":6259,"anomen":6260,"ĠProm":6261,"ĠApro":6262,"Ġhaur":6263,"Ġdescarregar":6264,"ssia":6265,"Ġcarb":6266,"Ġportat":6267,"Ġsaluda":6268,"Ġcomunicar":6269,"ĠurbÃł":6270,"Ġlliurament":6271,"moni":6272,"eno":6273,"tas":6274,"Ġrecent":6275,"cionari":6276,"magatzem":6277,"ĠdiferÃ¨ncies":6278,"Ġsortit":6279,"ĠCiU":6280,"eratura":6281,"arquitec":6282,"iner":6283,"ult":6284,"Ġanalitzar":6285,"Ġallot":6286,"Ġdemanat":6287,"Ġvalorar":6288,"ĠlÃŃmits":6289,"ĠinstituciÃ³":6290,"28":6291,"Ġcens":6292,"otels":6293,"egar":6294,"Ġesport":6295,"ĠCaixa":6296,"Ġrestaurants":6297,"ĠCastelldefels":6298,"Ġos":6299,"ĠEN":6300,"ĠLÃ³pez":6301,"ĠSeu":6302,"Ġetique":6303,"prÃ¨s":6304,"ĠcaldrÃł":6305,"Ġhomenatge":6306,"Ġesportiva":6307,"ĠconvenÃ§":6308,"Ġconvida":6309,"Ġprotegir":6310,"elaboraciÃ³":6311,"estal":6312,"Ġign":6313,"citats":6314,"Ġservid":6315,"cripcions":6316,"Ġemocions":6317,"Ġdansa":6318,"ĠMill":6319,"Ġprestigi":6320,"edeix":6321,"ugat":6322,"Ġdeixant":6323,"ĠArt":6324,"Ġconverteix":6325,"ĠgermÃł":6326,"Ġnasc":6327,"ĠMil":6328,"ĠTÃ¨c":6329,"Ġantics":6330,"toris":6331,"Ġ45":6332,"Ġllet":6333,"Ġacompanyar":6334,"Ġnaturalesa":6335,"hist":6336,"ĠcÃłm":6337,"ĠcondiciÃ³":6338,"ĠSim":6339,"alitzades":6340,"Ġtancat":6341,"panyola":6342,"ĠAmbient":6343,"Ġlector":6344,"ĠprovÃŃncia":6345,"%.":6346,"ei":6347,"Ġvas":6348,"Ġpodrem":6349,"aval":6350,"ĠaplicaciÃ³":6351,"Ġaplicar":6352,"ĠimpressiÃ³":6353,"Ġplantil":6354,"Ġpoemes":6355,"Ġassegurat":6356,"ĠcrÃ©ixer":6357,"habili":6358,"Ġgermans":6359,"Ġcomprovar":6360,"rÃ¨s":6361,"enament":6362,"itzada":6363,"ĠâĢ¢":6364,"Ġestableix":6365,"ĠmÃºsics":6366,"Ġeuropea":6367,"Ġexercir":6368,"Ġrespondre":6369,"ĠMinisteri":6370,"Ġimmedia":6371,"dec":6372,"lis":6373,"antiga":6374,"orci":6375,"Ġalmenys":6376,"itÃłries":6377,"ĠPR":6378,"ĠLocal":6379,"Ġdesg":6380,"ĠTorre":6381,"ĠRog":6382,"Ġmatin":6383,"Ġtransi":6384,"Ġdescrip":6385,"Ġroda":6386,"Ġgenera":6387,"ĠconvivÃ¨ncia":6388,"ginyeria":6389,"Ġvelocitat":6390,"US":6391,"Ãłcia":6392,"Ġgira":6393,"Ġjaci":6394,"urem":6395,"Estudis":6396,"Ġveig":6397,"Ġbaixar":6398,"Ġassegura":6399,"ospita":6400,"ĠMiguel":6401,"Ġagu":6402,"one":6403,"Ġafavor":6404,"ĠpassiÃ³":6405,"ĠArrib":6406,"mats":6407,"Ġclic":6408,"timent":6409,"Ġtorre":6410,"Ãłlia":6411,"Ġalli":6412,"ĠAsi":6413,"ĠDu":6414,"Ġinfra":6415,"estructures":6416,"ĠcompetÃ¨ncia":6417,"ĠtendÃ¨ncia":6418,"mentera":6419,"Ġdient":6420,"Ġpoblacions":6421,"Ġoferta":6422,"Ġ93":6423,"Ġdescobri":6424,"ĠartÃŃstica":6425,"ĠGrau":6426,"Ġpacients":6427,"ĠJornada":6428,"Ġnucli":6429,"dÃ³s":6430,"Ġaliments":6431,"Ġreti":6432,"vacions":6433,"ĠBalaguer":6434,"Ġtanca":6435,"Ġfacin":6436,"Ġdespeses":6437,"www":6438,"Ġconsentiment":6439,"gats":6440,"lum":6441,"ĠCin":6442,"Ġconstruc":6443,"tituds":6444,"Ġcanviat":6445,"Ġproperes":6446,"lÃłn":6447,"vang":6448,"ĠTres":6449,"ĠNosaltres":6450,"Ġesperar":6451,"essorament":6452,"Ġaixec":6453,"ĠpeticiÃ³":6454,"vinguda":6455,"Ġparlem":6456,"OP":6457,"dom":6458,"eva":6459,"Ġigu":6460,"ĠTecn":6461,"ĠGarc":6462,"ign":6463,"Ġcomplet":6464,"cionalitat":6465,"Ġadults":6466,"anÃ§ar":6467,"vocats":6468,"ONS":6469,"esperit":6470,"exercici":6471,"Ġsou":6472,"ĠElec":6473,"gram":6474,"Ġsolidaritat":6475,"Ġapareixen":6476,"ĠeconÃ²miques":6477,"ĠLlegeix":6478,"table":6479,"Ġuniversitat":6480,"ĠMentre":6481,"Ġrecurs":6482,"opiniÃ³":6483,"Ġposant":6484,"Ġsuficient":6485,"Ġregula":6486,"Ãºltip":6487,"ĠPatrimoni":6488,"500":6489,"IF":6490,"ibles":6491,"Ġcim":6492,"ĠRoma":6493,"ĠVia":6494,"Ġdiscipl":6495,"Ġdesenvolupat":6496,"Ġmostren":6497,"Ã²pia":6498,"Ġreconegut":6499,"ĠPalamÃ³s":6500,"Ġoficials":6501,"Ġestiguin":6502,"Ġpositiu":6503,"Ġlimita":6504,"ĠinterpretaciÃ³":6505,"ÂŃ":6506,"ĠSembla":6507,"tua":6508,"Ġcomporta":6509,"rÃłs":6510,"Ġjap":6511,"Ġplans":6512,"Ġdiscrim":6513,"Ġvuln":6514,"ĠFerrer":6515,"ĠGavÃł":6516,"26":6517,"Av":6518,"Ġvall":6519,"Ġposen":6520,"iblioteques":6521,"Ġrellev":6522,"ĠinversiÃ³":6523,"llet":6524,"tric":6525,"entren":6526,"Ġvell":6527,"Ġvid":6528,"Ġobertes":6529,"Ġtemperatura":6530,"Ġciutadana":6531,"Ġfactors":6532,"Ġempresarial":6533,".)":6534,"nou":6535,"Ġquelcom":6536,"Ġfed":6537,"Ġestre":6538,"ĠSosten":6539,"ĠUniversi":6540,"Ġsegueixen":6541,"Ġxic":6542,"Ġamunt":6543,"ĠcontÃ©":6544,"ĠGuill":6545,"Ġassign":6546,"licitar":6547,"ĠbÃłsics":6548,"Ġimprescindible":6549,"05":6550,"cÃ³":6551,"Ġpop":6552,"onals":6553,"Ġtem":6554,"ĠCE":6555,"ĠSon":6556,"ĠVir":6557,"fers":6558,"Ġcampionat":6559,"Ġtriar":6560,"ĠMoltes":6561,"Ġexperts":6562,"Ġmissatges":6563,"ĠFormentera":6564,"Ġfelicitat":6565,"mÃ©s":6566,"arro":6567,"Ġitiner":6568,"onz":6569,"entendre":6570,"ĠPresident":6571,"ustr":6572,"ĠproduÃ¯t":6573,"utri":6574,"imenta":6575,"Ġ2019":6576,"regist":6577,"Ġclima":6578,"ĠConselleria":6579,"Ġimmig":6580,"Ġesperem":6581,"ĠRubÃŃ":6582,"ĠDecret":6583,"gueren":6584,"ĠPÃºblica":6585,"ĠDra":6586,"ĠFon":6587,"empreses":6588,"ĠEspor":6589,"ĠMares":6590,"Ġsubsc":6591,"Ġbarris":6592,"Ġdisposar":6593,"Ġvisitant":6594,"ĠCampionat":6595,"Ġcompletament":6596,"ĠcadascÃº":6597,"Ġmecan":6598,"Ġreivindic":6599,"Ġedificis":6600,"ĠcircumstÃłncies":6601,"ĠLondres":6602,"Ġsenc":6603,"lets":6604,"Ġescal":6605,"Ġinclos":6606,"ĠcatÃłleg":6607,"Ġdefinir":6608,"ĠesforÃ§os":6609,"ĠAsiÃłtica":6610,"tig":6611,"Ã²f":6612,"Ġgest":6613,"ĠLeg":6614,"ĠEnric":6615,"Ġterri":6616,"ĠOp":6617,"Ġteoria":6618,"impacte":6619,"ĠrÃłdio":6620,"Ã³rm":6621,"ĠContinua":6622,"ĠURV":6623,"ĠPÃ©rez":6624,"Ab":6625,"ie":6626,"vera":6627,"arreu":6628,"Ġvora":6629,"ĠMob":6630,"ted":6631,"ĠSanti":6632,"ilibri":6633,"!.":6634,"zo":6635,"omun":6636,"Ġbu":6637,"uss":6638,"obser":6639,"tanta":6640,"Ġcontras":6641,"Ġplaer":6642,"Ġdirectora":6643,"sco":6644,"ĠvÃŃdeos":6645,"Ġseleccion":6646,"Ġcontribuir":6647,"Ġdirigida":6648,"Ġrere":6649,"Ġdeixen":6650,"Ġmorts":6651,"Ã¨rcit":6652,"Ã±o":6653,"Ġcomplem":6654,"Ġperfectament":6655,"ĠespÃ¨cie":6656,"Ãºncia":6657,"lant":6658,"artista":6659,"Ġestal":6660,"Ġopos":6661,"ĠJocs":6662,"ĠNorm":6663,"ĠcapÃŃtol":6664,"Ġvies":6665,"Ġmanip":6666,"ĠCatalans":6667,"Ã²niques":6668,"ricte":6669,"Ġprofunda":6670,"ĠconfiguraciÃ³":6671,"Ġcomportament":6672,"Ġmarxar":6673,"ĠFernÃ¡ndez":6674,"Ġlloguer":6675,"xar":6676,"ĠIII":6677,"Ġpoema":6678,"Ġcomunicacions":6679,"ĠfÃłcilment":6680,"Ġcreixent":6681,"Ġposteriorment":6682,"lista":6683,"uig":6684,"ĠSants":6685,"ĠRosa":6686,"Ġpresa":6687,"Ġartes":6688,"Ġpensa":6689,"2016":6690,"Ġsomni":6691,"agradaria":6692,"Ġcomentari":6693,"titzaciÃ³":6694,"Ġvehicle":6695,"ĠtransparÃ¨ncia":6696,"06":6697,"vet":6698,"Ġcerc":6699,"inada":6700,"asa":6701,"Ġmarques":6702,"Espai":6703,"Ġ500":6704,"Ġopin":6705,"Ġtrencar":6706,"Ġesdeveniment":6707,"Ġsemblant":6708,"Ġrepresentant":6709,"Ġfrase":6710,"ĠPrograma":6711,"'t":6712,"elim":6713,"Ġtop":6714,"ostal":6715,"Ġencar":6716,"Ãłtics":6717,"ĠEU":6718,"Ã²tica":6719,"Ġdesf":6720,"ĠHistÃ²ria":6721,"ĠÃģ":6722,"ings":6723,"Ġnorma":6724,"Ġconceptes":6725,"Aquesta":6726,"Ġrelleu":6727,"acompany":6728,"efecte":6729,"eroport":6730,"Ap":6731,"Ġdinam":6732,"Ã²ric":6733,"ĠTo":6734,"ĠGr":6735,"desa":6736,"ĠHist":6737,"Ġpasseig":6738,"Ġrival":6739,"Ġpassi":6740,"Ġsignat":6741,"ĠSerÃł":6742,"Ġcategories":6743,"Ġparlen":6744,"Ġestructura":6745,"Ġves":6746,"Ã¨dit":6747,"Ġcomanda":6748,"ĠBÃ©":6749,"Ġexac":6750,"istema":6751,"Ġposada":6752,"Ġcanal":6753,"Ġseguida":6754,"Ġradic":6755,"Ġjuga":6756,"Ã¡s":6757,"ĠgratuÃ¯t":6758,"arribar":6759,"ĠÃºnicament":6760,"ĠlegislaciÃ³":6761,"Ġjudicial":6762,"Ġinterac":6763,"ik":6764,"ĠÃ²p":6765,"ĠdiÃłria":6766,"ĠdestÃŃ":6767,"ĠDol":6768,"ĠÃłmbit":6769,"ĠManresa":6770,"ĠdÃ¨cada":6771,"ĠlingÃ¼ÃŃstica":6772,"Ġlluitar":6773,"AgÃ¨ncia":6774,"ÑĤ":6775,"orts":6776,"Ġcaigu":6777,"ĠBell":6778,"Ãºssia":6779,"ostra":6780,"eure":6781,"cionalment":6782,"Ġreunir":6783,"Assemblea":6784,"Ġaugmentar":6785,"ĠdesplaÃ§a":6786,"Ġmoderna":6787,"ĠproveÃ¯":6788,"'.":6789,"36":6790,"istia":6791,"Ġrequis":6792,"ĠDavant":6793,"Ġrus":6794,"Ġconsells":6795,"Ġprimavera":6796,"Ġalluny":6797,"ĠespecÃŃfica":6798,"Ġtocs":6799,"Ġrespostes":6800,"ĠYork":6801,"Ġintegral":6802,"Ġpublicacions":6803,"Ġmicro":6804,"Ġtestimoni":6805,"29":6806,"Amb":6807,"Us":6808,"xo":6809,"Ġdro":6810,"Ã²lica":6811,"Ġprovocar":6812,"Ġacollir":6813,"aug":6814,"Ġrepublic":6815,"Ġfetes":6816,"Ġmoda":6817,"ĠÃºtil":6818,"Ġhabitacions":6819,"Ġutilitzant":6820,"ascens":6821,"Ġesportiu":6822,"Ġdepen":6823,"ĠmÃºltip":6824,"Ġfir":6825,"Ġgrec":6826,"ĠTorn":6827,"ĠTÃłrrega":6828,"Ġhip":6829,"Ġaposta":6830,"ardo":6831,"ĠProjecte":6832,"marca":6833,"ĠdinÃłmica":6834,"Ġcauses":6835,"Ġdicta":6836,"Ġdificultat":6837,"ĠSecreta":6838,"Ġconversa":6839,"dard":6840,"jats":6841,"olla":6842,"tet":6843,"ĠIgual":6844,"Ġrecti":6845,"vira":6846,"rista":6847,"ĠDiari":6848,"Ġpromoci":6849,"ĠPujol":6850,"Ġvoluntaris":6851,"Ġafecta":6852,"Ġlider":6853,"Ġbicicleta":6854,"Ġbatalla":6855,"Ġinferior":6856,"Is":6857,"sol":6858,"Ġda":6859,"Ġconvoca":6860,"Ġcamb":6861,"tesi":6862,"diat":6863,"ĠEnguany":6864,"hauria":6865,"Ġ36":6866,"Ġofereixen":6867,"Ġdirigir":6868,"ĠPrimÃłria":6869,"Ġplaneta":6870,"lotaciÃ³":6871,"Ġib":6872,"Ġmunt":6873,"ogia":6874,"lou":6875,"lusions":6876,"ĠturÃŃstic":6877,"ĠdÃ¨cades":6878,"Ð¾Ð":6879,"OB":6880,"ortar":6881,"Ġfit":6882,"Ġreals":6883,"ecess":6884,"ĠTwitter":6885,"Ġcaps":6886,"Ġmotiva":6887,"liaciÃ³":6888,"Ġbasat":6889,"igues":6890,"Ġanunciat":6891,"ĠadreÃ§a":6892,"ĠTenim":6893,"ĠMercat":6894,"ĠLuis":6895,"fum":6896,"ĠlÃº":6897,"alÃŃ":6898,"itÃ¨":6899,"Ġnoies":6900,"Ġefica":6901,"ĠGab":6902,"ĠVam":6903,"icis":6904,"extre":6905,"ĠParticip":6906,"Ġintent":6907,"estran":6908,"Ġpriva":6909,"duÃ¯da":6910,"Ġaportar":6911,"ĠconcentraciÃ³":6912,"morzar":6913,"ĠGarcÃŃa":6914,"bal":6915,"anterior":6916,"ĠconferÃ¨ncies":6917,"ĠBanc":6918,"ĠEstem":6919,"Ã¯m":6920,"ĠcontinuÃ¯tat":6921,"ĠProc":6922,"ĠciutadÃł":6923,"ĠlÃŃmit":6924,"Ġvincula":6925,"Ġdiputats":6926,"Ġdisponible":6927,"Ġevolu":6928,"ĠFabra":6929,"ĠRoger":6930,"22":6931,"Ġ33":6932,"lectiva":6933,"Ġconfigu":6934,"ĠrÃłpida":6935,"Ġveritable":6936,"Ã¨d":6937,"ostre":6938,"Ġarbres":6939,"Ġmeves":6940,"Ġgoverns":6941,"Ġautoritats":6942,"Ġviatjar":6943,"ĠficciÃ³":6944,"aig":6945,"isos":6946,"ĠMai":6947,"icada":6948,"assistÃ¨ncia":6949,"Ġpresos":6950,"Ġinformar":6951,"Ġpreguntar":6952,"Ġindependentistes":6953,"Ã¨xic":6954,"Ġinterpreta":6955,"UE":6956,"dÃł":6957,"Ġmonestir":6958,"informe":6959,"Ġredac":6960,"Ġext":6961,"Ġcomplicat":6962,"ĠEscola":6963,"nau":6964,"Ġrepor":6965,"ĠcooperaciÃ³":6966,"ĠFacebook":6967,"Ġobservar":6968,"hesiÃ³":6969,"Ġprocediment":6970,"nar":6971,"ineu":6972,"lau":6973,"Ã²d":6974,"hagi":6975,"legis":6976,"ĠQuin":6977,"2019":6978,"ĠPlataforma":6979,"ĠsÃŃmb":6980,"Ġtrenta":6981,"ĠSocials":6982,"Ġemocional":6983,"Ġmeravell":6984,"alguna":6985,"%,":6986,"Jo":6987,"mina":6988,"ws":6989,"Ġdates":6990,"guez":6991,"idal":6992,"ĠNÃºria":6993,"dures":6994,"pers":6995,"Ġpersonalitat":6996,"Ġ2004":6997,"Ġrepresentar":6998,"ĠmÃ¨tode":6999,"Ġronda":7000,"Ġfidel":7001,"CE":7002,"land":7003,"ĠÃ²r":7004,"ĠquÃŃm":7005,"Ġvides":7006,"Ġalum":7007,"ĠbÃł":7008,"dida":7009,"Ġpujada":7010,"Ġescen":7011,"remi":7012,"Ġoferim":7013,"Ġroman":7014,"........":7015,"ĠmodificaciÃ³":7016,"gol":7017,"Ġmall":7018,"investigaciÃ³":7019,"ĠSc":7020,"ĠSard":7021,"lid":7022,"Ġacull":7023,"Ġexterior":7024,"entada":7025,"Ġsentiments":7026,"Ġblocs":7027,"Ġpilota":7028,"Ġrutes":7029,"Ġexclusivament":7030,"unditat":7031,"Ca":7032,"ea":7033,"latura":7034,"Âª":7035,"Ġatre":7036,"atures":7037,"Ġneix":7038,"ĠCF":7039,"ĠCris":7040,"obres":7041,"Ã¨ncer":7042,"tena":7043,"tensiÃ³":7044,"ĠArts":7045,"Ġclarament":7046,"ĠcÃłrrecs":7047,"Ġcadascuna":7048,"adreÃ§a":7049,"brer":7050,"has":7051,"Ġcm":7052,"quines":7053,"ĠCel":7054,"ÃŃtim":7055,"usos":7056,"leta":7057,"Ã¨nia":7058,"Ġpols":7059,"Esp":7060,"Ġmuntanyes":7061,"Ġilles":7062,"ĠJapÃ³":7063,"gal":7064,"ĠMira":7065,"ĠEspanyola":7066,"Ã¯lla":7067,"Ġinternet":7068,"ĠUnivers":7069,"ĠturÃŃstica":7070,"Ġfigures":7071,"Ġmodificar":7072,"Ġdisponibles":7073,"ĠBlanc":7074,"ĠRiera":7075,"Ġtargeta":7076,"Ġriquesa":7077,"espa":7078,"Ġdegut":7079,"rep":7080,"ĠAs":7081,"ĠSt":7082,"Ġparada":7083,"arcar":7084,"Ġmatar":7085,"Ġrigor":7086,"Ġagrup":7087,"ĠJavi":7088,"ĠGrÃłcia":7089,"Ġampliar":7090,"__":7091,"ĠPlat":7092,"Ġactors":7093,"Ġcompe":7094,"Ġlletres":7095,"ional":7096,"ĠPolicia":7097,"Ġconsellera":7098,"Ġsurten":7099,"Ã²legs":7100,"Ġnombroses":7101,"Ġnombrosos":7102,"ĠhavÃŃem":7103,"09":7104,"cos":7105,"ĠNO":7106,"Ġimplan":7107,"Ġformada":7108,"ĠOs":7109,"Ġfinalitzar":7110,"Ġincrem":7111,"Ġdespesa":7112,"Ġrecordat":7113,"Ġprivat":7114,"Ġdigitals":7115,"Ġvirtu":7116,"ĠJornades":7117,"ĠMediterrÃłnia":7118,"Ġplantilla":7119,"ood":7120,"ry":7121,"Ġtrib":7122,"ĠGR":7123,"ĠVella":7124,"ĠPare":7125,"Ãłrrec":7126,"Ġbonic":7127,"Ġutilitzat":7128,"Ġescrita":7129,"ĠPaÃ¯sos":7130,"Ġreunions":7131,"ĠCastellÃ³":7132,"Ġpantalla":7133,"----":7134,"Ġreivindica":7135,"Ġescriptor":7136,"ĠllicÃ¨ncia":7137,"Ġretallades":7138,"queu":7139,"Ġenorm":7140,"issa":7141,"ĠautÃ²n":7142,"Ġpensant":7143,"ĠMuntany":7144,"Ġmoral":7145,"Ġconeguts":7146,"Ġnavegant":7147,"Ġnavegador":7148,"Ġespectacles":7149,"Ġreclama":7150,"Ġerrors":7151,"rari":7152,"real":7153,"ĠCli":7154,"questra":7155,"ĠBona":7156,"ĠGas":7157,"avan":7158,"Ġimplic":7159,"ĠAnd":7160,"Ġcontinuen":7161,"Ġsemblava":7162,"Ġinstitucional":7163,"Ġvicep":7164,"Ġacceptar":7165,"Ġcreativitat":7166,"ĠICV":7167,"IG":7168,"gÃłnica":7169,"à¸":7170,"Ġ)":7171,"Ġtitu":7172,"Ġfum":7173,"Ġner":7174,"Ġrevel":7175,"Ġblo":7176,"Ġpreser":7177,"Ġescenari":7178,"Ġinforme":7179,"ulars":7180,"Ġautom":7181,"Ġvendre":7182,"Ġcandidats":7183,"Ġaportacions":7184,"ĠRobert":7185,"Par":7186,"Sant":7187,"Ġgossos":7188,"ĠVen":7189,"Ġrecons":7190,"Ġembl":7191,"Ġreconegu":7192,"Ġplantejar":7193,"Ġcomplement":7194,"Ġcorresponents":7195,"atÃ¨gia":7196,"estrena":7197,"Ġrepetir":7198,"ĠrÃłpidament":7199,"Ġdotze":7200,"UL":7201,"Uni":7202,"ualitat":7203,"Ġ;":7204,"Ġidi":7205,"Ġfeix":7206,"Ġperjudi":7207,"Ġhonor":7208,"ĠCugat":7209,"ĠPon":7210,"Ġbur":7211,"Ġprogres":7212,"Ġexecu":7213,"imn":7214,"instal":7215,"orden":7216,"Ġtemple":7217,"Ġoptim":7218,"Ġguanyador":7219,"ĠcomenÃ§ament":7220,"Ġsobiran":7221,"Ġaugment":7222,"Ġaudiovisual":7223,"Ja":7224,"ate":7225,"gus":7226,"ĠEr":7227,"Ġprote":7228,"Ġposem":7229,"ĠmatemÃłtiques":7230,"Ġescollit":7231,"ficant":7232,"prÃ¨n":7233,"Ġfilm":7234,"Ġcircuit":7235,"Ġaspecte":7236,"Ġxifra":7237,"ĠjardÃŃ":7238,"bum":7239,"rell":7240,"Ġestu":7241,"Ġindis":7242,"Ġobre":7243,"ĠDeix":7244,"Ġjub":7245,"ĠBlan":7246,"emple":7247,"itzacions":7248,"Ġarren":7249,"ermita":7250,"ĠliterÃłria":7251,"Ġhabituals":7252,"Ġparticulars":7253,"Ġjurat":7254,"Ġestrany":7255,"indi":7256,"oluciÃ³":7257,"ĠCIU":7258,"Ġedicions":7259,"ĠFem":7260,"abast":7261,"allars":7262,"Ġescollir":7263,"legir":7264,"ĠCoopera":7265,"Ġidentificar":7266,"Ġpropietaris":7267,"ĠLlorenÃ§":7268,"ãģ":7269,"alÃ§ada":7270,"ind":7271,"Ġparlament":7272,"ĠDades":7273,"Ãºlia":7274,"ĠGonz":7275,"ĠpodrÃŃem":7276,"Ġpassos":7277,"Ġcanta":7278,"Ġguitar":7279,"Ġsortides":7280,"Ġtracte":7281,"Ġguanya":7282,"ĠActivitat":7283,"ogrÃłfiques":7284,"ĠInfantil":7285,"ĠMaresme":7286,"88":7287,"Aut":7288,"rons":7289,"Ġmenti":7290,"Ġaliment":7291,"Ã¨u":7292,"gue":7293,"lig":7294,"Ãºr":7295,"Ġtraduc":7296,"Ġplens":7297,"Ġ34":7298,"Ġadver":7299,"Ġverd":7300,"Ġimpulsar":7301,"tol":7302,"rael":7303,"ĠNot":7304,"ÃŃns":7305,"Ġ97":7306,"Ġmetge":7307,"Ġplanteja":7308,"aprovaciÃ³":7309,"habitatge":7310,"ĠconnexiÃ³":7311,"Ġalternativa":7312,"Ġfenomen":7313,"eib":7314,"ofici":7315,"Ġluc":7316,"ĠCos":7317,"Ġgru":7318,"idat":7319,"Ġvisual":7320,"Ġcoher":7321,"Ġpresidenta":7322,"Ġconsiderat":7323,"ĠcontractaciÃ³":7324,"Ġconcretament":7325,"encarreg":7326,"ĠGl":7327,"ogra":7328,"ĠJoaqu":7329,"ombra":7330,"Ġpesca":7331,"Ġpositiva":7332,"ĠestratÃ¨gies":7333,"Ġjutge":7334,"Ġflors":7335,"04":7336,"rint":7337,"Ġle":7338,"ĠBus":7339,"ĠFamÃŃ":7340,"Ġrecentment":7341,"ĠEst":7342,"essa":7343,"ĠprojecciÃ³":7344,"llant":7345,"ĠfÃłb":7346,"Ġessent":7347,"Ġgro":7348,"Ġvaga":7349,"Ġpotenciar":7350,"Ġincon":7351,"queologia":7352,"Ġcomencen":7353,"ago":7354,"Ġpuntu":7355,"Ġnacionals":7356,"Ġnotes":7357,"Ġsumat":7358,"dÃłc":7359,"gma":7360,"Ġcris":7361,"Ġmos":7362,"Ġtrim":7363,"Ã²tic":7364,"ĠNacions":7365,"Ġposs":7366,"Ġcomuns":7367,"ĠpreparaciÃ³":7368,"Ġmarcador":7369,"Ġdiputat":7370,"Ġeuropees":7371,"ĠfaÃ§ana":7372,"iar":7373,"ĠtÃŃtols":7374,"ĠAt":7375,"Ġdign":7376,"Ġacoll":7377,"inscripciÃ³":7378,"allot":7379,"avaluaciÃ³":7380,"Ġresponsab":7381,"Ġlegals":7382,"ĠMolts":7383,"Ġvalencians":7384,"Ġadaptar":7385,"ĠfÃŃsic":7386,"ĠclÃłssica":7387,"ĠinauguraciÃ³":7388,"Ġexpressar":7389,"ĠsecundÃłria":7390,"erna":7391,"anglÃ¨s":7392,"ĠnaciÃ³":7393,"Ã¨p":7394,"lez":7395,"exper":7396,"piraciÃ³":7397,"Ġsabeu":7398,"ĠopiniÃ³":7399,"Ġvermell":7400,"Ġmallor":7401,"De":7402,"Oficina":7403,"Ð½":7404,"anal":7405,"Ġeleg":7406,"Ġbr":7407,"Ġpassej":7408,"Ġintervencions":7409,"Ġcantant":7410,"enciat":7411,"ĠesdevÃ©":7412,"Ġorden":7413,"Ġpressupostos":7414,"caldessa":7415,"ĠDisseny":7416,"ĠbÃłsiques":7417,"IP":7418,"Ñģ":7419,"Ġsamar":7420,"Ġpero":7421,"Ġgos":7422,"Ġactiu":7423,"Ã¯da":7424,"ĠbÃ©ns":7425,"Ġhistoria":7426,"2014":7427,"Ġtrenca":7428,"ajud":7429,"Ġexposicions":7430,"ĠXXI":7431,"ĠXVIII":7432,"Ġplegats":7433,"Ġcaminar":7434,"Ġaproximadament":7435,"ĠUrb":7436,"ĠProfession":7437,"ĠparrÃ²quia":7438,"\":":7439,"70":7440,"mada":7441,"ecta":7442,"ĠMer":7443,"ids":7444,"blo":7445,"Ġvital":7446,"ĠAlemanya":7447,"Ġavall":7448,"Ġsituar":7449,"Ġsabia":7450,"ĠresidÃ¨ncia":7451,"Ġelaborat":7452,"ĠinfluÃ¨ncia":7453,"ĠLlengua":7454,"UM":7455,"Ã¨tics":7456,"asti":7457,"ĠBel":7458,"ĠIV":7459,"ĠpolÃ¨m":7460,"Ġtancament":7461,"Ġcenten":7462,"Ġreflexionar":7463,"ĠOrganitz":7464,"Ġpiscina":7465,"Ġsensibil":7466,"Ġrevolu":7467,"Ġboscos":7468,"Ġomplir":7469,"Ġrendiment":7470,"ĠmÃºltiples":7471,"Igual":7472,"hol":7473,"yer":7474,"Ġcrim":7475,"onen":7476,"Ġth":7477,"Ġengan":7478,"Ġescap":7479,"ĠLlo":7480,"ĠDrets":7481,"Ġactitud":7482,"ĠIl":7483,"ĠresistÃ¨ncia":7484,"Ġarts":7485,"...)":7486,"ĠUnides":7487,"Ġincomp":7488,"Ġinvestigadors":7489,"Ġantigues":7490,"ĠBatxillerat":7491,"Ġdelicte":7492,"ĠRafa":7493,"eibol":7494,".\"":7495,"QU":7496,"yo":7497,"Ġtrip":7498,"Ġfus":7499,"ĠredacciÃ³":7500,"Ġinqui":7501,"ĠMac":7502,"ĠFl":7503,"Ġllit":7504,"allÃł":7505,"Ã¯n":7506,"ĠAlta":7507,"Ġwebs":7508,"ĠmÃłr":7509,"Ġtip":7510,"Ġmantenen":7511,"ĠvaloraciÃ³":7512,"ĠcrÃŃtic":7513,"Ġriscos":7514,"Ġballar":7515,"ĠenllaÃ§os":7516,"Economia":7517,"Ġdanys":7518,"Ã§ades":7519,"ĠRÃºssia":7520,"ĠItÃłlia":7521,"dex":7522,"Ġaddi":7523,"Ġsoroll":7524,"Ġlocalitat":7525,"emÃłtic":7526,"ĠgrÃłfic":7527,"ĠPÃºblic":7528,"Cons":7529,"bes":7530,"iri":7531,"liar":7532,"ĠdidÃłc":7533,"teor":7534,"uida":7535,"Ġcomentar":7536,"Ġaconsegueix":7537,"rÃŃcul":7538,"Ġexcur":7539,"Ġcompromet":7540,"Ġanimal":7541,"ĠcoordinaciÃ³":7542,"fra":7543,"ieu":7544,"ish":7545,"Ġnoia":7546,"ĠLic":7547,"eixement":7548,"Ġdiada":7549,"ĠAllÃł":7550,"Ġtemporal":7551,"Ġconscient":7552,"Ġsimil":7553,"Ġconsolida":7554,"enfron":7555,"Ġengany":7556,"Ġmenjador":7557,"39":7558,"ila":7559,"ĠPic":7560,"Ġdesit":7561,"dient":7562,"ĠUnit":7563,"Ġrepeti":7564,"ĠJoventut":7565,"ĠCont":7566,"Ġtransmetre":7567,"Ġoportunitats":7568,"Ġhabilitats":7569,"unciar":7570,"Ġocupa":7571,"Ġaccepta":7572,"Ġperfecte":7573,"ĠinclÃ²s":7574,"TE":7575,"ĠEdu":7576,"usias":7577,"ĠDiu":7578,"Ġferm":7579,"ĠEsports":7580,"ĠDivisiÃ³":7581,"Ġ150":7582,"Arxiu":7583,"Ġvingut":7584,"Ġpessebre":7585,"Avui":7586,"ome":7587,"Ġenmig":7588,"ĠCicle":7589,"Ġcomiss":7590,"oto":7591,"Ġdial":7592,"verna":7593,"Ġapos":7594,"Ġpobresa":7595,"ĠQuim":7596,"Ġ2003":7597,"intercanvi":7598,"Ġdonava":7599,"ĠRecursos":7600,"Ant":7601,"Ġgeni":7602,"ĠPremis":7603,"clop":7604,"Ġsexual":7605,"ĠOriol":7606,"Ġterritoris":7607,"Ġdignitat":7608,"iors":7609,"Ġfull":7610,"ĠEt":7611,"ĠTota":7612,"ĠIb":7613,"Ġcartes":7614,"Ġimplem":7615,"Ġ32":7616,"ĠnegociaciÃ³":7617,"auto":7618,"Ġinteressats":7619,"Ġconscients":7620,"Ġfruita":7621,"ĠFelip":7622,"ÂĴ":7623,"anista":7624,"reci":7625,"isa":7626,"ĠGen":7627,"ĠcomposiciÃ³":7628,"Ġhivern":7629,"Ġpros":7630,"Ġformats":7631,"2012":7632,"Ġbuscant":7633,"ĠGarcia":7634,"Ġcorrecte":7635,"Ġlegislatura":7636,"Ġquarts":7637,"ĠmÃ²bils":7638,"ĠCiutadans":7639,"Ġpendent":7640,"guardia":7641,"ĠEUA":7642,"Pro":7643,"col":7644,"ler":7645,"ÑĢ":7646,"Ġclo":7647,"aterra":7648,"ĠSols":7649,"Ġacredi":7650,"Ġcarre":7651,"Ġplatges":7652,"Ġcorpora":7653,"ĠcampiÃ³":7654,"Ġrealitzen":7655,"Ġbaixes":7656,"Ġagradat":7657,"Ġsostenibilitat":7658,"Ġenergia":7659,"Ġaplicacions":7660,"Ġxocola":7661,"Hotel":7662,"Ori":7663,"Ġperdu":7664,"Ġrevistes":7665,"ech":7666,"ecs":7667,"oter":7668,"Ġbit":7669,"Ġtaxa":7670,"Ġadm":7671,"Ġprofunditat":7672,"ĠmÃłquina":7673,"Ġcontund":7674,"Ġ155":7675,"Ġiniciat":7676,"querres":7677,"Ġanomenada":7678,"Ġagradable":7679,"ĠAntonio":7680,"Ġcinquanta":7681,"Ġopinions":7682,"35":7683,"eo":7684,"anti":7685,"tien":7686,"rida":7687,"ĠSo":7688,"Ġprovar":7689,"ĠpoguÃ©s":7690,"Ġras":7691,"ĠConsorci":7692,"ĠGuÃłrdia":7693,"ĠartÃŃstic":7694,"Ġanunciar":7695,"ĠbalanÃ§":7696,"ĠAfeg":7697,"AV":7698,"esqu":7699,"tiss":7700,"ĠCOM":7701,"ĠreacciÃ³":7702,"Ġgreus":7703,"Ġovelles":7704,"ĠBr":7705,"Ġllistes":7706,"Ġtaules":7707,"Ġobtingut":7708,"Ġcreiem":7709,"Ġcorda":7710,"ĠestÃłs":7711,"Ġsalvar":7712,"Ġhabitatges":7713,"Ġmostrat":7714,"ĠManel":7715,"ĠTeresa":7716,"Ġbatxillerat":7717,"Ġjudici":7718,"Ġcadena":7719,"Ãī":7720,"ĠCard":7721,"Ġcadi":7722,"Ġjunt":7723,"vies":7724,"torals":7725,"ĠlÃŃders":7726,"udiÃ¨ncia":7727,"Ġesperant":7728,"ĠpodrÃłs":7729,"ĠAssociaciÃ³":7730,"Ġdenunciar":7731,"Ġfinestra":7732,"Ġmecanismes":7733,"08":7734,"LE":7735,"jades":7736,"ðŁ":7737,"ĠdivisiÃ³":7738,"essos":7739,"Ġseguidors":7740,"ĠInferm":7741,"Ġmeta":7742,"Ġsorte":7743,"ĠCasals":7744,"eriors":7745,"Ġvenen":7746,"Ġcompletar":7747,"Ġsaps":7748,"Ġproporcion":7749,"ĠBerga":7750,"ĠsatisfacciÃ³":7751,"ĠcientÃŃfics":7752,"ĠSenyor":7753,"ĠdonarÃł":7754,"Ġassass":7755,"Ġacaben":7756,"ĠprÃ¨viament":7757,"ĠfemenÃŃ":7758,"Ġtravess":7759,"07":7760,"dos":7761,"lli":7762,"ĠÃ©sser":7763,"ocar":7764,"ĠUAB":7765,"Ġcartell":7766,"ĠimplicaciÃ³":7767,"tilla":7768,"Ġinscripcions":7769,"Ġmoure":7770,"Ġcampan":7771,"Ġvergon":7772,"Ġrock":7773,"truir":7774,"ĠhistÃ²rics":7775,"ĠExp":7776,"Ġesportives":7777,"ĠVanguardia":7778,"Ġgiron":7779,"Ġbarreja":7780,"hel":7781,"lit":7782,"ph":7783,"inats":7784,"ĠCrec":7785,"istori":7786,"vesa":7787,"Ġviva":7788,"Ġescla":7789,"otacions":7790,"mental":7791,"incor":7792,"Ã¨cd":7793,"erial":7794,"afeg":7795,"Ġprivada":7796,"Ġacompanyats":7797,"Ġhoraris":7798,"ĠavanÃ§at":7799,"Ġaire":7800,"sionant":7801,"ĠConcurs":7802,"Ġvaixell":7803,"Di":7804,"oest":7805,"Ġnutri":7806,"ssar":7807,"Ġcercar":7808,"Ġaccessi":7809,"ĠdefiniciÃ³":7810,"Ġgarantia":7811,"Ġadequat":7812,"Ġblanca":7813,"aconseguir":7814,"ĠfeliÃ§":7815,"Ġhid":7816,"Ġgall":7817,"ĠDins":7818,"ĠrecÃ³rrer":7819,"abel":7820,"ĠescÃ¨n":7821,"Albert":7822,"Ġprepara":7823,"apartat":7824,"Ġregidors":7825,"esperanÃ§a":7826,"Ġmissa":7827,"ĠrevoluciÃ³":7828,"Ġindependentista":7829,"cu":7830,"coles":7831,"lÃ¨ncia":7832,"Ġtreu":7833,"Ġencap":7834,"adia":7835,"ilat":7836,"ĠNeg":7837,"uch":7838,"Ġcorpor":7839,"ĠQuina":7840,"estableix":7841,"ĠProduc":7842,"ĠÃłl":7843,"Ġsiga":7844,"Ġdemostrat":7845,"ĠnÃºmeros":7846,"Ġsenzilla":7847,"ument":7848,"Ġsals":7849,"antar":7850,"Ġmens":7851,"Ġfisc":7852,"riel":7853,"Ġhotels":7854,"dam":7855,"ĠSen":7856,"ĠanirÃł":7857,"ack":7858,"ĠllatÃŃ":7859,"institut":7860,"Ġescala":7861,"Ġcancel":7862,"Ġsolen":7863,"ratge":7864,"ÃŃnic":7865,"Ġsales":7866,"agrup":7867,"ĠfotÃ²graf":7868,"Ġproposar":7869,"Ġ75":7870,"emÃłtics":7871,"Ġgeneracions":7872,"ĠcurrÃŃcul":7873,"entisme":7874,"ĠestratÃ¨gia":7875,"Ġvivint":7876,"ĠcÃłncer":7877,"Ġestabliments":7878,"TR":7879,"gress":7880,"omena":7881,"ĠLiter":7882,"Ġangles":7883,"dees":7884,"ĠCompany":7885,"ĠNoguera":7886,"reres":7887,"Ġemprened":7888,"fiquen":7889,"Ġexercici":7890,"Ġgastronomia":7891,"Ġencaix":7892,"Ġingredi":7893,"ĠhÃłbits":7894,"At":7895,"ile":7896,"mol":7897,"Ġtir":7898,"obertura":7899,"ilia":7900,"Ġpresen":7901,"edor":7902,"Ġcastells":7903,"ĠMarina":7904,"escal":7905,"ĠmociÃ³":7906,"Ġveient":7907,"ĠdinÃłm":7908,"Ġconservar":7909,"Ġexcepte":7910,"Ġextrem":7911,"Ġsusp":7912,"Ġsugger":7913,"ĠGrÃ¨cia":7914,"UC":7915,"ahir":7916,"encar":7917,"inicia":7918,"ĠCirc":7919,"ulen":7920,"ĠGaud":7921,"identi":7922,"viure":7923,"expos":7924,"Ġsolament":7925,"queting":7926,"Ġcomunicat":7927,"dicciÃ³":7928,"Ġ65":7929,"Ġopera":7930,"Ġreben":7931,"Ġdestaquen":7932,"Ġcristians":7933,"ĠacadÃ¨mic":7934,"ĠplanificaciÃ³":7935,"Os":7936,"Ġ$":7937,"ann":7938,"ĠmÃŃ":7939,"ĠmÃ¨ri":7940,"ĠPunt":7941,"utbol":7942,"ĠEstudi":7943,"edia":7944,"Ġpotencial":7945,"Ġsolar":7946,"vissa":7947,"Ġcampanyes":7948,"Ġescolars":7949,"198":7950,"Ġnormalment":7951,"ANC":7952,"ĠReglament":7953,"Ġcontrolar":7954,"Ġfactor":7955,"Ġhorari":7956,"Ġaprofitant":7957,"ĠMercÃ¨":7958,"Ġnovetat":7959,"TS":7960,"endes":7961,"Ġtrop":7962,"ĠfÃ²rum":7963,"letes":7964,"ĠTin":7965,"ight":7966,"egat":7967,"ĠUns":7968,"Ġcalia":7969,"Ġcaldria":7970,"Ġplata":7971,"ller":7972,"Ġdesenvolupa":7973,"Ġrebel":7974,"Ġdiscu":7975,"Ġenfron":7976,"Ġesdevenir":7977,"Ġacords":7978,"ĠfundaciÃ³":7979,"Ġconductor":7980,"ius":7981,"nom":7982,"Ġmu":7983,"Ġvoca":7984,"Ġesqu":7985,"ĠMass":7986,"ulant":7987,"Ġparelles":7988,"Ġanaven":7989,"ĠGel":7990,"vila":7991,"ĠComÃº":7992,"ĠOl":7993,"Esquadra":7994,"Ġsabut":7995,"Ġsentiment":7996,"2013":7997,"ĠColoma":7998,"ĠLlibre":7999,"ĠmÃŃnima":8000,"ĠVolem":8001,"Ġclubs":8002,"Ġoriginals":8003,"ÃĴ":8004,"orge":8005,"Ġnet":8006,"ĠCV":8007,"Ġnois":8008,"Ġgaudi":8009,"irat":8010,"ĠDic":8011,"Ġvoltes":8012,"Ġplana":8013,"Ġvisu":8014,"ender":8015,"Ġ400":8016,"ĠaparÃ¨ixer":8017,"Ġespanyoles":8018,"Ġmisteri":8019,"AragÃ³":8020,"Ensenyament":8021,"atac":8022,"king":8023,"Ġesquerra":8024,"Ã¨ric":8025,"astre":8026,"Ã§Ã²":8027,"ĠcomptarÃł":8028,"Ġprevi":8029,"Ġguer":8030,"Ġpobres":8031,"ĠpropÃ²sit":8032,"Ġportada":8033,"discipl":8034,"ĠpermÃŃs":8035,"ĠCorts":8036,"ĠRovira":8037,"ĠCiÃ¨ncia":8038,"Ġsemblar":8039,"ĠVerda":8040,"Ġperiodistes":8041,"ĠPortu":8042,"Ġensenyar":8043,"Ġluxe":8044,"ĠGuillem":8045,"hospital":8046,"ky":8047,"alimentaciÃ³":8048,"Ġallar":8049,"ĠPER":8050,"ĠMem":8051,"Ġactiv":8052,"ĠassociaciÃ³":8053,"Ġestatal":8054,"Ġsorra":8055,"Ġrealitzades":8056,"onÃ²miques":8057,"Ġhumanitat":8058,"Ġprivades":8059,"Ġintensitat":8060,"Ġparlamenta":8061,"Ġpercentatge":8062,"iat":8063,"lvar":8064,"zena":8065,"Ġlema":8066,"onant":8067,"inen":8068,"ustament":8069,"ĠcafÃ¨":8070,"Ġtrobades":8071,"ficients":8072,"Ġbonica":8073,"ICV":8074,"ĠGrama":8075,"ĠdepÃ¨n":8076,"Ġpublici":8077,"Ġrenova":8078,"habilitaciÃ³":8079,"Ã³rmula":8080,"ĠInfermera":8081,"03":8082,"Gu":8083,"OG":8084,"Ġmals":8085,"alumnes":8086,"Ġtro":8087,"Ġaltes":8088,"ĠCru":8089,"ĠPoble":8090,"Ġnoi":8091,"sius":8092,"ĠanÃłlisi":8093,"ĠRamb":8094,"ĠMartin":8095,"Ġorgull":8096,"Ġparticipatiu":8097,"Ġveter":8098,"Ġ2002":8099,"ĠagrÃŃ":8100,"2010":8101,"ĠSoler":8102,"ĠJuli":8103,"Ġsimilar":8104,"locar":8105,"76":8106,"vella":8107,"ĠcÃ³rrer":8108,"Ġenri":8109,"ĠCha":8110,"anten":8111,"ley":8112,"ĠMÃ¨xic":8113,"Ġacol":8114,"ĠNic":8115,"ĠmatrÃŃ":8116,"Ġdisting":8117,"Ġsupera":8118,"Ġjoventut":8119,"Ġfacilitat":8120,"Ġinfantils":8121,"Ġvirtual":8122,"Ġvivim":8123,"ĠEspeci":8124,"Ġeliminar":8125,"ospitalet":8126,"dics":8127,"Ġmac":8128,"alem":8129,"Ġnadal":8130,"rovis":8131,"ĠPin":8132,"leix":8133,"upaciÃ³":8134,"actitud":8135,"ego":8136,"ĠJer":8137,"...\"":8138,"Ġ38":8139,"Ġcampanar":8140,"fecciÃ³":8141,"Ġminist":8142,"Ġintenta":8143,"Ġturistes":8144,"ĠDEL":8145,"Ġvalenciana":8146,"Ġpublicada":8147,"Ġfonamentals":8148,"Ġcooperativa":8149,"Ġbotigues":8150,"Ġcicl":8151,"Em":8152,"TQ":8153,"sel":8154,"anunci":8155,"Ġlater":8156,"alli":8157,"Ġunitats":8158,"ĠTru":8159,"orten":8160,"Ġexplor":8161,"Ġramad":8162,"Ġ2001":8163,"ĠTampoc":8164,"rÃŃguez":8165,"aquelles":8166,"ĠMasnou":8167,"Ġincloent":8168,"Ġsignificat":8169,"Ġquinze":8170,"ĠreligiÃ³":8171,"ĠDirectiva":8172,"Ġfemenina":8173,"Ġepis":8174,"79":8175,"fre":8176,"Ġger":8177,"Ġprob":8178,"urt":8179,"Ġdip":8180,"Ġdesigual":8181,"ĠFlor":8182,"Ġacud":8183,"ĠGol":8184,"ĠJard":8185,"ima":8186,"Ġtradicions":8187,"ĠMaratÃ³":8188,"ĠInc":8189,"Ġestada":8190,"Ġnegativa":8191,"Ġdemanen":8192,"Ġdifondre":8193,"ĠTorra":8194,"Ġmulti":8195,"Ġremun":8196,"Ġclassificat":8197,"alumne":8198,"Ġerror":8199,"Ġinnovador":8200,"ĠjurÃŃdica":8201,"ĠcontaminaciÃ³":8202,"ĠtransiciÃ³":8203,"Ġjaciment":8204,"ĠeficaÃ§":8205,"Re":8206,"endi":8207,"quÃ©":8208,"Ġfili":8209,"olls":8210,"istan":8211,"odis":8212,"egants":8213,"Ġensenya":8214,"Ġvisitat":8215,"Ġconsideren":8216,"ĠgrÃłcia":8217,"ĠpresentarÃł":8218,"Ġcurta":8219,"Ġcombina":8220,"ĠpermanÃ¨ncia":8221,"ĠRibera":8222,"lÃŃmp":8223,"Ġblaug":8224,"Ġquantes":8225,"Ġarquitect":8226,"Ġvulnera":8227,"34":8228,"gic":8229,"mica":8230,"isenda":8231,"ĠSeb":8232,"Ġmaquin":8233,"Ġformacions":8234,"ĠÃĴ":8235,"endemÃł":8236,"Ġdescobreix":8237,"ĠveÃŃ":8238,"Ġhabilitat":8239,"Ġnega":8240,"Ġincloure":8241,"Ġsucre":8242,"ĠsolidÃłria":8243,"Ġtraslladar":8244,"ĠRodrÃŃguez":8245,"Ġinstruments":8246,"Ġcostum":8247,"augment":8248,"far":8249,"Ġpistes":8250,"icats":8251,"Ġbisbe":8252,"ĠGin":8253,"egen":8254,"Ġmandat":8255,"Ġcossos":8256,"Ġsubvencions":8257,"Ġnegra":8258,"Ġrebuig":8259,"Ġestudiant":8260,"ĠFranci":8261,"Ġposicions":8262,"Ġpracticar":8263,"Ġindrets":8264,"Ġgaranteix":8265,"quÃ©s":8266,"quera":8267,"andes":8268,"atx":8269,"Ġinversions":8270,"ĠoposiciÃ³":8271,"alsevol":8272,"Ġrecop":8273,"Ġcapella":8274,"ĠplÃłstic":8275,"establi":8276,"ĠrepressiÃ³":8277,"Ġprofessora":8278,"Ġtelevis":8279,"Ġsensibilitat":8280,"Ġdestacats":8281,"Ġservidor":8282,"][":8283,"gades":8284,"Ġaules":8285,"ĠfÃŃ":8286,"Ġhospital":8287,"ĠED":8288,"dies":8289,"adr":8290,"ĠResp":8291,"Ġcreuen":8292,"ĠMarÃŃa":8293,"Ġmental":8294,"Ġadonar":8295,"Ġusuari":8296,"Ġbasada":8297,"Ġsocialista":8298,"Ġgraus":8299,"ordinador":8300,"Ġpenal":8301,"ambient":8302,"Ġpintor":8303,"Ġdeute":8304,"ĠcrÃ²nica":8305,"Ġsuposat":8306,"olescent":8307,"Ġavantatges":8308,"ĠEsteve":8309,"Ġalemany":8310,"datura":8311,"Ã¨tiques":8312,"Ġgris":8313,"Ġcau":8314,"ĠFÃ²rum":8315,"Ġmatrimoni":8316,"Ġescena":8317,"Ġsuperiors":8318,"Ġinformacions":8319,"Ġeconomia":8320,"Ġdocent":8321,"Ġ189":8322,"laboradors":8323,"ĠcinquÃ¨":8324,"Ġafectats":8325,"Ġfrancesa":8326,"Ġpaisatges":8327,"Ġabsolu":8328,"ĠreproducciÃ³":8329,"humor":8330,"Ġtindrem":8331,"lats":8332,"vÃł":8333,"vitat":8334,"ĠsÃŃn":8335,"Ġnar":8336,"ĠCrea":8337,"Ġnoc":8338,"Ġingressos":8339,"Ġprovis":8340,"ĠBot":8341,"ĠLabor":8342,"edic":8343,"Ġverda":8344,"Ġdocents":8345,"Ã²stic":8346,"ĠCanal":8347,"Ġrecords":8348,"Ġorigen":8349,"Ġregidora":8350,"Ġindividuals":8351,"ogrÃłfics":8352,"Ġrecomanem":8353,"Ġexisteixen":8354,"ĠDemocrÃł":8355,"ĠintegraciÃ³":8356,"Ġxifres":8357,"Ġdimensions":8358,"Internet":8359,"EP":8360,"Hi":8361,"ilaciÃ³":8362,"mans":8363,"tÃ©":8364,"omet":8365,"ĠCO":8366,"assos":8367,"Ġpatit":8368,"legar":8369,"estima":8370,"Ġentrat":8371,"Ġmillores":8372,"ĠJove":8373,"Ġrepresenten":8374,"aquella":8375,"impuls":8376,"Ġlegi":8377,"Ġmanifestar":8378,"Ġparlava":8379,"ÃĢrea":8380,"Ġpisos":8381,"Ġnegocis":8382,"ĠclÃłssics":8383,"cadÃ¨mia":8384,"Ġblau":8385,"Ġadquirir":8386,"Ġprivilegi":8387,"Ġvideo":8388,"Ġequipaments":8389,"Catal":8390,"31":8391,"ĠsÃ¨ries":8392,"Ġfren":8393,"ĠDuran":8394,"avin":8395,"Ġpassava":8396,"Ãłncies":8397,"Ġ--":8398,"loca":8399,"Ġsecret":8400,"Ã¡lez":8401,"Ġagrair":8402,"explica":8403,"Ġimmob":8404,"Ġcobrir":8405,"ĠInstitu":8406,"Ġxiquets":8407,"Ġxocolata":8408,"ĠcurrÃŃculum":8409,"osi":8410,"ĠrevisiÃ³":8411,"ĠLaura":8412,"Ġconsecu":8413,"Ġartista":8414,"exterior":8415,"ĠestÃłn":8416,"ĠConser":8417,"Ġsocialistes":8418,"ĠmajoritÃłria":8419,"ĠveÃ¯nes":8420,"ĠdestinaciÃ³":8421,"Ġdeterminats":8422,"Ġsobir":8423,"Ġrecolz":8424,"ĠrenovaciÃ³":8425,"ĠbritÃł":8426,"Ġprogramari":8427,"Ġmanifestacions":8428,"Ġvessant":8429,"ĠRipollÃ¨s":8430,"Ġcentenars":8431,"Hospitalet":8432,"dir":8433,"ff":8434,"Ġ?":8435,"ĠmÃłster":8436,"oler":8437,"Ġinven":8438,"Ġprotoc":8439,"orama":8440,"Ġcanals":8441,"ĠmenÃº":8442,"Ġinformat":8443,"Ġtalent":8444,"ĠJohn":8445,"Ġtranspor":8446,"Ġproposat":8447,"ĠcontÃŃn":8448,"explotaciÃ³":8449,"Ġmultitud":8450,"Ġviatgers":8451,"monis":8452,"ĠPasqu":8453,"ĠfracÃłs":8454,"Ġalliber":8455,"ĠCristina":8456,"AG":8457,"EB":8458,"tive":8459,"Ġtrobo":8460,"Ġincorporar":8461,"Ġfabrica":8462,"Ġcertificat":8463,"ĠSelva":8464,"01":8465,"mal":8466,"rents":8467,"sha":8468,"iteu":8469,"ĠSem":8470,"Ġparades":8471,"ĠVill":8472,"ĠUB":8473,"ham":8474,"Ġfeines":8475,"ĠConferÃ¨ncia":8476,"Ġbene":8477,"Ġriure":8478,"Ġescrits":8479,"Ġfemin":8480,"cisme":8481,"ĠcirculaciÃ³":8482,"Ġintroduir":8483,"Ġarguments":8484,"ĠGonzÃ¡lez":8485,"Ġgruix":8486,"Ġnoctur":8487,"AtenciÃ³":8488,"Mar":8489,"bon":8490,"Ġata":8491,"Ġcir":8492,"ĠmÃº":8493,"Ġtomb":8494,"iners":8495,"Ġalcalde":8496,"Ġsexe":8497,"Ġrecin":8498,"ĠAM":8499,"ĠMc":8500,"Ġedats":8501,"ĠDig":8502,"ĠVidal":8503,"Ġintern":8504,"Ġdescend":8505,"Ġdocumen":8506,"Ġservit":8507,"Ġinicis":8508,"Ġdecideix":8509,"Ġsenyal":8510,"Ġfacilita":8511,"excel":8512,"Ġcorrectament":8513,"ĠMediterrani":8514,"Ġrequereix":8515,"etu":8516,"Ġavi":8517,"Ġmoss":8518,"Ġbuit":8519,"ĠLos":8520,"Ġhaurem":8521,"Ġarti":8522,"Ġimpostos":8523,"Ġjazz":8524,"ĠQuant":8525,"Ġpapers":8526,"Ġromana":8527,"ropoli":8528,"Ġproporciona":8529,"ĠincorporaciÃ³":8530,"ĠvivÃ¨ncies":8531,"escriptor":8532,"Ġtrimestre":8533,"ĠmatrÃŃcula":8534,"48":8535,"onades":8536,"rog":8537,"ith":8538,"Ġcomuna":8539,"lam":8540,"ĠSelec":8541,"ĠFe":8542,"emps":8543,"Ġcomprendre":8544,"utx":8545,"Ġmuntatge":8546,"Ġjogu":8547,"espÃ¨":8548,"Ġbaixada":8549,"Ġpropietats":8550,"Ġvoluntari":8551,"Ġresidents":8552,"ĠDiada":8553,"ĠpreocupaciÃ³":8554,"Ġenvolta":8555,"Ġsacri":8556,"ĠPirineu":8557,"32":8558,"ugu":8559,"ĠaC":8560,"algunes":8561,"Ġfib":8562,"Ġfaria":8563,"Ġenregist":8564,"Ġsep":8565,"ĠDones":8566,"avellÃ³":8567,"ogar":8568,"execuciÃ³":8569,"Ġemerg":8570,"loure":8571,"Ġempa":8572,"Ġsabor":8573,"Ġrenda":8574,"ĠcÃłrrega":8575,"ĠvoluntÃłria":8576,"Ġdestinat":8577,"Ġestablert":8578,"Ġpropietari":8579,"ĠcÃłmera":8580,"estudis":8581,"uster":8582,"ĠparÃł":8583,"ĠDim":8584,"versiÃ³":8585,"Ġvoldria":8586,"Ġsocietats":8587,"Ġemmagatzem":8588,"Ġavalu":8589,"Ġprofund":8590,"aranta":8591,"Ġforts":8592,"ĠLlull":8593,"Ġmanifestat":8594,"Ġincorpora":8595,"Ġconfirmar":8596,"boiÃł":8597,"Ġalternatives":8598,"Ġrequisits":8599,"ÃŃnsula":8600,"ĠJoaquim":8601,"38":8602,"aeroport":8603,"ĠÃ©":8604,"arxiu":8605,"ĠmissiÃ³":8606,"ich":8607,"ĠPallars":8608,"ĠMÃłster":8609,"assegu":8610,"Ġtast":8611,"urada":8612,"Ġfinalitats":8613,"Ġestacions":8614,"ĠsalvaciÃ³":8615,"Ġtransvers":8616,"Ġgovernar":8617,"Ġinfin":8618,"ĠCampus":8619,"mÃłtica":8620,"Ġsuau":8621,"tÃłnia":8622,"ĠcombinaciÃ³":8623,"Ãłnima":8624,"ĠmagnÃŃfic":8625,"Ġitali":8626,"Ġbandera":8627,"esdeveniment":8628,"ĠMuntanyesa":8629,"idi":8630,"th":8631,"ĠvotaciÃ³":8632,"Ġseix":8633,"Ġcai":8634,"ĠRiu":8635,"itzats":8636,"Ġrecoll":8637,"ĠpassarÃł":8638,"Ġ39":8639,"Ġplau":8640,"Ġoccidental":8641,"glaterra":8642,"Ġnovament":8643,"Ġnegar":8644,"ĠreferÃ¨ncies":8645,"Ġrecordo":8646,"Ġcontractes":8647,"estratÃ¨gia":8648,"Ġelaborar":8649,"ĠrecepciÃ³":8650,"ĠsÃ²l":8651,"Ġtransformar":8652,"Ġdetectar":8653,"Ġteixit":8654,"Ġinjust":8655,"Ġnascut":8656,"Ġmatinada":8657,"75":8658,"Ġpur":8659,"ciclop":8660,"Ġnu":8661,"Ġparet":8662,"Ġimpacte":8663,"Ġsensacions":8664,"Ġguar":8665,"Ġcurses":8666,"Ġespectadors":8667,"Ġcompanyies":8668,"Ġafegeix":8669,"odiversitat":8670,"Ġsuposar":8671,"Ġcostos":8672,"ĠConstitucional":8673,"Ġuniversal":8674,"Ġpeixos":8675,"ĠhaurÃŃem":8676,"Ġlit":8677,"ĠPoc":8678,"liques":8679,"tex":8680,"ace":8681,"ĠJan":8682,"ĠEstic":8683,"Ġusos":8684,"ĠecolÃ²gica":8685,"Ġcerim":8686,"ĠÃłrab":8687,"Ġpatro":8688,"Ġcandidatura":8689,"Ġderrotes":8690,"Ġsignar":8691,"umpte":8692,"ĠLiceu":8693,"cats":8694,"ld":8695,"entals":8696,"inant":8697,"emerg":8698,"Ġparcial":8699,"ĠResta":8700,"uma":8701,"Ġpartid":8702,"iliar":8703,"egudes":8704,"grau":8705,"Ġpensava":8706,"ĠmÃłquines":8707,"Ġcompartit":8708,"Ġpateix":8709,"ĠdifÃŃcils":8710,"Ġconvidat":8711,"acaba":8712,"Ġpermeti":8713,"Ġconsiderem":8714,"Ġeditorial":8715,"Ġexpressa":8716,"ĠPrincipat":8717,"Ġsaludable":8718,"UB":8719,"arts":8720,"Ġmm":8721,"Ġnena":8722,"roqui":8723,"ĠPilar":8724,"Ġparets":8725,"avo":8726,"Ġcares":8727,"Ġpuja":8728,"ĠAlg":8729,"ĠXIII":8730,"ĠQualsevol":8731,"Ġversions":8732,"Ġlleure":8733,"Ġinteressades":8734,"Ġreflexions":8735,"Ġenlloc":8736,"ĠbÃłsica":8737,"equilibri":8738,"Ġendins":8739,"ĠmediaciÃ³":8740,"ÃŃgens":8741,"ĠFrancisco":8742,"Aten":8743,"NI":8744,"Ġdedi":8745,"ĠcÃŃ":8746,"Ġtrets":8747,"Ġfanta":8748,"urb":8749,"Ġcaixa":8750,"ĠFo":8751,"Ġactituds":8752,"Ġexhib":8753,"opista":8754,"Ġposse":8755,"ĠEspanyol":8756,"Ġpuguem":8757,"Ġcolles":8758,"Ġveurem":8759,"ĠprofessiÃ³":8760,"ĠmÃłgia":8761,"Ġelectorals":8762,"ĠColom":8763,"ĠExc":8764,"ĠRoig":8765,"Ġsemblen":8766,"Ġmediamb":8767,"Ġrefugiats":8768,"Ġadolescents":8769,"Ġdav":8770,"ĠEduca":8771,"ĠTh":8772,"ĠBrus":8773,"empat":8774,"Ġcreada":8775,"Ġtractat":8776,"truccions":8777,"Ġcentra":8778,"Ġmodalitat":8779,"Ġpromou":8780,"Ġcapacitats":8781,"Ġprotagonisme":8782,"osses":8783,"Ġurbana":8784,"Ġvigil":8785,"Ġdivertida":8786,"Ġrecicl":8787,"ĠevoluciÃ³":8788,"ĠGabriel":8789,"oterÃłpia":8790,"78":8791,"seg":8792,"organ":8793,"inet":8794,"Ġenvia":8795,"Ġbro":8796,"Ġarross":8797,"Ġvita":8798,"toria":8799,"Ġrepass":8800,"Ġemissions":8801,"ĠCast":8802,"ĠÃłrea":8803,"Ġreferents":8804,"ĠPublic":8805,"Ġretrob":8806,"Ġfulles":8807,"ĠfantÃłstic":8808,"ĠSebasti":8809,"Car":8810,"Ġtron":8811,"atg":8812,"tein":8813,"ĠFutbol":8814,"edrÃł":8815,"Ġdonem":8816,"Ġexpecta":8817,"Ġverdures":8818,"ĠtransmissiÃ³":8819,"Ġespecialitzada":8820,"Ġpunta":8821,"Ã²sits":8822,"Ġdintre":8823,"ĠatÃ¨s":8824,"ĠromÃłn":8825,"Ġmercats":8826,"Ġdeclarat":8827,"Ġconvidats":8828,"horari":8829,"ĠSEO":8830,"ĠdiscriminaciÃ³":8831,"ĠMobilitat":8832,"fumet":8833,"ĠSardenya":8834,"Ġingredients":8835,"Ala":8836,"Cat":8837,"cem":8838,"gs":8839,"oa":8840,"ucions":8841,"Ġceb":8842,"aleg":8843,"Ġpern":8844,"Ġuni":8845,"Ġbiblioteques":8846,"Ġdiria":8847,"ĠBos":8848,"ĠFom":8849,"ĠFons":8850,"ĠmatÃ¨ries":8851,"ĠcolÃ²nies":8852,"ĠOfer":8853,"ĠOlot":8854,"Ġrelats":8855,"Ġrealitzada":8856,"Ġlletra":8857,"Ġtotalitat":8858,"Ġapropar":8859,"ĠMafumet":8860,"Ġguanyadors":8861,"ICI":8862,"Ġmedicina":8863,"Estatut":8864,"Ġdescobert":8865,"Ġatemp":8866,"ĠAmÃ¨rica":8867,"ĠenergÃ¨tica":8868,"ĠintroducciÃ³":8869,"ĠnÃºvols":8870,"ĠcomprensiÃ³":8871,"Ġlucre":8872,"ĠFamÃŃlia":8873,"oda":8874,"tera":8875,"erals":8876,"ciÃł":8877,"Ġpertin":8878,"inten":8879,"ĠPorta":8880,"ĠSh":8881,"ĠMent":8882,"ĠTre":8883,"Ãºries":8884,"ĠRu":8885,"illo":8886,"Ġtemperat":8887,"ĠAlgunes":8888,"ĠCarrer":8889,"Ġcentenar":8890,"Ġrecuper":8891,"ĠColla":8892,"ĠelectrÃ²nics":8893,"Ġliterari":8894,"Ġdeterminat":8895,"Ġpilot":8896,"Ġregions":8897,"Ġexactament":8898,"Ġcaiguda":8899,"ĠfÃłbrica":8900,"ĠvocaciÃ³":8901,"DE":8902,"HistÃ²ria":8903,"ndia":8904,"Ġcomodi":8905,"ĠPont":8906,"ĠApar":8907,"Ġgat":8908,"Ġ(âĢľ":8909,"ĠFou":8910,"tino":8911,"Ġcomplica":8912,"Ġapunta":8913,"Ġdispar":8914,"tÃłries":8915,"Ġmanual":8916,"Ġpotent":8917,"Ġ48":8918,"Ġtaron":8919,"Ġcomparteix":8920,"Ġsorprendre":8921,"ĠEmpresa":8922,"Ġrecepta":8923,"Ġconsolidar":8924,"CIÃĵ":8925,"escripciÃ³":8926,"ĠCambra":8927,"ĠpedagÃ²g":8928,"Ġmetodologia":8929,"Ġlideratge":8930,"02":8931,"CN":8932,"din":8933,"nal":8934,"van":8935,"Ġu":8936,"Ġatura":8937,"Ġpion":8938,"orld":8939,"Ġmerca":8940,"Ġconci":8941,"Ġdesemb":8942,"ĠTR":8943,"itzen":8944,"Ġrecor":8945,"posar":8946,"Ġtrobava":8947,"ĠÃºnics":8948,"Ġajudes":8949,"ĠperiÃ²":8950,"mentada":8951,"ĠcrÃŃtiques":8952,"Ġfaltar":8953,"ĠBeat":8954,"ĠTele":8955,"Ġesdevingut":8956,"Ġirregular":8957,"Ġdictadura":8958,"gem":8959,"ivissa":8960,"lin":8961,"sers":8962,"Ġsons":8963,"Ġmons":8964,"ĠCany":8965,"Ġrellot":8966,"entitats":8967,"ĠportarÃł":8968,"escena":8969,"establ":8970,"Ġriv":8971,"ĠinfÃłncia":8972,"Ġnecessitem":8973,"Ġrelacionada":8974,"luÃ¨ncia":8975,"Ġdistribu":8976,"Ġcircular":8977,"ĠtrÃłmits":8978,"Ġestructures":8979,"ĠubicaciÃ³":8980,"Ġtestimonis":8981,"Ġdispositiu":8982,"Ġdrogues":8983,"Ġbloque":8984,"Ġlici":8985,"ony":8986,"Ġesb":8987,"ĠPan":8988,"ĠPlan":8989,"ĠTec":8990,"Ã§ats":8991,"anyola":8992,"ĠcapÃŃtols":8993,"ĠHotel":8994,"Ġcomunica":8995,"ineus":8996,"Ġtreballadores":8997,"Ġefectiva":8998,"ĠSegur":8999,"Ġfruits":9000,"Ġrecomanable":9001,"Ġsorgir":9002,"ĠCambrils":9003,"gustÃŃ":9004,"UT":9005,"ju":9006,"rement":9007,"aliciÃ³":9008,"Ã©r":9009,"ĠesglÃ©sia":9010,"use":9011,"ĠSil":9012,"mposta":9013,"Ġexistents":9014,"ĠUnitat":9015,"Ġcreant":9016,"ami":9017,"cidents":9018,"ĠRef":9019,"Ġtornen":9020,"ĠLloc":9021,"Ġbasa":9022,"Ġrespectar":9023,"Ġrespectivament":9024,"ĠdistribuÃ¯":9025,"Ġafirmar":9026,"Ġreceptes":9027,"Ġaprofund":9028,"EmpordÃł":9029,"ĠFernando":9030,"Ġarrel":9031,"ĠautomÃłtica":9032,"65":9033,"AE":9034,"Oli":9035,"gas":9036,"pin":9037,"asiÃ³":9038,"ĠMessi":9039,"Ġvagi":9040,"onaments":9041,"Ġconsistori":9042,"Ġtari":9043,"Ġprevista":9044,"Ġllibrer":9045,"Ġexpliquen":9046,"Ġtallar":9047,"Ġsalv":9048,"teriorment":9049,"Ġnaz":9050,"Ġllac":9051,"vingut":9052,"ĠBarris":9053,"Ġ1999":9054,"ÃĢfrica":9055,"ĠtendÃ¨ncies":9056,"utilitat":9057,"ĠNotÃŃcies":9058,"Ġsimilars":9059,"Ġcarreteres":9060,"mel":9061,"enques":9062,"tatu":9063,"Ġalter":9064,"Ġaneu":9065,"ĠCamÃŃ":9066,"Ġpotenci":9067,"Ġassocia":9068,"Ġguarda":9069,"ĠSantboiÃł":9070,"Ġplas":9071,"ĠrealitzarÃł":9072,"Ġconeixem":9073,"Ġesports":9074,"Ġconsultes":9075,"Ġadequada":9076,"Ġfrontera":9077,"Ġbrillant":9078,"ĠvÃŃctima":9079,"Ġconjunta":9080,"Ġatendre":9081,"ĠcontemporÃłnia":9082,"Ġfranquisme":9083,"Ġteatral":9084,"Ġquotidiana":9085,"ĠPortugal":9086,"??":9087,"Ġï":9088,"Ġom":9089,"Ġnau":9090,"isp":9091,"Ġhar":9092,"ĠCod":9093,"Ġgroc":9094,"sives":9095,"Ġparad":9096,"ĠBisb":9097,"Ġanuncia":9098,"Ġvius":9099,"Ġpassejar":9100,"Ġafrontar":9101,"Ġcriteri":9102,"Ġsuperat":9103,"Ġempresaris":9104,"vinguts":9105,"Ġbusquen":9106,"Ġconegudes":9107,"ĠVicenÃ§":9108,"ĠconstituciÃ³":9109,"ĠTorres":9110,"Ġuniversitaris":9111,"ĠdescripciÃ³":9112,"Ġrellevants":9113,"ĠencapÃ§al":9114,"33":9115,"je":9116,"ker":9117,"anos":9118,"Ġquaranta":9119,"tiran":9120,"Ġenamor":9121,"riment":9122,"restant":9123,"itori":9124,"ĠambdÃ³s":9125,"ĠPsic":9126,"Ġboni":9127,"ĠproduÃ¯":9128,"Ġhavent":9129,"dim":9130,"obs":9131,"obrir":9132,"ĠanÃ²nim":9133,"itzant":9134,"vivÃ¨ncia":9135,"Ġpreg":9136,"Espanyol":9137,"ĠJoves":9138,"Ġpersonalment":9139,"scÃ³":9140,"EST":9141,"Ã²sof":9142,"Ġpatri":9143,"ĠfamÃ³s":9144,"ĠFranco":9145,"Ġadministratiu":9146,"ĠXVI":9147,"ĠLlavors":9148,"ĠBlog":9149,"Ġimaginar":9150,"ĠâĨĳ":9151,"Ġincrement":9152,"Ġassociats":9153,"Ġtemperatures":9154,"Aran":9155,"Imp":9156,"mons":9157,"ux":9158,"Ã¶":9159,"Ġenvers":9160,"ĠPons":9161,"assign":9162,"ĠAlex":9163,"Ġdieta":9164,"ĠBur":9165,"Ġserien":9166,"ĠGent":9167,"aces":9168,"uten":9169,"Ġareny":9170,"lesi":9171,"voluciÃ³":9172,"Ġsegura":9173,"essiva":9174,"Ġcultures":9175,"Ġsubministra":9176,"servatori":9177,"Ġllevat":9178,"Ġproposem":9179,"Ġrelax":9180,"ĠCanvi":9181,"ĠPapa":9182,"ĠSuprem":9183,"Ġmultip":9184,"Ġvarietats":9185,"ĠEmpordÃł":9186,"ĠfÃŃsiques":9187,"cas":9188,"taven":9189,"resc":9190,"Ġretirar":9191,"Ã²x":9192,"ĠAL":9193,"Ġbars":9194,"ĠLlar":9195,"ĠDar":9196,"mpa":9197,"ĠGre":9198,"trol":9199,"ĠCam":9200,"ĠcapitÃł":9201,"Ġoberts":9202,"Ġvoltants":9203,"Ġcanvia":9204,"Ġporter":9205,"Ġveia":9206,"Ġvertic":9207,"Ġnegres":9208,"Ġdecora":9209,"import":9210,"Any":9211,"ĠMusic":9212,"Ġcontactar":9213,"Ġinclouen":9214,"ĠAdolescent":9215,"Ġdisputar":9216,"Ġliderat":9217,"Ġfabric":9218,"ĠproveÃ¯dors":9219,"Ġenriqu":9220,"EG":9221,"IX":9222,"gis":9223,"Ġtec":9224,"Ġfo":9225,"ragon":9226,"ĠPh":9227,"ĠAN":9228,"Ġinvi":9229,"Ġespiri":9230,"ĠtensiÃ³":9231,"ÃŃnica":9232,"Ġadrec":9233,"ĠDiumenge":9234,"Ġofertes":9235,"ĠdecoraciÃ³":9236,"isses":9237,"Ġcua":9238,"ĠZap":9239,"ĠdemocrÃłtic":9240,"ĠbÃłsic":9241,"ĠInstitut":9242,"Ġessencial":9243,"Ġtrens":9244,"Ġdispositius":9245,"ĠconstruÃ¯t":9246,"Ġrecomanacions":9247,"Ġprivacitat":9248,"incorpor":9249,"Ġrecinte":9250,"49":9251,"?,":9252,"LA":9253,"pte":9254,"Ãļ":9255,"Ġsemb":9256,"Ġvarem":9257,"Ãłu":9258,"ĠDa":9259,"idesa":9260,"Ġcomptat":9261,"Ġarxius":9262,"ĠtenÃŃem":9263,"ÃŃsica":9264,"Ġpages":9265,"exÃ¨rcit":9266,"Ġxines":9267,"Ġradi":9268,"Ġtornem":9269,"utilitzar":9270,"Ġcere":9271,"ĠWill":9272,"Ġjugant":9273,"Ġclares":9274,"Ġapartat":9275,"Ġ08":9276,"ĠdedicaciÃ³":9277,"Ġcoberta":9278,"Ġimposar":9279,"Ġproporcionar":9280,"Ġcorrecta":9281,"ĠAutor":9282,"Ġsindicats":9283,"ĠProfessional":9284,"ncia":9285,"Ġdetalla":9286,"Ġsard":9287,"Ġenem":9288,"Ġdipl":9289,"ĠTx":9290,"Ġcompens":9291,"Ġpreven":9292,"ĠassistÃ¨ncia":9293,"Ġconcreta":9294,"Ġdescriu":9295,"ĠReal":9296,"Ġintensa":9297,"Ġbaixos":9298,"Ġportava":9299,"Ġmuseus":9300,"Ġvisible":9301,"Ġfilles":9302,"Interior":9303,"InformaciÃ³":9304,"ĠVilassar":9305,"ĠCatÃłleg":9306,"ĠCatedral":9307,"Ġvigor":9308,"ĠResoluciÃ³":9309,"tegraciÃ³":9310,"ĠPlana":9311,"Ġindustrials":9312,"ĠcomenÃ§arÃł":9313,"Ġaturar":9314,"Ġobligacions":9315,"Ġafavorir":9316,"ĠRambla":9317,"Ġblaugrana":9318,"nec":9319,"wn":9320,"tible":9321,"ente":9322,"Ġflex":9323,"Ġretar":9324,"Ġdesa":9325,"ĠTIC":9326,"Ġrellotge":9327,"Ġprecip":9328,"arcat":9329,"Ġaprenentatge":9330,"ordar":9331,"Ġcantar":9332,"apor":9333,"Ġporc":9334,"ÃŃncep":9335,"Ġconclusions":9336,"Ġemple":9337,"ĠpresidÃ¨ncia":9338,"ronat":9339,"Ġjugat":9340,"Ġmetges":9341,"Ġpenjar":9342,"Ġadministrativa":9343,"Ġanteriorment":9344,"Ġdivertit":9345,"ĠjurÃŃdic":9346,"Ġelevat":9347,"Ġpendents":9348,"ĠDaniel":9349,"Ġorganismes":9350,"quing":9351,"tional":9352,"Ġfur":9353,"Ġesmorzar":9354,"Ġcava":9355,"ĠTaller":9356,"ĠRap":9357,"imatges":9358,"Ġpoders":9359,"edents":9360,"expe":9361,"Esports":9362,"ĠorÃŃgens":9363,"ĠecolÃ²gics":9364,"Ġoptar":9365,"Ġzero":9366,"Ġagres":9367,"ivera":9368,"Ġexemplars":9369,"Ġajuden":9370,"ĠdenÃºncia":9371,"ĠsanitÃłria":9372,"ĠĠĠĠĠĠĠĠĠĠĠĠĠĠĠĠ":9373,"Ġmirant":9374,"uditori":9375,"ĠBrussel":9376,"].":9377,"llo":9378,"ware":9379,"Ġafici":9380,"ico":9381,"ĠCub":9382,"Ġambientals":9383,"ĠcongrÃ©s":9384,"ĠSistema":9385,"Ġeficient":9386,"ligent":9387,"tuar":9388,"ĠForn":9389,"Ġaclar":9390,"ĠUtilitz":9391,"Ġaplic":9392,"ficades":9393,"Ġpoli":9394,"ĠAlb":9395,"ĠcohesiÃ³":9396,"Ġtransmet":9397,"ance":9398,"Ġsubrat":9399,"Ġsubjecte":9400,"Ġsentits":9401,"Ġinfant":9402,"Ġserveixen":9403,"Ġrespectu":9404,"Ġdespatx":9405,"Ġmetro":9406,"Ġefectiu":9407,"ANT":9408,"Ġoficines":9409,"voquen":9410,"Ġbandes":9411,"Ġdibuixos":9412,"ĠacollirÃł":9413,"Ġexpectatives":9414,"Tot":9415,"estu":9416,"ares":9417,"alcaldessa":9418,"Ġbuf":9419,"ĠLL":9420,"Ġconeixen":9421,"Ġdipos":9422,"ĠBre":9423,"imon":9424,"entrega":9425,"ĠprÃ©s":9426,"Ġmantingut":9427,"ĠconclusiÃ³":9428,"Ġgeneralment":9429,"ences":9430,"Ġafirmat":9431,"Ġxerrades":9432,"Ġbancs":9433,"Ġaixecar":9434,"gramunt":9435,"ĠmÃłrqueting":9436,"establiment":9437,"rel":9438,"orb":9439,"Ġreme":9440,"ĠPress":9441,"lei":9442,"ĠSL":9443,"lids":9444,"adequ":9445,"Ġdeixe":9446,"agricultura":9447,"Ġpateixen":9448,"ĠCoral":9449,"vangeli":9450,"lletÃŃ":9451,"Ġreportatge":9452,"SA":9453,"igua":9454,"oficina":9455,"tÃ©s":9456,"ĠCant":9457,"gued":9458,"iades":9459,"lava":9460,"Ã²rics":9461,"ĠprevisiÃ³":9462,"ĠEspai":9463,"haurÃł":9464,"Ġtreballem":9465,"ficiÃ¨ncia":9466,"Ġvenia":9467,"Ġprivats":9468,"Ġlectures":9469,"Ġsenyora":9470,"Ġdeclarar":9471,"ĠÃĢngel":9472,"Ġexplicacions":9473,"ĠTorrent":9474,"Ġinnova":9475,"ĠaportaciÃ³":9476,"itoral":9477,"Ġcooperatives":9478,"Ġreligiosa":9479,"acceptaciÃ³":9480,"Ġtesi":9481,"ĠLloret":9482,"uments":9483,"work":9484,"ĠdurÃł":9485,"Ġpale":9486,"Ġquedi":9487,"ink":9488,"Ã©sser":9489,"Ġred":9490,"ĠAles":9491,"Ġgimn":9492,"ĠSch":9493,"Ġpropa":9494,"ĠdestrucciÃ³":9495,"ĠThom":9496,"ĠRoss":9497,"Ġserra":9498,"euro":9499,"assol":9500,"Ġabra":9501,"Ġinformes":9502,"Ġsalari":9503,"ĠcomunitÃłria":9504,"Ġbenvinguda":9505,"Ġregne":9506,"Ġpensen":9507,"Ġtorneig":9508,"Ġtemporades":9509,"Ġdebats":9510,"Ġhabitualment":9511,"ĠdÃ¨fici":9512,"Ġexpressament":9513,"ĠconvenÃ§ut":9514,"ĠCastella":9515,"68":9516,"gels":9517,"ly":9518,"pres":9519,"esquÃŃ":9520,"Ġvalles":9521,"Ġnad":9522,"Ġreform":9523,"ĠMur":9524,"urÃŃ":9525,"Ġexha":9526,"ext":9527,"Ġformal":9528,"Ġtarragon":9529,"Ġmostres":9530,"ĠpatrÃ³":9531,"ĠespecÃŃfiques":9532,"Ġtractava":9533,"Ġsomriure":9534,"Ġdefineix":9535,"ĠregulaciÃ³":9536,"Ġconstitueix":9537,"Ġpanorama":9538,"ĠAmics":9539,"Ġrepartiment":9540,"Ġequival":9541,"ĠMateu":9542,"Ġsuspen":9543,"Ġfresca":9544,"Ġfitxer":9545,"Ġgoverna":9546,"Ġinclosos":9547,"avoreix":9548,"Ġamen":9549,"Ġps":9550,"ĠcÃ¨l":9551,"Ġnas":9552,"Ġnum":9553,"Ġgegant":9554,"ĠTrac":9555,"tero":9556,"acollida":9557,"rÃłcia":9558,"ĠEstr":9559,"ĠMarag":9560,"ney":9561,"Ġrelativa":9562,"ĠagraÃ¯":9563,"Ġpedres":9564,"ITAT":9565,"Ġcoincidint":9566,"licituds":9567,"Ġfresc":9568,"ĠdimensiÃ³":9569,"Ġdisminu":9570,"Ġequilib":9571,"ĠBernat":9572,"arquitectura":9573,"Ġignor":9574,"Ġfiscals":9575,"triu":9576,"ele":9577,"Ġsag":9578,"Ġqueix":9579,"racions":9580,"Ġcomarcal":9581,"asta":9582,"Ġdiem":9583,"ĠRellotge":9584,"Ġaccident":9585,"Ġexter":9586,"abans":9587,"edo":9588,"Ġterrenys":9589,"alitzen":9590,"roba":9591,"ĠlliÃ§":9592,"ĠexpressiÃ³":9593,"Ġparticipant":9594,"Ġdirectes":9595,"Ġdefen":9596,"Ġconfid":9597,"ĠfilÃ²sof":9598,"ĠPablo":9599,"Ġrelacionat":9600,"Ġfases":9601,"ĠVoleibol":9602,"ĠResid":9603,"ĠDelta":9604,"Ġfuncionaris":9605,"Ġeixos":9606,"Ġprocedents":9607,"Ġtruc":9608,"Ġinstrument":9609,"Ġvergonya":9610,"Ġabsolutament":9611,"ene":9612,"Ġperque":9613,"emat":9614,"ĠSag":9615,"ĠprogrÃ©s":9616,"ĠÃ©ssers":9617,"Ġanuals":9618,"ĠRem":9619,"blanc":9620,"edors":9621,"ĠOficial":9622,"ĠOlÃŃmp":9623,"ĠÃļ":9624,"Ġmeteor":9625,"etapa":9626,"Ġrodes":9627,"Ġmonitors":9628,"ĠdomÃ¨s":9629,"Ġafecten":9630,"ĠClÃŃnic":9631,"ĠbÃłsicament":9632,"animals":9633,"Ġpacient":9634,"Ġfoment":9635,"Ġvestit":9636,"ĠEsperem":9637,"americÃł":9638,"ĠextraordinÃłria":9639,"Ãºpiter":9640,"omunicacions":9641,"Ġcomplementa":9642,"Ġresponsabilitats":9643,"ĠRafael":9644,"Antoni":9645,"mas":9646,"pÃŃ":9647,"ĠaÃ§Ã²":9648,"elecciÃ³":9649,"Ġalimenta":9650,"ĠreduÃ¯t":9651,"Ġintu":9652,"ĠFu":9653,"exili":9654,"ficÃłcia":9655,"essibilitat":9656,"Ġ55":9657,"Ã¨cnica":9658,"orials":9659,"orientaciÃ³":9660,"Ġhumanes":9661,"2011":9662,"ĠmÃºsic":9663,"Ġrecordem":9664,"explicar":9665,"ĠRegid":9666,"cohol":9667,"Ġmodificacions":9668,"Ġreial":9669,"ĠDirector":9670,"ĠdelegaciÃ³":9671,"ĠmÃ¨todes":9672,"Ġentenem":9673,"ĠestÃłndard":9674,"df":9675,"wa":9676,"Ġ!":9677,"eni":9678,"entures":9679,"Ġesmen":9680,"ĠBart":9681,"mpt":9682,"ĠFol":9683,"Ġtab":9684,"Ġtamb":9685,"ĠUGT":9686,"Ġsegell":9687,"Ġ37":9688,"Ġassaig":9689,"Ġespecialitzat":9690,"Ġcanviant":9691,"ĠhabitaciÃ³":9692,"Ġpreparant":9693,"Ġfossin":9694,"ĠSolid":9695,"gentina":9696,"Ġdeterminades":9697,"ĠcrÃ¨dit":9698,"ĠreligiÃ³s":9699,"rotxa":9700,"Ġbolets":9701,"ĠelÃ¨ctric":9702,"Ġcommemora":9703,"poques":9704,"ĠTomÃłs":9705,"Ġinfraestructures":9706,"gna":9707,"rÃ¨n":9708,"onis":9709,"Ġgros":9710,"ĠSte":9711,"direc":9712,"ĠDels":9713,"Ġrosa":9714,"Ġesperen":9715,"ĠprestaciÃ³":9716,"Ġcartells":9717,"Ġempat":9718,"Ġvalora":9719,"Ġpensem":9720,"ĠAmbiental":9721,"Ġgradu":9722,"Ġacompanyada":9723,"ĠAdriÃł":9724,"ĠÃĢrea":9725,"2007":9726,"Ġesperit":9727,"aprofi":9728,"ĠartÃŃstiques":9729,"Ġconvidar":9730,"ĠFestes":9731,"Ġabsolut":9732,"Ġquadre":9733,"ĠTrobada":9734,"Ġacumula":9735,"Ġindret":9736,"ĠsÃŃmbol":9737,"47":9738,"deu":9739,"mus":9740,"Ġcro":9741,"entrar":9742,"accions":9743,"ĠIr":9744,"ĠUPC":9745,"Ġvian":9746,"Ġvolien":9747,"ĠtrobarÃłs":9748,"ĠInforme":9749,"Ġverb":9750,"Ġ600":9751,"ĠReis":9752,"ĠdiscussiÃ³":9753,"Ġdissenyat":9754,"Ġtitelles":9755,"Ġaugmenta":9756,"Ġimpulsat":9757,"Ġestrang":9758,"lÃŃci":9759,"ĠreforÃ§ar":9760,"Ġmagist":9761,"Ġcomponents":9762,"Ġvicepresident":9763,"Ġnervi":9764,"ĠMaragall":9765,"EF":9766,"hu":9767,"Ġric":9768,"Ġvil":9769,"omba":9770,"ĠPots":9771,"Ġprotec":9772,"Ġexca":9773,"ĠVÃŃc":9774,"Ġajus":9775,"ĠcatedrÃł":9776,"gnasi":9777,"Ġconvertint":9778,"Ġajudat":9779,"Ġocupar":9780,"Ġbiodiversitat":9781,"ĠYou":9782,"ĠEscolar":9783,"ĠXVII":9784,"ÃŃssimes":9785,"Ġordinador":9786,"Ġcostums":9787,"ĠAquell":9788,"ĠParticipaciÃ³":9789,"ĠimplantaciÃ³":9790,"Ġestudia":9791,"ĠVerdaguer":9792,"roquial":9793,"UD":9794,"agu":9795,"ean":9796,"vora":9797,"Ġdegus":9798,"Ġcine":9799,"ĠpercepciÃ³":9800,"inÃ¨s":9801,"Ġesg":9802,"Ġaldees":9803,"ĠCop":9804,"ĠrehabilitaciÃ³":9805,"Ġincapa":9806,"Ġgegants":9807,"ĠBomb":9808,"Ġapas":9809,"Ġdiagn":9810,"Ġorien":9811,"Ġdiferenci":9812,"Ġentusias":9813,"Ġinformativa":9814,"Ġarribi":9815,"Ġavant":9816,"Ġautob":9817,"ĠCarmen":9818,"utilitza":9819,"Ġrebaix":9820,"Ġdiscursos":9821,"ompeu":9822,"Ġtriat":9823,"Ġsento":9824,"Ġdirigents":9825,"acabar":9826,"ÃŃssims":9827,"ĠbraÃ§os":9828,"Ġtargetes":9829,"Ġgolejador":9830,"ĠCerdanyola":9831,"ĠlÃ²gica":9832,"Ġprogressiva":9833,"CC":9834,"Ġilla":9835,"teb":9836,"Ġacons":9837,"acs":9838,"ĠJÃºpiter":9839,"viment":9840,"ĠEnerg":9841,"Ġposteriors":9842,"ords":9843,"Ã¯na":9844,"Ġcrema":9845,"aplica":9846,"Ġadher":9847,"Ġculmin":9848,"Ġcontents":9849,"ĠPolit":9850,"ĠCoordin":9851,"2008":9852,"ĠtrÃłmit":9853,"ĠPodemos":9854,"Ġapuntar":9855,"DesprÃ©s":9856,"ĠitaliÃł":9857,"Ġprotesta":9858,"ĠVirg":9859,"Ġsalsa":9860,"Â«":9861,"Ġrib":9862,"Ãłt":9863,"ĠCÃŃ":9864,"ĠPaco":9865,"ĠSp":9866,"ĠUIB":9867,"ĠaprÃ¨s":9868,"ĠHab":9869,"Ġabund":9870,"ĠconcessiÃ³":9871,"Ġsalt":9872,"Ġdirectors":9873,"Ġrealitzant":9874,"Ġcentrar":9875,"Ġcerts":9876,"uÃ¯ssa":9877,"Ġhuman":9878,"ĠCaldes":9879,"autonomia":9880,"Arqueologia":9881,"Ã©nen":9882,"Ġjunta":9883,"Ġdeterminar":9884,"Ġtractaments":9885,"Ġperiodisme":9886,"ĠmagnÃŃfica":9887,"Ġuniversitari":9888,"Ġcristiana":9889,"Ġversos":9890,"ĠJaponesa":9891,"Agricultura":9892,"Ġimmediatament":9893,"Ġescenaris":9894,"ĠpossessiÃ³":9895,"Ġsamarreta":9896,"Ġseixanta":9897,"cents":9898,"univers":9899,"inals":9900,"Ġalts":9901,"iaciÃ³":9902,"ĠAP":9903,"Ġbesti":9904,"Ġgr":9905,"ĠMostra":9906,"ticat":9907,"Ġseguim":9908,"ĠComitÃ¨":9909,"Esper":9910,"Ġexpli":9911,"Ġexpedi":9912,"Ġentenc":9913,"Ġcultiu":9914,"increment":9915,"Ġcridar":9916,"ĠsÃŃmpt":9917,"Ġdistricte":9918,"Ġromans":9919,"Ġdissenyar":9920,"Ġ1996":9921,"Ġenfront":9922,"Ġfarina":9923,"Ġvirus":9924,"Ġexcepcional":9925,"Ġsolucionar":9926,"ĠbraÃ§":9927,"ĠPosteriorment":9928,"Ġprocediments":9929,"Ġcogn":9930,"ĠCinema":9931,"Ġigualment":9932,"Ġcompetir":9933,"esquena":9934,"honor":9935,"Ġdeg":9936,"erÃł":9937,"Ġcoc":9938,"Ġmural":9939,"oso":9940,"ritat":9941,"ĠCad":9942,"onsabilitat":9943,"ĠSent":9944,"ĠSÃŃn":9945,"ĠMel":9946,"ĠBall":9947,"tines":9948,"trada":9949,"exemple":9950,"Ãºstica":9951,"ĠguiÃ³":9952,"rates":9953,"ĠCarta":9954,"eriments":9955,"Ġblat":9956,"ionats":9957,"Ġdemandes":9958,"Ã¨rp":9959,"Ġeditat":9960,"Ġlegisla":9961,"ĠIsabel":9962,"ĠPresentaciÃ³":9963,"ĠPirineus":9964,"Ġfolk":9965,"Ġascend":9966,"ĠdivulgaciÃ³":9967,"Ġvidre":9968,"ĠSecretaria":9969,"ĠpolÃ¨mica":9970,"Rec":9971,"pla":9972,"Ð»":9973,"Ġ%":9974,"Ġtria":9975,"olis":9976,"Ġesten":9977,"ĠCON":9978,"aspec":9979,"ĠAcab":9980,"Ġconduir":9981,"Ġprovocat":9982,"Ġdesert":9983,"rany":9984,"ĠFE":9985,"ĠextensiÃ³":9986,"tral":9987,"Ġimpedir":9988,"itada":9989,"aprendre":9990,"Ġsolem":9991,"Ġaventura":9992,"Ġracons":9993,"Ġcervell":9994,"Ġ107":9995,"Ġhabitatge":9996,"Ġ188":9997,"ÃĢlex":9998,"Ġhoritz":9999,"Ġcabell":10000,"Ġdefinitivament":10001,"Ġreclamar":10002,"ĠincreÃ¯":10003,"Ġtranscend":10004,"Ġrepertori":10005,"ĠPromociÃ³":10006,"Ġsorteig":10007,"hard":10008,"pens":10009,"vil":10010,"erd":10011,"atero":10012,"Ġenviat":10013,"ĠMestre":10014,"Ġprovoc":10015,"actor":10016,"umna":10017,"aband":10018,"entrevista":10019,"alitzant":10020,"Ġescenes":10021,"Ġintercan":10022,"Ġonze":10023,"ĠNov":10024,"iciÃ³s":10025,"Ġforat":10026,"ĠProjectes":10027,"Ġrot":10028,"Ġportem":10029,"Quan":10030,"defin":10031,"aleshores":10032,"Ġassumir":10033,"ĠNew":10034,"ĠNavarro":10035,"independentisme":10036,"AF":10037,"IES":10038,"TIC":10039,"dant":10040,"Ã´":10041,"anca":10042,"onga":10043,"Ġmossos":10044,"Ã©us":10045,"rita":10046,"rov":10047,"ĠCr":10048,"ase":10049,"ĠAla":10050,"ĠLlic":10051,"ĠLingÃ¼":10052,"ĠTim":10053,"ĠanÃ¨cd":10054,"Ġexerc":10055,"Ġrecomp":10056,"Ġconsecutiu":10057,"Ġhipot":10058,"iliats":10059,"Ġmarit":10060,"pament":10061,"Ġembol":10062,"Ãłstics":10063,"ĠPark":10064,"Ġoferint":10065,"Ġescoltat":10066,"Ġcomparteixen":10067,"Ġgaudeix":10068,"Inf":10069,"Ġdestinats":10070,"Ġcaracteritza":10071,"Ġevidentment":10072,"Ã¨lgica":10073,"ĠuniversitÃłria":10074,"Ġfronteres":10075,"ĠSostenibilitat":10076,"Ġvinculades":10077,"Ġsobirania":10078,"ĠAleshores":10079,"55":10080,"?âĢĿ":10081,"esten":10082,"Ġses":10083,"Ġmana":10084,"ĠtomÃł":10085,"Ġvella":10086,"inÃłria":10087,"Ġesteu":10088,"Ã©ssim":10089,"ĠseqÃ¼":10090,"ĠEd":10091,"Ġbibli":10092,"Ġconvocar":10093,"ulla":10094,"ĠBil":10095,"Ãºm":10096,"ĠViny":10097,"mail":10098,"Ġapreci":10099,"ĠHospital":10100,"Ġtert":10101,"quies":10102,"partit":10103,"ĠavÃŃs":10104,"ĠtransferÃ¨ncia":10105,"Ġ62":10106,"Ġecos":10107,"ĠMuntanya":10108,"Ġnormalitat":10109,"Ġintentat":10110,"Ġdirigeix":10111,"Ġmotors":10112,"Ġfactura":10113,"Ġfruites":10114,"ĠimaginaciÃ³":10115,"Ġsignatura":10116,"Ġcinquena":10117,"auradament":10118,"ĠrectificaciÃ³":10119,"ĠJavier":10120,"66":10121,"agaf":10122,"burg":10123,"iz":10124,"Ġå":10125,"Ġmurs":10126,"unts":10127,"ĠtemÃłtiques":10128,"rius":10129,"Ġhero":10130,"Ġgla":10131,"ĠTran":10132,"ĠBany":10133,"Ġanul":10134,"ĠconstÃłncia":10135,"sses":10136,"venen":10137,"Ġassistit":10138,"quez":10139,"Ġsubjec":10140,"ĠMata":10141,"scrip":10142,"Ġutilitzen":10143,"Ġdisposen":10144,"interpre":10145,"afir":10146,"turar":10147,"Ġmoneda":10148,"Ġsenten":10149,"glÃ©sies":10150,"queras":10151,"Ġconsumidors":10152,"ĠAdministraciÃ³":10153,"Ġvinculats":10154,"Ġexposar":10155,"Ġentrenador":10156,"Ġfixar":10157,"Ġdelegat":10158,"ĠDissabte":10159,"ĠRicard":10160,"ĠespecÃŃfics":10161,"lÃłndia":10162,"ĠGaudÃŃ":10163,"ĠmaquinÃłria":10164,"ciclopÃ¨dia":10165,"ĠdÃ¨ficit":10166,"77":10167,"bis":10168,"hort":10169,"Ġran":10170,"esquerres":10171,"Ġsos":10172,"Ġfreg":10173,"Ġenques":10174,"Ġreis":10175,"ĠPompeu":10176,"ĠSecciÃ³":10177,"Ġanirem":10178,"ĠFra":10179,"ĠGil":10180,"ĠJuny":10181,"duint":10182,"trats":10183,"Ġplenament":10184,"Ġcalma":10185,"Ġincom":10186,"timitat":10187,"Ġafavoreix":10188,"ustria":10189,"Ġventall":10190,"Alb":10191,"Ġvinya":10192,"2009":10193,"ĠciÃ¨ncies":10194,"ĠPortal":10195,"Ġpiano":10196,"Ġcaminant":10197,"Ġconverses":10198,"Ġmasses":10199,"ĠFoment":10200,"AudiÃ¨ncia":10201,"Val":10202,"fab":10203,"iria":10204,"Ãłf":10205,"ĠAna":10206,"Ġbosses":10207,"ĠMam":10208,"ĠBol":10209,"accident":10210,"istemes":10211,"Ġespon":10212,"Ġimprovis":10213,"ĠHar":10214,"gacions":10215,"quida":10216,"escla":10217,"Ġamants":10218,"ĠSalou":10219,"ĠPaul":10220,"ĠRegistre":10221,"aprof":10222,"Ġreserves":10223,"Ġconjunts":10224,"Ġfranquista":10225,"Ġpolicial":10226,"Ġcambra":10227,"Ã¨dits":10228,"Ġadreces":10229,"FM":10230,"oo":10231,"Ġcron":10232,"alada":10233,"Ġnits":10234,"ĠuniÃ³":10235,"resari":10236,"Ġrector":10237,"media":10238,"Ġmou":10239,"Ġfuncional":10240,"ĠDivendres":10241,"Ġministeri":10242,"Ġcertes":10243,"Ġestaran":10244,"ĠEurope":10245,"Ġeducatives":10246,"Ġ1995":10247,"Ġimmer":10248,"ĠocupaciÃ³":10249,"Ġrobots":10250,"ĠGarrotxa":10251,"Ġguiada":10252,"1999":10253,"Ġmilitars":10254,"adaptaciÃ³":10255,"ĠBlanca":10256,"Ġrenovables":10257,"Ġcaigut":10258,"ĠZapatero":10259,"enn":10260,"Ġpir":10261,"cines":10262,"Ġsona":10263,"Ġsint":10264,"alar":10265,"Ġestima":10266,"ĠCient":10267,"Ġsetanta":10268,"Ġread":10269,"ĠAli":10270,"ĠprovÃ©":10271,"Ġdesaf":10272,"erap":10273,"ĠBes":10274,"ĠGall":10275,"Ġobri":10276,"torns":10277,"Ġpapa":10278,"Ġformant":10279,"ĠAlfons":10280,"Ġtancada":10281,"ingo":10282,"Ãłstima":10283,"Ġespecialitzats":10284,"ĠecolÃ²gic":10285,"Ġelectr":10286,"Ġcopa":10287,"Ġvendes":10288,"ĠCalella":10289,"ĠCamps":10290,"enestar":10291,"Ġgermana":10292,"Ġperfecta":10293,"Ġdefinitiu":10294,"Ġdisponibilitat":10295,"Ġetapes":10296,"Ġdesaparegut":10297,"ĠPersonal":10298,"Ġassenyalat":10299,"ĠPriorat":10300,"ĠUniversitari":10301,"Ġenorme":10302,"allotjament":10303,".Â»":10304,"mf":10305,"ĠðŁ":10306,"este":10307,"Ġdeures":10308,"ĠcÃłl":10309,"ectes":10310,"ĠAD":10311,"Ġcames":10312,"ĠDisc":10313,"ĠBarcel":10314,"ĠBloc":10315,"ĠGi":10316,"Ġarribem":10317,"Ġbarb":10318,"Ġbarra":10319,"Ġescriu":10320,"Ġdemanant":10321,"ĠBarri":10322,"Ġreuneix":10323,"Ġpintat":10324,"arcaciÃ³":10325,"ĠsisÃ¨":10326,"ECE":10327,"ĠdesplaÃ§ar":10328,"umptes":10329,"Ġjardins":10330,"Ã²loga":10331,"Ġdisfru":10332,"ĠsensibilitzaciÃ³":10333,"Ġfilial":10334,"ĠPost":10335,"Ġbran":10336,"Ġbull":10337,"Ġbron":10338,"Ġous":10339,"ĠData":10340,"ĠTelec":10341,"ĠRus":10342,"Ġcompres":10343,"Ġllana":10344,"Ġapla":10345,"ĠHol":10346,"Ġescales":10347,"ĠpotÃ¨ncia":10348,"Ġportu":10349,"Ġeclesi":10350,"ĠWorld":10351,"Ġindependents":10352,"Ġencer":10353,"ACN":10354,"Ġimpossi":10355,"Ġintegrat":10356,"Ġcivils":10357,"Ġretornar":10358,"Ġposicionament":10359,"Ġretirada":10360,"Ġguitarra":10361,"Ġceba":10362,"Ġvianants":10363,"%)":10364,"100":10365,"Ano":10366,"On":10367,"gil":10368,"gans":10369,"ier":10370,"ĠfÃ²s":10371,"ĠvÃ©nen":10372,"ĠCristi":10373,"ĠLas":10374,"ulsa":10375,"ĠTaula":10376,"ĠBÃłs":10377,"ĠFun":10378,"Ġlliurar":10379,"ĠON":10380,"ĠOrien":10381,"mines":10382,"escriure":10383,"enaix":10384,"Ġfortal":10385,"Ġpasta":10386,"Ġaspira":10387,"Ġmusul":10388,"Ġdesplega":10389,"ĠmiliÃ³":10390,"ĠPaper":10391,"Ġcinemat":10392,"Ġcombatre":10393,"Ġgaranties":10394,"evang":10395,"Ġregistres":10396,"Ġaprofita":10397,"ĠBrasil":10398,"ĠquedarÃł":10399,"Ġhttps":10400,"Ġsugg":10401,"ĠHumans":10402,"extrem":10403,"Ġinquietu":10404,"ĠVirgili":10405,"PV":10406,"apa":10407,"ee":10408,"estes":10409,"erador":10410,"quins":10411,"alia":10412,"Ġperjud":10413,"otor":10414,"Ġinvers":10415,"ĠMerca":10416,"ocasiÃ³":10417,"Ã§Ãł":10418,"Ġano":10419,"itzades":10420,"acos":10421,"ĠUrgell":10422,"Ġimprimir":10423,"Ġinstant":10424,"Ġregla":10425,"Ġ1992":10426,"arcament":10427,"ĠidentificaciÃ³":10428,"Ġpreocupa":10429,"ĠXIV":10430,"ĠBrava":10431,"Ġtravessa":10432,"Ġreperc":10433,"ĠmajoritÃłriament":10434,"Ġjoguines":10435,"cular":10436,"hop":10437,"entament":10438,"enviament":10439,"Ġpecu":10440,"Ġvui":10441,"gur":10442,"ĠPresid":10443,"Ġinvol":10444,"ĠSens":10445,"ĠSara":10446,"mag":10447,"iliari":10448,"ĠadministraciÃ³":10449,"Ġmitjan":10450,"ĠlocalitzaciÃ³":10451,"Ġhumor":10452,"eficiÃ¨ncia":10453,"ĠSanitat":10454,"ĠSuper":10455,"Ġsanitari":10456,"ĠEscol":10457,"Ġsubstituir":10458,"Ġescriptors":10459,"ĠMariano":10460,"Ġsolidari":10461,"ĠDispos":10462,"ĠestadÃŃstiques":10463,"Ġsorprenent":10464,"ĠLegis":10465,"ĠPlatja":10466,"ĠActivitats":10467,"guedÃł":10468,"Ġcognoms":10469,"!âĢĿ":10470,"erciÃ³":10471,"Ġtrist":10472,"Ġreina":10473,"Ġretre":10474,"Ġbale":10475,"antena":10476,"Ġjusta":10477,"ĠGui":10478,"intro":10479,"Ġcomentat":10480,"diccions":10481,"Ġactua":10482,"Ġorganitzades":10483,"Ġdavanter":10484,"Ġllargues":10485,"Ġroca":10486,"Ġperdent":10487,"ART":10488,"ĠcaracterÃŃstica":10489,"Ġtrasllat":10490,"Ġsatisfer":10491,"Ġabandonar":10492,"ĠPasseig":10493,"ĠJunqueras":10494,"Ġconnectar":10495,"Ġespectaculars":10496,"ĠdependÃ¨ncia":10497,"Ġprodueixen":10498,"ĠSindic":10499,"espais":10500,"ĠcerimÃ²nia":10501,"69":10502,"our":10503,"Ġull":10504,"Ġomp":10505,"Ġaven":10506,"ĠcÃłs":10507,"Ġsaf":10508,"Ġfita":10509,"ciÃ³s":10510,"ÃŃb":10511,"ĠSÃ³c":10512,"ĠMÃł":10513,"ĠTrib":10514,"Ġant":10515,"Ġfauna":10516,"Ġtaul":10517,"Ġplural":10518,"Ġconcer":10519,"Ġresultar":10520,"Ġagradar":10521,"Ġpensions":10522,"ressar":10523,"ĠÃ¨poques":10524,"ĠromÃłnica":10525,"Ġsimpa":10526,"Ġconstitucional":10527,"ĠRiba":10528,"Ãįndia":10529,"Ġatacs":10530,"AmÃ¨rica":10531,"Igualada":10532,"Ġacolli":10533,"Catalunya":10534,"Ateneu":10535,"ĠRegidoria":10536,"OD":10537,"Ġsostre":10538,"anÃ¨s":10539,"retament":10540,"Ġlac":10541,"Ġlamenta":10542,"Ġenginy":10543,"ash":10544,"ĠAgu":10545,"Ġincapacitat":10546,"Ġgreix":10547,"Ġconfer":10548,"ĠSur":10549,"ĠSand":10550,"obal":10551,"ĠBasc":10552,"ĠIS":10553,"utor":10554,"Ġarmes":10555,"Ġassist":10556,"Ġpublicats":10557,"Ġreglament":10558,"mesos":10559,"Ġestric":10560,"Ġllegenda":10561,"Ġsomnis":10562,"ĠprÃłctic":10563,"Ġintentant":10564,"Ġ250":10565,"Ġafectar":10566,"Ġdesconegut":10567,"ĠevidÃ¨ncia":10568,"Ġrellevant":10569,"ĠadreÃ§at":10570,"animaciÃ³":10571,"ĠressÃ²":10572,"Ġguardar":10573,"ĠPersones":10574,"Ġdespertar":10575,"Ġarrels":10576,"Ġalegria":10577,"Ġxicot":10578,"ĠprÃ©stec":10579,"'m":10580,"43":10581,"km":10582,"ning":10583,"pats":10584,"umb":10585,"Ġort":10586,"Ġdits":10587,"Ġpica":10588,"ĠcÃ²pia":10589,"ansiÃ³":10590,"inaris":10591,"embl":10592,"ĠCAT":10593,"Ġgam":10594,"ĠLec":10595,"ĠSam":10596,"ĠBÃ¨lgica":10597,"ĠBenestar":10598,"ferent":10599,"ĠPeri":10600,"egues":10601,"extra":10602,"tivals":10603,"Ġrepresa":10604,"aps":10605,"Ġsolitari":10606,"Ġarribant":10607,"Ġpoetes":10608,"Ã²mens":10609,"Ġpastiss":10610,"leccions":10611,"ĠallÃŃ":10612,"Ġdebatre":10613,"Ġpresentem":10614,"Ġconsellers":10615,"Ġfrancesos":10616,"ĠadreÃ§ada":10617,"Ġacostar":10618,"dalus":10619,"Ġcomplexitat":10620,"Ġrodona":10621,"Ġencarregat":10622,"ĠconvÃ¨ncer":10623,"ĠSantiago":10624,"ĠmotivaciÃ³":10625,"ropolitana":10626,"ĠSebastiÃł":10627,"Ġrellotges":10628,"Anoia":10629,"berament":10630,"merc":10631,"ues":10632,"Ġpobre":10633,"Ã³ra":10634,"Ġvor":10635,"Ġestes":10636,"Ġhui":10637,"Ġlesions":10638,"Ġparcs":10639,"ĠRuta":10640,"Ġcompati":10641,"Ġllistat":10642,"essÃ¨ncia":10643,"Ġmatis":10644,"Ġcoral":10645,"Ġinstruccions":10646,"ĠcalÃ§":10647,"Ġcampus":10648,"Ġraona":10649,"Ġinteressa":10650,"ĠgrÃłfica":10651,"Ġdefensat":10652,"ĠRecon":10653,"Ġfascin":10654,"Ġvotants":10655,"ĠMontseny":10656,"ĠPatronat":10657,"âĢĵ,":10658,"arrÃ²s":10659,"lustracions":10660,"ĠMirÃ³":10661,"ĠGerard":10662,"evitar":10663,"Ġimmediata":10664,"Ġcontundent":10665,"61":10666,"99":10667,"jaments":10668,"ko":10669,"lules":10670,"rÃ³s":10671,"sense":10672,"tware":10673,"ĠmÃ²d":10674,"algun":10675,"rava":10676,"ĠCort":10677,"ĠSota":10678,"cau":10679,"ĠDam":10680,"administra":10681,"Ġandor":10682,"ĠacÃŃ":10683,"ĠGa":10684,"ĠVell":10685,"Ġformular":10686,"alitzacions":10687,"Ġestable":10688,"Ġinclus":10689,"ĠinclusiÃ³":10690,"Ã²nics":10691,"ĠtornarÃł":10692,"Ġurg":10693,"Ġllums":10694,"Ġmalalts":10695,"itenca":10696,"Ġcontemplar":10697,"Ġconcretes":10698,"ĠDocumentaciÃ³":10699,"Ġperspectives":10700,"Ġfitxers":10701,"Ġfinestres":10702,"ĠautÃ¨ntic":10703,"Ġmasculina":10704,"Ġinnoc":10705,"ĠExcur":10706,"ĠBosch":10707,"ĠPolitÃ¨cnica":10708,"ket":10709,"rÃ²s":10710,"scar":10711,"uela":10712,"ĠÃłn":10713,"Ġdegra":10714,"lai":10715,"usuaris":10716,"Ã§ant":10717,"Ġcasar":10718,"hagin":10719,"Ġformatge":10720,"Ġassessorament":10721,"Ã¼l":10722,"loqui":10723,"Ġmuntar":10724,"Ġproductors":10725,"anÃ§at":10726,"Ġtrobarem":10727,"ĠservirÃł":10728,"Ġmantenint":10729,"Ġfavorable":10730,"Ġpresentada":10731,"Ġcobertura":10732,"Ġpantal":10733,"Ġsobres":10734,"Ġpalau":10735,"quisiciÃ³":10736,"Ġnucle":10737,"Ġprioritat":10738,"ĠIndustri":10739,"Ġimmigrants":10740,"estranger":10741,"ĠDigital":10742,"mona":10743,"ãĥ":10744,"enys":10745,"queria":10746,"anomena":10747,"Ġestant":10748,"Ġhos":10749,"ĠEbre":10750,"ĠPet":10751,"Ġ120":10752,"ĠFÃŃsica":10753,"activa":10754,"Ġprol":10755,"Ġabast":10756,"âĢ¦)":10757,"nivell":10758,"Ġsentim":10759,"Ã¡r":10760,"Ġcontent":10761,"Ġrelativament":10762,"ernitat":10763,"Ġespecialistes":10764,"2002":10765,"Ġpilars":10766,"Ġcoordinador":10767,"ĠMedicina":10768,"Ġtitulars":10769,"Ġcuriositat":10770,"ĠobligatÃ²ria":10771,"Ġcorredors":10772,"ĠfreqÃ¼Ã¨ncia":10773,"Ġcarregar":10774,"ĠvegetaciÃ³":10775,"ĠContinue":10776,"Ġprobable":10777,"Evangeli":10778,"eves":10779,"vents":10780,"ĠpÃ¨l":10781,"ardi":10782,"ĠsÃł":10783,"anada":10784,"ĠfÃ³rmula":10785,"ĠEdit":10786,"Ġbrom":10787,"ĠLuc":10788,"ĠSob":10789,"ĠMora":10790,"Ġrurals":10791,"Ġmatric":10792,"ÃŃnia":10793,"Ġxer":10794,"enyes":10795,"Ġcore":10796,"Ġ42":10797,"ĠAnim":10798,"ĠautÃ²noma":10799,"Ġsecrets":10800,"Ġjueus":10801,"Ġorganitzadors":10802,"Ġaprop":10803,"Ġcatedral":10804,"Ġreconeguda":10805,"Ġinicialment":10806,"Ġnatur":10807,"ixamp":10808,"Ġsonor":10809,"ĠperÃŃodes":10810,"Ġassolit":10811,"Ġ1936":10812,"ĠelÃ¨ctrica":10813,"ĠbarcelonÃŃ":10814,"ĠCFG":10815,"ĠBisbal":10816,"Er":10817,"MS":10818,"SE":10819,"pal":10820,"Ġdada":10821,"alista":10822,"Ġreformes":10823,"ĠAur":10824,"ĠDist":10825,"oba":10826,"odel":10827,"ducar":10828,"Ġporteria":10829,"ĠÃį":10830,"ĠtinguÃ©s":10831,"Ġcomencem":10832,"Ġverds":10833,"Ġsinc":10834,"ĠsinÃ²nim":10835,"ĠdocÃ¨ncia":10836,"entatges":10837,"ĠpenÃŃnsula":10838,"Ã²rdia":10839,"ĠturÃŃstics":10840,"Ġvore":10841,"Organitz":10842,"Ġestimat":10843,"sionista":10844,"ĠBio":10845,"Observatori":10846,"Ġiguals":10847,"Ã±oz":10848,"ĠfabricaciÃ³":10849,"Ġreciclatge":10850,"37":10851,"46":10852,"dÃ³":10853,"ule":10854,"vint":10855,"Äģ":10856,"ãĤ":10857,"Ġdeien":10858,"Ġcicles":10859,"Ġmots":10860,"Ġfesti":10861,"ementi":10862,"Ġesbor":10863,"Ġreutilitz":10864,"ĠAz":10865,"catal":10866,"ĠMig":10867,"Ġprogress":10868,"ĠDo":10869,"ĠBru":10870,"Ġrup":10871,"Ġfacil":10872,"Ġcapi":10873,"Ġpaella":10874,"ureu":10875,"otada":10876,"Ġdoni":10877,"ĠMarg":10878,"ĠIntel":10879,"Ġoral":10880,"ĠorgÃłnica":10881,"uiz":10882,"Ġcontrast":10883,"Ġsetman":10884,"Ġeconom":10885,"Ġrecorden":10886,"ĠMontilla":10887,"imperi":10888,"Ġnacionalitat":10889,"Ġvintena":10890,"Ġsavi":10891,"Ġ09":10892,"accessibilitat":10893,"Ġ1997":10894,"Ġenfoca":10895,"esperar":10896,"cletes":10897,"ĠprÃ²xima":10898,"Ġindicar":10899,"ĠCiutadana":10900,"ĠcuriÃ³s":10901,"ĠdesaparÃ¨ixer":10902,"Ġintegrada":10903,"ĠClara":10904,"ĠEsportiu":10905,"ĠdinÃłmiques":10906,"aportaciÃ³":10907,"afec":10908,"cÃ©s":10909,"iona":10910,"mÃ¨s":10911,"Ġlitoral":10912,"altar":10913,"aliments":10914,"atoris":10915,"Ġunir":10916,"rodon":10917,"ÃŃx":10918,"diu":10919,"ĠDNI":10920,"ello":10921,"ĠFed":10922,"Ġexam":10923,"ĠVeu":10924,"Ġprevenir":10925,"Ġpredom":10926,"Ġpressa":10927,"ĠEnten":10928,"ĠEstudis":10929,"Ġescul":10930,"ĠrepÃºblica":10931,"amics":10932,"ĠInform":10933,"Ġarribava":10934,"Ġsituats":10935,"Ġrealitzats":10936,"Ġcentrals":10937,"Ġdisposem":10938,"Ġpromeses":10939,"ĠSegarra":10940,"Ġacomia":10941,"Ã±ol":10942,"ĠCooperaciÃ³":10943,"Ġfosc":10944,"Ġesportius":10945,"Ġrecomano":10946,"Ġrecollides":10947,"autoritzaciÃ³":10948,"Ġblancs":10949,"ĠexcepciÃ³":10950,"Ġpermetin":10951,"Ġjustificar":10952,"Ġperfils":10953,"ĠFotografia":10954,"imagino":10955,"Ġdisciplina":10956,"tedra":10957,"Ġradical":10958,"lvarez":10959,"emergÃ¨ncia":10960,"AcciÃ³":10961,"RES":10962,"TM":10963,"tons":10964,"vir":10965,"Ġcresc":10966,"Ġvells":10967,"Ġenfor":10968,"ĠAgustÃŃ":10969,"Ġgirar":10970,"ĠSus":10971,"ĠTinc":10972,"Ãłndol":10973,"Ġcorreg":10974,"Ġinsta":10975,"ganda":10976,"how":10977,"Ġregals":10978,"estabilitat":10979,"Ġfuncionar":10980,"ĠParal":10981,"ĠGuia":10982,"Ġexemplar":10983,"Anna":10984,"ARC":10985,"Ġanimar":10986,"ĠtecnolÃ²gica":10987,"ĠBenet":10988,"monia":10989,"ĠBlanes":10990,"ĠSetembre":10991,"inyÃł":10992,"Ġconformen":10993,"Ġextraordinari":10994,"Ġatractiu":10995,"Ġvaixells":10996,"ĠIndependent":10997,"entrenador":10998,"ĠdipÃ²sit":10999,"ĠVÃŃctor":11000,"ĠOriental":11001,"44":11002,"Ã¤":11003,"erÃ§os":11004,"quill":11005,"Ġic":11006,"innovaciÃ³":11007,"ĠCorre":11008,"Ġretrat":11009,"Ġcongel":11010,"ĠVin":11011,"Ġrestric":11012,"Ġrol":11013,"Ġcasc":11014,"Ġmarcada":11015,"amo":11016,"Ġtindria":11017,"Ġduen":11018,"Ġjuris":11019,"ĠsubvenciÃ³":11020,"allada":11021,"Ġaconseguint":11022,"umenges":11023,"laborat":11024,"actuar":11025,"Ġencanta":11026,"Ġtocat":11027,"Ġcomplert":11028,"ĠAdministra":11029,"ĠFerro":11030,"Ġurbans":11031,"ĠdolÃ§a":11032,"Ġcombat":11033,"ĠCentres":11034,"Ġregistrat":11035,"Ġregistrar":11036,"Ġrepeteix":11037,"Ġinterpretar":11038,"ĠDoctor":11039,"Ġpesseb":11040,"Ġfinancera":11041,"Ġsubscrip":11042,"Ġimplicats":11043,"dra":11044,"ji":11045,"ruc":11046,"emma":11047,"Ġseca":11048,"Ã²b":11049,"ĠPIB":11050,"Ġparroquial":11051,"mping":11052,"Ġrecents":11053,"ĠNit":11054,"Ġtap":11055,"Ġprevistes":11056,"medi":11057,"Ġplenes":11058,"Ġfinca":11059,"Ġvisibilitat":11060,"Ġadjud":11061,"ĠConca":11062,"nium":11063,"ĠÃºtils":11064,"lectuals":11065,"periÃ¨ncies":11066,"Ġsignes":11067,"Ġideologia":11068,"ĠexplicaciÃ³":11069,"ressol":11070,"Ġvalorat":11071,"Ġsenyors":11072,"ĠJuliÃł":11073,"ĠMontblanc":11074,"ĠGarri":11075,"ĠtramitaciÃ³":11076,"Ġseleccionar":11077,"ĠpreferÃ¨ncies":11078,"Ġenergies":11079,"enciada":11080,"Ġinferm":11081,"Ġgaleria":11082,"Ġcontemporani":11083,"absÃ¨ncia":11084,"ĠMuÃ±oz":11085,"Ġvetlla":11086,"Ġdepenent":11087,"Ġincrementar":11088,"Ġprovisional":11089,"ĠPasqua":11090,"Ġdeixebles":11091,"59":11092,"62":11093,"Ġdents":11094,"erva":11095,"entÃ©n":11096,"Ġcomissions":11097,"ĠdesprÃ¨s":11098,"ĠDeu":11099,"adÃł":11100,"ellers":11101,"ĠReb":11102,"ĠFal":11103,"igÃ³":11104,"enses":11105,"rÃłcies":11106,"Ġcaptar":11107,"mez":11108,"ĠHern":11109,"ĠInnovaciÃ³":11110,"Ġinformatiu":11111,"agenda":11112,"ĠConsul":11113,"Ġjuguen":11114,"Ġinfo":11115,"Ġcervesa":11116,"!!!!":11117,"odetermin":11118,"Ġacompanya":11119,"Ġdirigides":11120,"Ġcontactes":11121,"isteixen":11122,"ĠÃĢn":11123,"Ġmotoci":11124,"ĠLlibres":11125,"Ġyou":11126,"ĠmÃŃnims":11127,"Ġestablerts":11128,"Ġofen":11129,"oferir":11130,"Ġfrases":11131,"Ġestimar":11132,"Ġsous":11133,"Ġimmediat":11134,"ĠcommemoraciÃ³":11135,"ĠtÃŃpic":11136,"Ġfragments":11137,"OcupaciÃ³":11138,"ĠCuina":11139,"Ġprotocol":11140,"robablement":11141,"TT":11142,"dell":11143,"Ġq":11144,"ĠpÃł":11145,"Ġch":11146,"Ġcass":11147,"cient":11148,"Ġbud":11149,"Ġgats":11150,"ĠBut":11151,"ĠFM":11152,"ĠPerp":11153,"exig":11154,"Ġentrevistes":11155,"Ġescoll":11156,"Ġcreativa":11157,"ĠOber":11158,"Ãłnics":11159,"Ġguies":11160,"endis":11161,"Ġgenerat":11162,"ĠQuatre":11163,"Ġprofit":11164,"ĠSimp":11165,"ĠraÃ¯m":11166,"Ġamar":11167,"Ġoperacions":11168,"ESCO":11169,"Ġprofessionalitat":11170,"Ġcontrols":11171,"Ġvinyes":11172,"ONU":11173,"Ġpilar":11174,"ĠPrecisament":11175,"Ġexercicis":11176,"Ġanticip":11177,"Ġderivats":11178,"Ġacostuma":11179,"ĠmediterrÃłnia":11180,"Ġaccessible":11181,"ĠTelevisiÃ³":11182,"ĠRapitenca":11183,"ĠPressup":11184,"aspecte":11185,"Cal":11186,"we":11187,"ľĵ":11188,"titats":11189,"olf":11190,"Ġestils":11191,"ĠPA":11192,"ĠMoss":11193,"ĠElla":11194,"ĠJim":11195,"allers":11196,"Ġespero":11197,"ĠposarÃł":11198,"eble":11199,"Ġempats":11200,"quipÃ¨dia":11201,"ĠConven":11202,"ĠpoÃ¨tica":11203,"ĠracÃ³":11204,"Ġrius":11205,"ence":11206,"Ġcelebren":11207,"Ġdisposat":11208,"Ġamplia":11209,"Ġ1998":11210,"Ġrelacionar":11211,"ORT":11212,"Ġconstituir":11213,"Ġllibertats":11214,"Ġanomenar":11215,"Ġcompetitivitat":11216,"Ġcreuar":11217,"Ġexigir":11218,"ĠseparaciÃ³":11219,"Ġubicat":11220,"Ã²crates":11221,"ĠDolors":11222,"avinguda":11223,"Ġdocumentals":11224,"Ġempleats":11225,"Ġremei":11226,"Ġåľĵ":11227,".).":11228,"Hem":11229,"bara":11230,"chi":11231,"tos":11232,"tus":11233,"zen":11234,"Ġmit":11235,"tions":11236,"Ġtones":11237,"Ġhon":11238,"tates":11239,"Ġbrossa":11240,"ĠBri":11241,"ĠRural":11242,"Ġactius":11243,"igs":11244,"ĠJac":11245,"ĠrÃ¨c":11246,"Ġtrajecte":11247,"ciones":11248,"mament":11249,"lesa":11250,"rible":11251,"Ġentrega":11252,"Ġadjunt":11253,"Ġafric":11254,"Ġpoguessin":11255,"Ġveri":11256,"Ġseccions":11257,"ĠConsid":11258,"ĠÃ¨x":11259,"ONA":11260,"Ġidentifica":11261,"Ġcobrar":11262,"Ġcorresponen":11263,"Ġsanitaris":11264,"ĠMontse":11265,"Ġindividus":11266,"Ġconfirma":11267,"ĠcomenÃ§Ãł":11268,"trius":11269,"ĠmÃ¨dica":11270,"estalvi":11271,"Col":11272,"PF":11273,"lera":11274,"mic":11275,"ĠdÃ©us":11276,"Ġcedir":11277,"cida":11278,"ane":11279,"Ġretra":11280,"Ġbac":11281,"Ġconec":11282,"ĠconvÃ©":11283,"ĠSta":11284,"ĠSitu":11285,"ĠMarcel":11286,"ĠMoll":11287,"tallar":11288,"oblida":11289,"ranÃ§a":11290,"ĠRet":11291,"ĠVida":11292,"Ġcompost":11293,"essors":11294,"Ġmagatzem":11295,"entades":11296,"ĠSigui":11297,"ĠAnglaterra":11298,"xaca":11299,"Ġminim":11300,"Ġagro":11301,"Ġinteressat":11302,"ĠconsideraciÃ³":11303,"Ġexcusa":11304,"Ġdemanem":11305,"Enric":11306,"Ġrenunciar":11307,"erman":11308,"Ã¨mia":11309,"Ġ1990":11310,"ALL":11311,"Ġtrep":11312,"AMPA":11313,"Ġanuncis":11314,"ĠBoi":11315,"evilla":11316,"ĠmecÃłnica":11317,"Ġtitularitat":11318,"Ġconstantment":11319,"tricitat":11320,"Ġcondicionat":11321,"Ġflamen":11322,"ĠRelat":11323,"ĠIndependÃ¨ncia":11324,"luminaciÃ³":11325,"ĠSolsona":11326,"ĠMentrestant":11327,"ĠsuspensiÃ³":11328,"02019":11329,"Man":11330,"Ser":11331,"lÃ³":11332,"lÃŃn":11333,"ous":11334,"preu":11335,"Â²":11336,"Ġsoc":11337,"Ġconvic":11338,"Ġvagin":11339,"Ġanant":11340,"Ġexistent":11341,"Ġrecre":11342,"Ġespl":11343,"Ġtapa":11344,"Ġcolumna":11345,"Ġassessor":11346,"Ġcorrents":11347,"Ġliber":11348,"ĠcoaliciÃ³":11349,"ĠConver":11350,"Ġcentrat":11351,"Ġmodalitats":11352,"ĠTothom":11353,"Ġllegat":11354,"Ġnecessites":11355,"autob":11356,"Ġtreballador":11357,"Ġurgent":11358,"Ġindign":11359,"ĠGarraf":11360,"autoritat":11361,"Ġquantitats":11362,"Ġcoordinadora":11363,"Ġdiputada":11364,"Ġderiva":11365,"Ġdesitja":11366,"Ġassenyala":11367,"ĠacadÃ¨mica":11368,"legacions":11369,"ĠautÃ¨ntica":11370,"ĠCerdanya":11371,"ĠDues":11372,"Ġdisciplines":11373,"Ġalumne":11374,"Ġenganx":11375,"ĠmÃ¨rit":11376,"Ġguerres":11377,"ĠNovembre":11378,"cre":11379,"drien":11380,"fort":11381,"Ġadient":11382,"Ġpalla":11383,"Ġcust":11384,"Ġcuida":11385,"Ġsumen":11386,"regues":11387,"rata":11388,"Ġuneix":11389,"Ġinde":11390,"ĠMÃ²nica":11391,"ĠManten":11392,"ĠdesapariciÃ³":11393,"abtes":11394,"ĠNatura":11395,"Ġaporten":11396,"Ġsoldats":11397,"Ġexpl":11398,"Ġdeixava":11399,"Ġtalla":11400,"Ġpersonalitzat":11401,"Ġauto":11402,"Ġcriticar":11403,"Ġconfess":11404,"autopista":11405,"actualitzaciÃ³":11406,"ĠobligaciÃ³":11407,"Ġindirec":11408,"ĠromÃł":11409,"Ġtastar":11410,"ĠdolÃ§":11411,"ĠRoja":11412,"Ġvotat":11413,"Ġrepresentacions":11414,"excusa":11415,"ADA":11416,"ĠMatemÃłtiques":11417,"Ġquadrats":11418,"ĠprÃ²xims":11419,"QuÃ¨":11420,"Ġbeques":11421,"ĠcÃ²mode":11422,"ĠJunts":11423,"lustraciÃ³":11424,"COO":11425,"Ã²lics":11426,"ĠSostenible":11427,"ĠÃ²rgans":11428,"Ġrivals":11429,"!,":11430,"Auditori":11431,"XX":11432,"cÃł":11433,"gnos":11434,"mnium":11435,"sec":11436,"uar":11437,"xos":11438,"encara":11439,"Ġdeguda":11440,"tificat":11441,"ĠtÃ²p":11442,"Ġfia":11443,"Ãłtiques":11444,"guers":11445,"Ġretor":11446,"Ġambdues":11447,"usc":11448,"Ġdius":11449,"eixes":11450,"ĠRES":11451,"ĠRivera":11452,"Ġtrama":11453,"Ġvolte":11454,"Ġsocio":11455,"ĠMarÃ§":11456,"Ġtanmateix":11457,"Ġexpuls":11458,"Ġtinguem":11459,"Ġcoix":11460,"Ġparticipativa":11461,"remta":11462,"Ġcomunic":11463,"ĠMaciÃł":11464,"ĠMonta":11465,"ĠmetÃłl":11466,"Ġfestiu":11467,"ĠturÃ³":11468,"ospitals":11469,"titzar":11470,"Ġconvidem":11471,"Ġparcel":11472,"ĠpaciÃ¨ncia":11473,"Ġpluges":11474,"Ġdrama":11475,"Ġexperimentar":11476,"Ġcompleixen":11477,"Ġsencer":11478,"Ġidiomes":11479,"Ġaprofundir":11480,"Hostal":11481,"mentaciÃ³":11482,"Ġpit":11483,"ollet":11484,"isca":11485,"Ġbisb":11486,"leu":11487,"ĠSeria":11488,"ĠSenat":11489,"ĠMau":11490,"lio":11491,"Ġdesde":11492,"ĠRespec":11493,"tinguts":11494,"ĠVilla":11495,"ĠJorge":11496,"Ġartic":11497,"Ġpassades":11498,"Ġplen":11499,"ĠÃĪ":11500,"Ġadvers":11501,"Ġusar":11502,"Ġdeixo":11503,"Ãłstiques":11504,"fiar":11505,"Ġpossiblement":11506,"Ġaprovada":11507,"ĠArticle":11508,"ĠWi":11509,"Ġmilitants":11510,"ineda":11511,"ĠBarber":11512,"oliva":11513,"Ġterritorials":11514,"Ġestrelles":11515,"Ġencan":11516,"Ġdescoberta":11517,"Ġsuficients":11518,"Ġquedava":11519,"Ġobstac":11520,"Ġcreatiu":11521,"Ġgustos":11522,"Ġaprofitat":11523,"Ġconformitat":11524,"Ġnarrativa":11525,"Ġproclamar":11526,"ĠfantÃłstica":11527,"Ġcontenen":11528,"Ġpetr":11529,"ĠSergio":11530,"Ġmediterrani":11531,"decans":11532,"Israel":11533,"Ġreconeguts":11534,"ĠconsolidaciÃ³":11535,"ĠContempor":11536,"Ġcereals":11537,"ĠdiagnÃ²stic":11538,"Ġreading":11539,"SC":11540,"Sal":11541,"ĠdÃ©u":11542,"Ġpp":11543,"Ġton":11544,"emissiÃ³":11545,"roga":11546,"ĠCL":11547,"ĠAu":11548,"ĠSau":11549,"ĠGremi":11550,"Ġinspir":11551,"ĠentÃ¨s":11552,"Ġparticiparan":11553,"Ġsalva":11554,"Ġamiga":11555,"nez":11556,"Ġcelebrada":11557,"Ġrecuperat":11558,"ĠJazz":11559,"Ġaspir":11560,"ÃŃcules":11561,"racciÃ³":11562,"Ġexplicant":11563,"Ġestrenar":11564,"Ġperdeu":11565,"Ġesportistes":11566,"ĠautoritzaciÃ³":11567,"ĠcrÃŃtics":11568,"ĠlimitaciÃ³":11569,"ĠChar":11570,"Ġindividu":11571,"iscop":11572,"excur":11573,"ÃŃmica":11574,"ribunals":11575,"Empresa":11576,"ĠOccidental":11577,"Ġelevada":11578,"ĠESO":11579,"Ġpronunci":11580,"Universitat":11581,"Ġsacrifici":11582,"Ġvertical":11583,"Aix":11584,"Del":11585,"by":11586,"doc":11587,"nex":11588,"vim":11589,"Ġcobreix":11590,"Ġcementi":11591,"oren":11592,"Ġmix":11593,"ung":11594,"ĠnÃ©":11595,"ĠalimentaciÃ³":11596,"Ġconfec":11597,"Ġeb":11598,"ĠDÃŃa":11599,"ĠDaurada":11600,"ĠRed":11601,"Ġprestacions":11602,"Ġtrams":11603,"Ġsobreviure":11604,"ilitar":11605,"eguts":11606,"recciÃ³":11607,"ĠmarÃŃ":11608,"Ġcreador":11609,"Ġcoure":11610,"ĠQualitat":11611,"Ġguanyant":11612,"Ġconeixia":11613,"ĠMusical":11614,"Ġpintar":11615,"Ġprenen":11616,"evals":11617,"Ġexigeix":11618,"ĠBerguedÃł":11619,"Ġfundador":11620,"horab":11621,"Ġdelictes":11622,"ĠincidÃ¨ncia":11623,"ĠmobilitzaciÃ³":11624,"ĠIndÃºstria":11625,"Ġroseg":11626,"ĠestadÃŃstica":11627,"Ġaddicional":11628,"Ġepisodis":11629,"Ġgamma":11630,"42":11631,"AcadÃ¨mia":11632,"ete":11633,"rug":11634,"seca":11635,"»¿":11636,"Ġpul":11637,"ĠcessiÃ³":11638,"Ġcobra":11639,"unitat":11640,"uniÃ³":11641,"Ġvos":11642,"olat":11643,"Ġnor":11644,"riol":11645,"ĠCerc":11646,"ĠEp":11647,"ĠcomÃ¨dia":11648,"ecte":11649,"Ġbeure":11650,"ĠSovint":11651,"ĠBand":11652,"acus":11653,"ĠUd":11654,"Ġnomenat":11655,"ĠrepÃłs":11656,"Ġassis":11657,"Ġconcrets":11658,"ĠQuer":11659,"Ġdescriure":11660,"Ġrid":11661,"Ġcontinuada":11662,"Ġcritica":11663,"impost":11664,"Ġfamosa":11665,"Ġsanitat":11666,"Ġsemblants":11667,"Ġexpert":11668,"Ġcontempla":11669,"Ġadaptat":11670,"Ġplantar":11671,"espectador":11672,"ĠBages":11673,"Ġnotable":11674,"Ġindicat":11675,"ĠurbanÃŃstica":11676,"Ġfutura":11677,"independÃ¨ncia":11678,"ĠorientaciÃ³":11679,"Ġreivindicar":11680,"Ġbrut":11681,"Ġplataformes":11682,"Ġtaronja":11683,"evangeli":11684,"!)":11685,"63":11686,"OCI":11687,"fal":11688,"juÃ¯":11689,"landa":11690,"mob":11691,"rosa":11692,"Ġpuny":11693,"Ġcig":11694,"Ġsender":11695,"Ġtrem":11696,"Ġalim":11697,"Ã²tics":11698,"oteca":11699,"ĠAran":11700,"Ġconvent":11701,"ĠSuÃ¯ssa":11702,"Ġdiumenges":11703,"Ġjustament":11704,"icaments":11705,"ĠRaval":11706,"ĠRuiz":11707,"acosta":11708,"assessorament":11709,"tivisme":11710,"Ġacabem":11711,"Ġ68":11712,"Ġcentenari":11713,"ĠcontinuarÃł":11714,"Ġorganitzen":11715,"Ġdesenvolupen":11716,"uÃ¯t":11717,"Ġutilitzats":11718,"Ġfuturs":11719,"Ġgraci":11720,"autora":11721,"Ġtorres":11722,"ĠromÃłnic":11723,"Ġdemostren":11724,"Ġdeterminada":11725,"ĠMoreno":11726,"Ġconsiderada":11727,"Ġjutges":11728,"escriptura":11729,"Ġtocava":11730,"americana":11731,"ĠPenso":11732,"ĠMillor":11733,"ĠTÃ¨cnica":11734,"Ãºrcia":11735,"ĠEduard":11736,"Ġcadira":11737,"odeterminaciÃ³":11738,"Horta":11739,"Llegir":11740,"pel":11741,"oner":11742,"onze":11743,"altura":11744,"Ã³mez":11745,"emociÃ³":11746,"Ġhig":11747,"ĠcomerÃ§os":11748,"Ġinfec":11749,"tards":11750,"illament":11751,"veres":11752,"acle":11753,"Ġcompten":11754,"ĠJurÃŃ":11755,"Ġsiguem":11756,"Ġvivien":11757,"Ġposava":11758,"ĠHel":11759,"Ã¯nes":11760,"legal":11761,"ĠXII":11762,"Ġvalu":11763,"ĠautÃ²c":11764,"Ġpensaments":11765,"ĠMay":11766,"assaig":11767,"Ġreunit":11768,"Ġestrella":11769,"ARI":11770,"ĠOrgÃłnica":11771,"genda":11772,"Ġpatrimonial":11773,"Ġestrangers":11774,"Que":11775,"Ġinclosa":11776,"ĠFilosofia":11777,"Ġdescobriment":11778,"Ġestalvi":11779,"ĠdesplaÃ§aments":11780,"ĠBombers":11781,"ĠsÃŃmptomes":11782,",[":11783,"Edu":11784,"gant":11785,"Ġlong":11786,"ĠsuÃ¯":11787,"ĠmÃłs":11788,"Ġnegu":11789,"Ġalcaldes":11790,"ĠCCOO":11791,"Ã²lei":11792,"lej":11793,"ĠSagrada":11794,"sils":11795,"ĠBau":11796,"ĠBert":11797,"ĠFiscal":11798,"ilip":11799,"Ã§ament":11800,"onesos":11801,"amistat":11802,"Ġsuports":11803,"ĠarribarÃł":11804,"Ġwith":11805,"ĠoferirÃł":11806,"ĠWe":11807,"impor":11808,"Ġsenyals":11809,"Ġnevera":11810,"ĠMolins":11811,"Ġpintures":11812,"Ġespecialista":11813,"Ġsisena":11814,"ofereix":11815,"Ġprenent":11816,"ĠgeogrÃłfica":11817,"Ġglobus":11818,"aposta":11819,"ĠlingÃ¼ÃŃstic":11820,"Ġdenunciat":11821,"Ġreligiosos":11822,"Ġatorga":11823,"ribuÃ¯t":11824,"ĠmasculÃŃ":11825,"Ġpromocionar":11826,"individ":11827,"agrupament":11828,"ĠpregÃłria":11829,"Ġexhaus":11830,"ĠcatedrÃłtic":11831,"Ġpeculiar":11832,"57":11833,"sar":11834,"tativa":11835,"ĠCAP":11836,"ĠProbablement":11837,"Ġbossa":11838,"Ġinex":11839,"ĠSER":11840,"Ġdesena":11841,"ĠDona":11842,"Ãºrg":11843,"Ġllin":11844,"assemblea":11845,"Ġprejudi":11846,"ssos":11847,"Ġvib":11848,"Ġhiper":11849,"aventura":11850,"ĠEsglÃ©sia":11851,"ĠCompar":11852,"escut":11853,"ĠavanÃ§a":11854,"âĢ¦.":11855,"Ġsaltar":11856,"Ġregles":11857,"Ġproductor":11858,"Ġgravat":11859,"ARA":11860,"ANA":11861,"ĠrÃłbia":11862,"Ġdestinacions":11863,"Ġconvenient":11864,"Ġtrasp":11865,"Ġllumin":11866,"Ġsorpreses":11867,"ĠbÃłsquet":11868,"Ġsimul":11869,"Ġconfirmat":11870,"Ġcertamen":11871,"Ġpertanyen":11872,"ĠTerritorial":11873,"editorial":11874,"Ġcompositor":11875,"ĠamenaÃ§a":11876,"ĠPRO":11877,"acompanyament":11878,"Ġvirtut":11879,"--------":11880,"ĠÃłlbum":11881,"Ġpernil":11882,"71":11883,"Som":11884,"hen":11885,"vit":11886,"Ñĥ":11887,"Ġrics":11888,"Ġdevia":11889,"Ġpota":11890,"Ġcub":11891,"Ġceller":11892,"argu":11893,"retÃłria":11894,"isis":11895,"Ġcong":11896,"ĠMul":11897,"Ġef":11898,"Ġdita":11899,"ĠJean":11900,"ĠLaia":11901,"inacions":11902,"Ġmapes":11903,"Ġterrat":11904,"ĠInicia":11905,"Ġcontinent":11906,"Ġ44":11907,"ĠContra":11908,"Ġacabava":11909,"Ġsubjectes":11910,"Ãłrbit":11911,"Ġpatr":11912,"ĠSegre":11913,"ternativa":11914,"ĠfÃłcils":11915,"Ġterrassa":11916,"deries":11917,"Ġ1991":11918,"ĠesperanÃ§a":11919,"ĠMunicipals":11920,"ĠadaptaciÃ³":11921,"animitat":11922,"ĠDefensa":11923,"Ġallotjament":11924,"Ġanglesa":11925,"ĠagrÃŃcola":11926,"ĠÃ©rem":11927,"alegria":11928,"ĠimmersiÃ³":11929,"Ġvuitanta":11930,"OrganitzaciÃ³":11931,"ĠÃ¨xits":11932,"Vol":11933,"cn":11934,"hid":11935,"jor":11936,"tarem":11937,"arquia":11938,"Ġby":11939,"Ġgi":11940,"Ġgan":11941,"ĠLÃŃ":11942,"ĠLib":11943,"ĠSha":11944,"Ġdianes":11945,"ĠTol":11946,"vertir":11947,"Ġaccidents":11948,"ĠGÃ³mez":11949,"umir":11950,"ĠViu":11951,"Ġpura":11952,"Ġcreadors":11953,"Ġlligat":11954,"Ġinstr":11955,"ĠÃī":11956,"rupaciÃ³":11957,"ington":11958,"Ġfebles":11959,"Ġtresor":11960,"Ġdissabtes":11961,"ĠsupervivÃ¨ncia":11962,"ĠAcciÃ³":11963,"Ġpresentacions":11964,"Ġafectat":11965,"Ġdurar":11966,"ĠreparaciÃ³":11967,"ĠenergÃ¨tic":11968,"ĠconfirmaciÃ³":11969,"ĠDeclar":11970,"Ġregalar":11971,"Ġtransparent":11972,"Ġfugir":11973,"ĠvigilÃłncia":11974,"Ġfortalesa":11975,"90":11976,"bat":11977,"fins":11978,"iA":11979,"utaciÃ³":11980,"Ġdany":11981,"areu":11982,"reia":11983,"omeu":11984,"ĠesglÃ©sies":11985,"mbia":11986,"ÃŃlia":11987,"Ġinci":11988,"lip":11989,"Ġdesastre":11990,"Ġdesnivell":11991,"ĠDalÃŃ":11992,"ĠVend":11993,"ĠllÃłstima":11994,"dueixen":11995,"ops":11996,"ĠEsquerra":11997,"Ġinteriors":11998,"Ġfinalitzat":11999,"ellada":12000,"ĠinformÃłtics":12001,"Ġestaria":12002,"Ġgeneren":12003,"Ġculte":12004,"hool":12005,"estada":12006,"ĠPart":12007,"ĠLluc":12008,"Ġajuts":12009,"Ġmorta":12010,"Ġaccel":12011,"Ġllargs":12012,"Ġpreparats":12013,"Ġatribu":12014,"Ġatmos":12015,"demn":12016,"cinc":12017,"mÃłcia":12018,"Ġlimitat":12019,"Ġlimitar":12020,"Ġgestiona":12021,"Ġimpressionant":12022,"Ġmecanisme":12023,"omÃłtic":12024,"ELL":12025,"escoltar":12026,"Ġinscriure":12027,"ĠHerrera":12028,"ĠEspaÃ±a":12029,"Ġoson":12030,"ustrÃłlia":12031,"Partit":12032,"ĠDiuen":12033,"Ġparlamentari":12034,"Ġexplorar":12035,"Ġenquestes":12036,"Ter":12037,"TER":12038,"fit":12039,"oure":12040,"utar":12041,"Ðº":12042,"Ġ=":12043,"Ġdans":12044,"ĠaÃ¯":12045,"Ġfina":12046,"Ġesquer":12047,"Ġhones":12048,"Ġalar":12049,"ĠEul":12050,"Ġnotar":12051,"ĠSÃ³":12052,"ĠMis":12053,"ĠMunt":12054,"Ġcaixes":12055,"sies":12056,"ĠBan":12057,"ĠBou":12058,"ĠGand":12059,"Ġtrag":12060,"ames":12061,"ĠdonaciÃ³":12062,"rupciÃ³":12063,"ĠxinÃ¨s":12064,"ĠSantos":12065,"ĠestaciÃ³":12066,"Ġaventures":12067,"Ġvalent":12068,"inclo":12069,"ĠfotogrÃłfic":12070,"ĠSalt":12071,"ĠproblemÃłtica":12072,"rillo":12073,"Ġgaires":12074,"ĠViladecans":12075,"Ġurnes":12076,"ĠperdÃ³":12077,"Ġajudant":12078,"ridge":12079,"Ġ1993":12080,"ĠCastellers":12081,"ĠJuvenil":12082,"Ġaugmentat":12083,"ĠMarch":12084,"exclusiÃ³":12085,"Ġcelebracions":12086,"Ġgeografia":12087,"Ġcoincidir":12088,"Ġritmes":12089,"Ġbicicletes":12090,"Ġamaga":12091,"lastre":12092,"ebrem":12093,"ÂºC":12094,"Ġatractius":12095,"Ġvegetals":12096,"Ġescapar":12097,"Ġprevisions":12098,"ĠdesgrÃłcia":12099,"Ġitinerari":12100,"Ġincloses":12101,"____":12102,"Ġtropes":12103,"Ġministra":12104,"ĠJardÃŃ":12105,"Ġfibra":12106,"ĠPublicat":12107,"ĠDÃŃaz":12108,"juÃ¯c":12109,"73":12110,"Cas":12111,"VA":12112,"ceta":12113,"hon":12114,"mis":12115,"many":12116,"mens":12117,"pera":12118,"Ġdup":12119,"ester":12120,"ĠfÃ©u":12121,"ĠvÃ¨ncer":12122,"Ġnin":12123,"Ġhere":12124,"ĠCri":12125,"ĠCÃłn":12126,"ĠAri":12127,"ĠMesa":12128,"sionat":12129,"ados":12130,"ĠNor":12131,"Ġpartides":12132,"ĠEstan":12133,"Ġcasal":12134,"haguÃ©s":12135,"Ġpassem":12136,"aparcament":12137,"Ġsoles":12138,"Esc":12139,"ĠMarroc":12140,"Ġportant":12141,"ĠConeix":12142,"ulada":12143,"Ġfores":12144,"etari":12145,"ĠRevista":12146,"ĠpolÃŃticament":12147,"ĠcomparaciÃ³":12148,"ĠLletres":12149,"Ġagraden":12150,"ĠhistÃ²riques":12151,"demil":12152,"ĠpÃºblicament":12153,"Ġcompromisos":12154,"Ġ1994":12155,"Ġlaboratori":12156,"Ġdestinades":12157,"Ġconstitueixen":12158,"ĠPrevenciÃ³":12159,"Ġessencials":12160,"IDECE":12161,"Ġnetejar":12162,"Ġsindicat":12163,"obligaciÃ³":12164,"Ġpreservar":12165,"ĠLingÃ¼ÃŃstica":12166,"ĠPeriod":12167,"''":12168,"Fa":12169,"Ha":12170,"Mon":12171,"bÃ©":12172,"farra":12173,"vÃŃ":12174,"Ãĥ":12175,"ĠdÃ²":12176,"Ġlent":12177,"cialment":12178,"ĠtÃ¨r":12179,"ator":12180,"indo":12181,"Ġremen":12182,"ĠPeti":12183,"Ġdigui":12184,"ocals":12185,"ĠDeb":12186,"eto":12187,"ĠFals":12188,"Ġcomplicitat":12189,"allat":12190,"devin":12191,"cionats":12192,"ĠUni":12193,"ĠAll":12194,"ĠIntro":12195,"Ġocells":12196,"Ġduu":12197,"Ġpublicades":12198,"ĠParets":12199,"Ġpresidit":12200,"bertat":12201,"Ġdiscul":12202,"equips":12203,"Ġparlarem":12204,"Ġliteraris":12205,"Ġmedicaments":12206,"Ġenfrontar":12207,"Ġreservar":12208,"entista":12209,"Ġrepartir":12210,"Ġballs":12211,"ĠbalcÃ³":12212,"ĠRio":12213,"Ġpractic":12214,"Ġrumb":12215,"ĠpacÃŃfica":12216,"Ġfelicitar":12217,"ĠConcert":12218,"Ġdesapareix":12219,"Ġfulls":12220,"ĠcÃ²mic":12221,"Ġconducta":12222,"ĠgastronÃ²mica":12223,"Ġratxa":12224,"Ġcomponent":12225,"Ġpolicies":12226,"ĠPÃºbliques":12227,"Ġaux":12228,"Ġequipament":12229,"emporada":12230,"ĠalimentÃłria":12231,"ajudar":12232,"Ġcomissari":12233,"ĠcÃłstig":12234,"Seg":12235,"TES":12236,"gre":12237,"itiva":12238,"mod":12239,"entant":12240,"Ġdetingut":12241,"alistes":12242,"inera":12243,"Ġengres":12244,"Ġhospitals":12245,"guarda":12246,"Ġrema":12247,"ĠPeix":12248,"Ġinvis":12249,"ĠSÃłn":12250,"Ġcaire":12251,"objecte":12252,"odia":12253,"ĠGai":12254,"ĠâĢĿ":12255,"ĠNecess":12256,"trar":12257,"Ġtraduir":12258,"Ġobten":12259,"Ġcarnet":12260,"Ġpujat":12261,"Ġcolom":12262,"ucs":12263,"Esport":12264,"ĠtinguÃ©":12265,"Ġusu":12266,"Ġavor":12267,"Ġforestal":12268,"Ġamable":12269,"Ġpuntual":12270,"ĠMaig":12271,"Ġfinalistes":12272,"Ġjugada":12273,"ĠlÃŃqu":12274,"Ġparadi":12275,"Ġcomplexa":12276,"Ġtocant":12277,"ĠcompromÃ¨s":12278,"Ġafectades":12279,"cookies":12280,"Ġfreda":12281,"Ġgasos":12282,"Ġdiccionari":12283,"Ġdarrerament":12284,"Ġrenovar":12285,"ĠBerlÃŃn":12286,"ĠRomÃłnica":12287,"ĠPastor":12288,"arrel":12289,"Ġprocedent":12290,"quadern":12291,"ĠTranspar":12292,"Ġempresarials":12293,"Ġreaccions":12294,"Ġinaugurar":12295,"Ġfidels":12296,"renedoria":12297,"macÃ¨u":12298,"Ġorganisme":12299,"Ġprovinents":12300,"Ġcarboni":12301,"arquitecte":12302,"molt":12303,"ĠTrump":12304,"56":12305,"72":12306,"AscÃ³":12307,"Fi":12308,"itiner":12309,"set":12310,"yn":12311,"Ġdretes":12312,"ĠmÃłn":12313,"aliment":12314,"ĠtÃ¨x":12315,"Ãłrem":12316,"rof":12317,"ĠAmat":12318,"ĠMonestir":12319,"lita":12320,"urÃłs":12321,"Ġdesac":12322,"tanes":12323,"ĠFill":12324,"egem":12325,"ĠcapÃ§al":12326,"cionista":12327,"avell":12328,"Ġcasol":12329,"Ġinterns":12330,"Ġemm":12331,"ĠguÃłrdia":12332,"Ġcatalog":12333,"Ġpersonalitzada":12334,"Ġrealitzaran":12335,"Ġacabada":12336,"Ġguanyadora":12337,"ival":12338,"Ġagradaria":12339,"Ġgaudint":12340,"ejat":12341,"Ġdestinada":12342,"Ġbiografia":12343,"Ġvincles":12344,"ĠgratuÃ¯tes":12345,"Ġentorns":12346,"Ġpractica":12347,"Ġvermella":12348,"Ġamagar":12349,"ĠPepper":12350,"ĠRoser":12351,"Ġdotar":12352,"Ġaprenent":12353,"equipament":12354,"ĠinteracciÃ³":12355,"ĠamericÃł":12356,"ĠPDF":12357,"historia":12358,"ĠdesplaÃ§ament":12359,"Ġfitxa":12360,"ĠClimÃłtic":12361,"Ġavaluar":12362,"Ġtransversal":12363,"ĠïĤ":12364,"Ġbronze":12365,"Ġinvoluc":12366,"gt":12367,"wer":12368,"Ã©nez":12369,"Ġenquesta":12370,"Ġrev":12371,"Ã²cia":12372,"urats":12373,"ĠTeix":12374,"ĠBro":12375,"etÃłria":12376,"ĠllanÃ§a":12377,"Ġ2020":12378,"gament":12379,"ĠseguirÃł":12380,"Ġmesurar":12381,"Ġconcursos":12382,"menet":12383,"Ġamigues":12384,"ĠacabarÃł":12385,"Ġsubven":12386,"Ġcontinuat":12387,"Ġtira":12388,"ĠViquipÃ¨dia":12389,"homenatge":12390,"Ġciutadanes":12391,"Ġtemporals":12392,"Ġmonument":12393,"Andreu":12394,"duÃ¯ts":12395,"ĠJuliol":12396,"Ġmobles":12397,"projecte":12398,"ĠDiputats":12399,"Ġcabells":12400,"Ġmassiva":12401,"ĠcomenÃ§ant":12402,"Ġassociat":12403,"Ġlleugerament":12404,"Ġcensura":12405,"ĠcÃłmeres":12406,"Ġinfraestructura":12407,"ĠrellevÃłncia":12408,"ĠautÃ²nomes":12409,"Ġmentida":12410,"Ġcloenda":12411,"encarrega":12412,"Ġensenyaments":12413,"ĠBeatles":12414,"Ġaficionats":12415,"ĠCuba":12416,"erapÃ¨u":12417,"Ġcementiri":12418,"-.":12419,"fel":12420,"nies":12421,"uca":12422,"erola":12423,"quista":12424,"ole":12425,"Ġesmenta":12426,"guitat":12427,"ĠEug":12428,"ĠPra":12429,"ĠSum":12430,"ĠBu":12431,"ĠBig":12432,"rano":12433,"Ġactivament":12434,"ĠIsa":12435,"assass":12436,"oper":12437,"rena":12438,"Ġpassats":12439,"Ã¯a":12440,"ĠprÃŃncep":12441,"Ġmani":12442,"vetat":12443,"teniment":12444,"ĠComerci":12445,"ĠfinanÃ§ar":12446,"ratges":12447,"Ġcorreus":12448,"tituciÃ³":12449,"ĠentÃ©n":12450,"encialitat":12451,"Ġveieu":12452,"Ġduent":12453,"onÃ²mics":12454,"Ġcompartida":12455,"ĠGuardi":12456,"Ġmeua":12457,"Ġmedievals":12458,"cover":12459,"Ġcombusti":12460,"Ġanomenats":12461,"otips":12462,"itxell":12463,"ĠdiversiÃ³":12464,"olÃŃtic":12465,"Ġcomportar":12466,"Ġrecic":12467,"ĠprecisiÃ³":12468,"ĠUNESCO":12469,"ĠSecretari":12470,"Ġconfigurar":12471,"olerÃłncia":12472,"Alacant":12473,"Ġcomplicada":12474,"assignatura":12475,"Ġpagesos":12476,"Ġbalear":12477,"Ġfestius":12478,"Ġtrepitj":12479,"ĠSÃ³ller":12480,"41":12481,"Co":12482,"The":12483,"dent":12484,"hero":12485,"hÃłb":12486,"Ġcors":12487,"arbre":12488,"integraciÃ³":12489,"ĠCR":12490,"Ã²metre":12491,"Ġbressol":12492,"uses":12493,"Ġinevi":12494,"leda":12495,"ĠMÃºrcia":12496,"liÃ³":12497,"ĠTren":12498,"igo":12499,"ĠIgnasi":12500,"Ġrecollit":12501,"ĠNingÃº":12502,"Ġroses":12503,"Ġviven":12504,"avis":12505,"ĠEspec":12506,"Ġcasament":12507,"gipte":12508,"ĠavaluaciÃ³":12509,"Ġ43":12510,"java":12511,"ĠteÃ²rica":12512,"Ġfundar":12513,"Ġformatius":12514,"Ġfotogra":12515,"Ġtorni":12516,"Ġminerals":12517,"Ġoport":12518,"ĠArtur":12519,"ife":12520,"Ġrefereix":12521,"Ġaparentment":12522,"orregut":12523,"ejament":12524,"Ġoficialment":12525,"ajut":12526,"ĠSegurament":12527,"Ġpaisatg":12528,"ĠgÃ¨neres":12529,"infant":12530,"ĠfreqÃ¼ents":12531,"Ġdoctorat":12532,"Ġcavalls":12533,"anomenat":12534,"Ġcercle":12535,"ĠAndrÃ©s":12536,"ligents":12537,"Ġrevolucion":12538,"Ġacudir":12539,"ĠridÃŃc":12540,"58":12541,"cles":12542,"fia":12543,"lents":12544,"mm":12545,"pod":12546,"yw":12547,"Ġagl":12548,"erats":12549,"ato":12550,"emmagatzem":12551,"Ġester":12552,"ĠSevilla":12553,"ĠBrossa":12554,"ĠGro":12555,"acor":12556,"rimes":12557,"Ġentrevis":12558,"Ġpujant":12559,"ĠUnes":12560,"Ã¼r":12561,"Ġoriental":12562,"Ġcova":12563,"Ġdeixeu":12564,"ĠdeixarÃł":12565,"ĠcomuniÃ³":12566,"ĠValencia":12567,"ĠKa":12568,"Ġescoltant":12569,"Ġaparegu":12570,"Ġmonuments":12571,"Ġefectius":12572,"Ġestrat":12573,"Ġconserven":12574,"Ġdedicats":12575,"Ġvincle":12576,"Ġlimitacions":12577,"idees":12578,"Ġordres":12579,"ĠEspriu":12580,"Ġsatisfac":12581,"ĠBonet":12582,"ĠAlberto":12583,"Ġindicacions":12584,"Ġreligioses":12585,"ĠDomÃ¨n":12586,"Ġdisfress":12587,"Ġbombers":12588,"ĠVisita":12589,"Ġfederal":12590,"Ġgenial":12591,"ĠTremp":12592,"ĠSÃłnchez":12593,"Durant":12594,"NA":12595,"nats":12596,"urisme":12597,"Ġaustr":12598,"Ġsost":12599,"Ġsonar":12600,"Ġsosp":12601,"alba":12602,"tio":12603,"Ġfixa":12604,"ĠPenya":12605,"Ġintr":12606,"Ġoi":12607,"ĠElls":12608,"Ġanualment":12609,"ĠrÃłn":12610,"Ġvivia":12611,"Ġgrand":12612,"ĠsortirÃł":12613,"Ġdescri":12614,"Ġ54":12615,"Ġdocum":12616,"utilitzen":12617,"Ġimporta":12618,"ĠArquitec":12619,"Ġutilitzada":12620,"Ġllegendes":12621,"etiqueta":12622,"ĠMollet":12623,"ĠLliure":12624,"residenta":12625,"Ġtriomfs":12626,"ĠestratÃ¨gic":12627,"Ġseparar":12628,"ĠEconomia":12629,"ĠConcretament":12630,"Ġdepartaments":12631,"limentaciÃ³":12632,"Ġascens":12633,"Ġdescomptat":12634,"ĠEsportiva":12635,"ĠÃģngel":12636,"Ġcoherent":12637,"ĠdidÃłctica":12638,"ĠMemÃ²ria":12639,"horabona":12640,"89":12641,"Can":12642,"aus":12643,"baix":12644,"ceb":12645,"neu":12646,"Ġfrus":12647,"Ġunanimitat":12648,"Ġalemanya":12649,"ĠCC":12650,"Ã²bia":12651,"Ġbors":12652,"Ġballa":12653,"Ġgrega":12654,"Ġconquer":12655,"irona":12656,"Ġdesenes":12657,"obri":12658,"ĠBCN":12659,"ĠFam":12660,"ĠFeli":12661,"ĠJut":12662,"Ġtapes":12663,"Ġarbre":12664,"ĠEnciclopÃ¨dia":12665,"torell":12666,"ĠHor":12667,"executiu":12668,"Ã¨sties":12669,"Ġassemblea":12670,"Ġcalcula":12671,"Ġxef":12672,"metratge":12673,"ĠraÃ§a":12674,"ĠAnem":12675,"iene":12676,"ĠintÃ¨rp":12677,"Ġ800":12678,"ĠvenÃ§":12679,"Ġpropici":12680,"ĠCala":12681,"Ġestren":12682,"Ġperden":12683,"ĠMireia":12684,"Ġconvencional":12685,"herÃ¨ncia":12686,"ĠVerge":12687,"ĠfarÃ©":12688,"Ġ1978":12689,"Ġrecullen":12690,"Ġeixe":12691,"Ġ1939":12692,"edag":12693,"Ġendur":12694,"ĠacadÃ¨mics":12695,"ĠratolÃŃ":12696,"Ġapuntat":12697,"escolars":12698,"Ġferrovi":12699,"ĠÃłnima":12700,"Ġlleuger":12701,"Ġreivindicacions":12702,"ĠGastr":12703,"ordenaciÃ³":12704,"Ġsobiranista":12705,"ĠnarraciÃ³":12706,"organisme":12707,"Ġsubministrament":12708,"ĠWillia":12709,"ĠCÃŃvic":12710,"Ġpetroli":12711,",âĢ¦":12712,"52":12713,"92":12714,"Hab":12715,"ives":12716,"tent":12717,"ĠpavellÃ³":12718,"queb":12719,"quilla":12720,"integ":12721,"guerra":12722,"tallat":12723,"Ġdestruir":12724,"ilitzar":12725,"tinciÃ³":12726,"ĠVull":12727,"cionalitzaciÃ³":12728,"Ġimper":12729,"ĠHom":12730,"eneraciÃ³":12731,"Ġdiagnos":12732,"Ġfinalitz":12733,"Ġabordar":12734,"pital":12735,"Ġarribada":12736,"ĠQuÃŃmica":12737,"Ġdeixi":12738,"ulacions":12739,"Ġsituen":12740,"estava":12741,"ĠParaula":12742,"portiu":12743,"Ġformatiu":12744,"Ġclars":12745,"Ġpromesa":12746,"ERS":12747,"Enginyeria":12748,"valu":12749,"Ġsemif":12750,"Ãłlisis":12751,"Ġdenuncia":12752,"Ġsimpli":12753,"ĠÃĢlex":12754,"Ġexplicava":12755,"ORM":12756,"Ġtitulat":12757,"ĠartÃŃstics":12758,"ĠCapella":12759,"Ġagafat":12760,"ĠcientÃŃfiques":12761,"Ġrebutjar":12762,"Ġtornava":12763,"ampliaciÃ³":12764,"Ġindicadors":12765,"ĠEconÃ²mic":12766,"ĠsubstituciÃ³":12767,"umpciÃ³":12768,"Ġquedant":12769,"Ġdobles":12770,"Ġavantatge":12771,"Ġjuvenils":12772,"Ġpolicials":12773,"Ġbarcelonins":12774,"ĠCDC":12775,"ĠAprof":12776,"ĠIgualada":12777,"ĠLiteratura":12778,"Ġitaliana":12779,"Ġatemptats":12780,"Ġcomoditat":12781,"Ġretard":12782,"ĠCoordinadora":12783,"%),":12784,"MP":12785,"Mol":12786,"Res":12787,"ew":12788,"jug":12789,"orem":12790,"pis":12791,"Ġutilitat":12792,"espanyol":12793,"orable":12794,"Ġtribunal":12795,"indic":12796,"Ġencarregar":12797,"ĠalÃ§ada":12798,"ĠCir":12799,"ĠPineda":12800,"Ġbel":12801,"ĠcaÃ§a":12802,"Ġdesfer":12803,"ĠTemps":12804,"ĠGemma":12805,"identitat":12806,"Ġexag":12807,"ĠJon":12808,"Ġtaxes":12809,"opar":12810,"optim":12811,"Est":12812,"Ġveureu":12813,"errada":12814,"ĠDescarregar":12815,"Ġsalud":12816,"ĠfotogrÃłfica":12817,"Ġestos":12818,"ript":12819,"glish":12820,"Ġrepresentat":12821,"ĠWh":12822,"Ġutilitzem":12823,"Ġpeticions":12824,"caldia":12825,"Alemanya":12826,"Ġlegalitat":12827,"Ġgaudit":12828,"Ġdonada":12829,"Ãłctica":12830,"ĠCodi":12831,"ĠmÃłxims":12832,"Ġjuntes":12833,"ĠtecnolÃ²gic":12834,"mÃłtics":12835,"Ġcomerciants":12836,"ĠGramenet":12837,"Ġintegrants":12838,"ĠavanÃ§ada":12839,"Ġubicada":12840,"ĠcertificaciÃ³":12841,"ĠnecessÃłriament":12842,"Ġjugadores":12843,"ĠfreqÃ¼ent":12844,"ĠProfessor":12845,"Ġcarregat":12846,"Ġfutures":12847,"lelament":12848,"Ġamericana":12849,"ĠConservatori":12850,"Ġvoluntariat":12851,"ĠtertÃºlia":12852,"ĠMamada":12853,"ĠfÃ²ssils":12854,"ĠLegislaciÃ³":12855,"Ġcrescut":12856,"Ġforestals":12857,"As":12858,"Amposta":12859,"VE":12860,"rÃ²p":12861,"erem":12862,"tagram":12863,"Ġced":12864,"Ġelegant":12865,"Ġqueixa":12866,"rique":12867,"guÃ¨s":12868,"ĠPess":12869,"ĠPreu":12870,"ĠPale":12871,"ĠAR":12872,"Ġnoble":12873,"Ġnobles":12874,"Ġgana":12875,"Ġgala":12876,"lea":12877,"Ġhaureu":12878,"ĠDeci":12879,"Ġaniran":12880,"tiny":12881,"oportunitats":12882,"ĠEsport":12883,"âĢĿ).":12884,"perÃ²":12885,"Ġpatates":12886,"Ġcorona":12887,"Ġorg":12888,"ellas":12889,"Ġincertes":12890,"Ġtracten":12891,"Ġdirectius":12892,"ĠAnti":12893,"Ġprogramat":12894,"Ġriera":12895,"Ġrefre":12896,"Ġdesenvolupant":12897,"ĠArxiu":12898,"rÃŃp":12899,"Ġnegatiu":12900,"ĠclÃŃnica":12901,"Ġrode":12902,"ĠagraÃ¯t":12903,"Ġmonitor":12904,"Ġoblidat":12905,"Ġdefinit":12906,"Ã±ez":12907,"Ġpresentades":12908,"Ġconfiar":12909,"arcacions":12910,"ĠRepres":12911,"Ġcompeticions":12912,"Ġ1985":12913,"Ġfocus":12914,"ĠestratÃ¨gica":12915,"Ġconsolidat":12916,"Ġsoftware":12917,"Ġdramat":12918,"Ġfinancer":12919,"Ġcondemna":12920,"ĠdisminuciÃ³":12921,"ĠdenominaciÃ³":12922,"Octubre":12923,"Ġsaludables":12924,"ĠreivindicaciÃ³":12925,"ĠsÃŃmbols":12926,"ĠGlobal":12927,"ĠMeritxell":12928,"Ġinnovadores":12929,"ĠAlgÃº":12930,"Ġdecoratiu":12931,"Ġvallesans":12932,"Ġmotocicleta":12933,"Ġrosegadors":12934,"51":12935,"64":12936,"DescripciÃ³":12937,"Pal":12938,"ualitats":12939,"esi":12940,"alcohol":12941,"inades":12942,"informa":12943,"ressa":12944,"ĠCro":12945,"ixen":12946,"Ġrevi":12947,"asp":12948,"ĠSort":12949,"ĠDen":12950,"oblit":12951,"ĠFru":12952,"ĠId":12953,"inava":12954,"Ġpasses":12955,"Ġseguides":12956,"intel":12957,"Ġinsu":12958,"visme":12959,"Ġsortint":12960,"Ġverteb":12961,"ĠsalÃ³":12962,"agossa":12963,"fiqui":12964,"llats":12965,"incesa":12966,"ĠCases":12967,"Ġrica":12968,"ĠĠĠ":12969,"ĠCalif":12970,"Ġcomparar":12971,"Ġexcessiva":12972,"ompliment":12973,"Ġindependentment":12974,"Ġestrena":12975,"Ġindiquen":12976,"ĠcomenÃ§ava":12977,"ĠRamÃ³n":12978,"Ġsenzillament":12979,"ĠTenen":12980,"Ġjudicials":12981,"ĠGeografia":12982,"Ġmadu":12983,"ĠRipollet":12984,"Ġfrontal":12985,"Ġterrorisme":12986,"IVA":12987,"Ġsimbol":12988,"ĠRock":12989,"ĠquÃŃmica":12990,"Ġprotegida":12991,"Ġcorporal":12992,"ĠSeminari":12993,"ĠcÃŃv":12994,"Ġespiritual":12995,"Ġescollits":12996,"67":12997,"Aula":12998,"Im":12999,"MI":13000,"llegir":13001,"ners":13002,"Ġot":13003,"Ġdeter":13004,"Ġaudi":13005,"arde":13006,"onem":13007,"onda":13008,"Ġtrent":13009,"inven":13010,"ĠEivissa":13011,"ĠcomitÃ¨":13012,"Ġrepos":13013,"ĠAten":13014,"Ġberen":13015,"Ġinvas":13016,"Ġdesfi":13017,"ime":13018,"Ġarxiu":13019,"Ġintervenir":13020,"ĠplÃłn":13021,"ĠsupressiÃ³":13022,"ficials":13023,"ĠestÃłvem":13024,"Ġtancats":13025,"ĠXi":13026,"Ġprofeta":13027,"anesos":13028,"Ġcomunitari":13029,"Ġjueves":13030,"oft":13031,"Ġbaixant":13032,"Ġdisposats":13033,"Ġgravar":13034,"Ġfang":13035,"Ġaparells":13036,"ĠCano":13037,"Arquitec":13038,"Ġfestivitat":13039,"Ġfestivals":13040,"organitzar":13041,"Ġcobert":13042,"Ġlluites":13043,"ĠsubstÃłncies":13044,"ĠprocessÃ³":13045,"Ġnegociar":13046,"Ġfranja":13047,"Ġentrenaments":13048,"Ġcoincideix":13049,"Ġdisputat":13050,"Ġpsicologia":13051,"Ġvesprada":13052,"Ġbanqueta":13053,"Ġbatall":13054,"Ã²crata":13055,"ĠIsrael":13056,"ĠreforÃ§":13057,"ĠdistinciÃ³":13058,"Ġregional":13059,"Ġplantejat":13060,"ĠVicente":13061,"Ġrevisar":13062,"ĠimmigraciÃ³":13063,"Ġextens":13064,"ĠAfegeix":13065,"ilateral":13066,"espÃ¨cies":13067,"ĠTecla":13068,"?.":13069,"FE":13070,"clos":13071,"lers":13072,"enquesta":13073,"quir":13074,"alimenta":13075,"âĢĭ":13076,"Ġqueixes":13077,"Ġtrin":13078,"ĠtÃ²x":13079,"omÃ¨t":13080,"gualment":13081,"ĠreduÃ¯da":13082,"Ġbeca":13083,"usalem":13084,"Ġges":13085,"Ġlluna":13086,"trÃº":13087,"cionisme":13088,"Ġimpac":13089,"Ġsocialment":13090,"Ġcatalan":13091,"ĠQU":13092,"Ãłriament":13093,"Ġadult":13094,"Ġ41":13095,"mentals":13096,"Ġdirectiva":13097,"ĠConsulta":13098,"Ġdiversa":13099,"ĠcerÃłmica":13100,"ĠKar":13101,"Ġinteressada":13102,"impressiÃ³":13103,"Ġfila":13104,"Ġconsumidor":13105,"Ġlliurement":13106,"ĠtrÃłfic":13107,"Ġmereixen":13108,"Ġestranya":13109,"inatÃ²ria":13110,"Ġfixat":13111,"Ġvestits":13112,"Ġtrucar":13113,"Ġcommemorar":13114,"Ġcontenidors":13115,"Ġpedagogia":13116,"ĠpagÃ¨s":13117,"Ġaudiovisuals":13118,"Ġenviant":13119,"Ġrastre":13120,"ĠProductes":13121,"ĠGeltrÃº":13122,"Ġlateral":13123,"ĠperiÃ²dica":13124,"Ġsalvatge":13125,"ĠVendrell":13126,"tinyent":13127,"%).":13128,"54":13129,"bro":13130,"cules":13131,"top":13132,"web":13133,"Ġaer":13134,"Ġaran":13135,"ĠcÃ¨n":13136,"andre":13137,"osex":13138,"olor":13139,"dada":13140,"ĠCuri":13141,"ussions":13142,"ĠManc":13143,"Ġhaig":13144,"ĠdiguÃ©":13145,"ĠDemÃł":13146,"adolesc":13147,"ĠIgualment":13148,"Ġrecrea":13149,"Ġpredic":13150,"ĠtraÃ¯":13151,"Ġcosm":13152,"Ġintercanvi":13153,"Ġmargin":13154,"Esquerra":13155,"ĠAlhora":13156,"estim":13157,"Ġxen":13158,"Ġpoblat":13159,"ĠDesta":13160,"Ġmales":13161,"Ġfortes":13162,"ĠautonÃ²mic":13163,"Ġsetmanal":13164,"ĠÃºniques":13165,"Ġpastor":13166,"ĠestÃ¨tica":13167,"Ġ700":13168,"ĠllenÃ§ar":13169,"Ġcompartim":13170,"Ġroques":13171,"ĠLlevant":13172,"turat":13173,"Ġtrencat":13174,"ĠencÃłrrec":13175,"Ġdestacades":13176,"ĠRaimon":13177,"Ġautoritat":13178,"Ġpesar":13179,"Ġremodel":13180,"Ġembar":13181,"Ġreproduir":13182,"IDA":13183,"ĠemociÃ³":13184,"Ġlimitada":13185,"avantatge":13186,"Ġperjudici":13187,"encarregat":13188,"ĠimplementaciÃ³":13189,"ICIONS":13190,"ĠautomÃłticament":13191,"Ġpropaganda":13192,"ĠtomÃłquet":13193,"ĠTelecomunicacions":13194,"dalusia":13195,"ĠRespecte":13196,"DA":13197,"culs":13198,"tries":13199,"Â°":13200,"Ġline":13201,"Ġcess":13202,"anitats":13203,"onent":13204,"Ġmenta":13205,"Ġquota":13206,"Ġtristes":13207,"Ġdelim":13208,"Ġalb":13209,"ĠCic":13210,"onsable":13211,"Ġreta":13212,"ĠPub":13213,"ĠTossa":13214,"Ġacollida":13215,"ĠVera":13216,"uth":13217,"ĠNau":13218,"ĠUS":13219,"jecciÃ³":13220,"Ġprud":13221,"ucrist":13222,"Ġculp":13223,"Ġjoia":13224,"Ġcomunes":13225,"Ġbenedic":13226,"Ġsincer":13227,"Ġautoma":13228,"Ġpassatgers":13229,"ĠelecciÃ³":13230,"ĠArnau":13231,"estos":13232,"laborador":13233,"Ġobligats":13234,"Ġcausar":13235,"Ġrealitats":13236,"ĠZona":13237,"Ġnavegar":13238,"ĠFrank":13239,"ĠconcepciÃ³":13240,"ĠRomero":13241,"ĠCiutadella":13242,"ĠEtiquetat":13243,"Ġobligatori":13244,"Ġmaresmen":13245,"EUiA":13246,"Ġolor":13247,"Ġbutxaca":13248,"Ġobtinguts":13249,"ussÃł":13250,"eliminaciÃ³":13251,"ĠrepublicÃł":13252,"Ġextensa":13253,"ĠparlamentÃłria":13254,"Ġcadires":13255,"ĠescÃ¨niques":13256,"ĠbritÃłnic":13257,"Ġmediambiental":13258,"Ġbranques":13259,"ĠïĤ§":13260,"74":13261,"BA":13262,"evid":13263,"itiu":13264,"jocs":13265,"kar":13266,"ue":13267,"Ø§":13268,"Ġdors":13269,"Ġlunes":13270,"ĠpÃłr":13271,"ontal":13272,"Ġtub":13273,"ĠfÃ²r":13274,"Ġfisi":13275,"Ġencom":13276,"riÃ³":13277,"ĠPesca":13278,"ĠSA":13279,"siÃł":13280,"ulli":13281,"ĠRoses":13282,"ĠGÃ¨n":13283,"egaciÃ³":13284,"ĠrÃ¨p":13285,"carta":13286,"ĠHam":13287,"alitzem":13288,"Estudi":13289,"encialment":13290,"ĠDijous":13291,"Ġbarreres":13292,"Ġmini":13293,"Ġlocalitzar":13294,"Ġllenya":13295,"Ġrespectius":13296,"Ġmonop":13297,"cionament":13298,"expresident":13299,"ĠCorona":13300,"Ġsonora":13301,"Ġabsur":13302,"Ġconvenis":13303,"Ġtelef":13304,"ĠVerd":13305,"Ġpales":13306,"animal":13307,"Ãłpiga":13308,"Ġprohibit":13309,"ĠjurÃŃdiques":13310,"Ġinformatius":13311,"ĠEspero":13312,"Ġsucceir":13313,"AgrupaciÃ³":13314,"ĠoperaciÃ³":13315,"ĠCÃłtedra":13316,"ĠtÃŃpica":13317,"entrenament":13318,"observaciÃ³":13319,"Ġtraductor":13320,"ĠJerusalem":13321,"alliberament":13322,"Ġimmobili":13323,"Ġsuggeriments":13324,"Aigua":13325,"kh":13326,"pecciÃ³":13327,"rs":13328,"tÃŃs":13329,"Ġcist":13330,"artic":13331,"altat":13332,"Ġvenc":13333,"ritas":13334,"ĠEva":13335,"ĠPuc":13336,"ĠAy":13337,"usar":13338,"Ġgrossa":13339,"ante":13340,"Ġdesmun":13341,"Ġanalitza":13342,"ellat":13343,"ĠFan":13344,"ĠGerm":13345,"enseny":13346,"Ġexis":13347,"umin":13348,"ĠVII":13349,"ĠVine":13350,"Ġresca":13351,"tring":13352,"cionant":13353,"cionistes":13354,"illes":13355,"jectius":13356,"amena":13357,"ĠCommons":13358,"ĠNoves":13359,"Ġcordes":13360,"Ġadjun":13361,"Ġ59":13362,"ĠReagrupament":13363,"mart":13364,"Ġnegociacions":13365,"Ġrebuda":13366,"Ġcuinar":13367,"Ġcator":13368,"ĠCanadÃł":13369,"ĠconversiÃ³":13370,"Ġdirigits":13371,"ĠJesucrist":13372,"Ġpositivament":13373,"Ġnacionalisme":13374,"Ġvinculat":13375,"Ġconsiderable":13376,"Ġbateria":13377,"Ġpostres":13378,"Ġimpulsada":13379,"Ġincorporat":13380,"Ġmasia":13381,"ĠTeniu":13382,"Ġconsolid":13383,"ĠinclÃºs":13384,"ĠllicÃ¨ncies":13385,"Ġsexuals":13386,"Ġinscrits":13387,"Ġperduda":13388,"ĠPsicologia":13389,"Ġarenyencs":13390,"ĠcÃłlcul":13391,"Ġebren":13392,"ĠFalset":13393,"ĠTransparÃ¨ncia":13394,"Sense":13395,"Vic":13396,"gons":13397,"hy":13398,"tici":13399,"tibles":13400,"oman":13401,"ĠnÂº":13402,"Ãłcid":13403,"ick":13404,"Ã²dia":13405,"Ġbrin":13406,"ĠconÃ©ixer":13407,"Ġconquesta":13408,"ĠSra":13409,"Ġdesn":13410,"ocul":13411,"dipu":13412,"ader":13413,"mpings":13414,"Ġantec":13415,"vert":13416,"ĠFi":13417,"Ġactor":13418,"ĠNeus":13419,"ĠmoltÃŃssim":13420,"Ġmarquen":13421,"Ġtempesta":13422,"escala":13423,"Ġadmet":13424,"Ġinformem":13425,"Ġpou":13426,"nestol":13427,"Ġcelebrem":13428,"tadÃŃstica":13429,"ĠViol":13430,"Ġutilitzades":13431,"ĠSalÃ³":13432,"ĠrebrÃł":13433,"Ġpromet":13434,"Ġaccent":13435,"Ã²rnia":13436,"ĠCookies":13437,"Ġafegim":13438,"Ġdolent":13439,"2006":13440,"Ġacceptat":13441,"ĠcrÃ¨dits":13442,"estudiants":13443,"ĠportÃł":13444,"Ġsubstan":13445,"Ġvilatans":13446,"Ġmodifica":13447,"fonia":13448,"ĠSecund":13449,"ĠcristiÃł":13450,"efacciÃ³":13451,"Ġflora":13452,"Activitat":13453,"ĠRelacions":13454,"ĠbotÃ³":13455,"ĠOliver":13456,"ĠrecaptaciÃ³":13457,"anomenada":13458,"Ġconstruccions":13459,"ĠjaponÃ¨s":13460,"ĠmanipulaciÃ³":13461,"Ġprofundament":13462,"Ġreclamacions":13463,"Ġburges":13464,"ĠcoherÃ¨ncia":13465,"Ġfantas":13466,"Ġenemics":13467,"Ġinfantesa":13468,"ĠBartomeu":13469,"ĠanÃ¨cdotes":13470,"ĠrÃ¨cord":13471,"nestoltes":13472,"SÃŃ":13473,"ii":13474,"itant":13475,"sobre":13476,"articles":13477,"Ġsat":13478,"Ġmari":13479,"Ġtribunals":13480,"dades":13481,"onso":13482,"ĠAh":13483,"letisme":13484,"ĠMy":13485,"Ġevang":13486,"Ġdiges":13487,"ĠDalt":13488,"ĠDuraciÃ³":13489,"Ġanota":13490,"terdam":13491,"egada":13492,"ĠVel":13493,"ĠllanÃ§ar":13494,"asses":13495,"Ġcapg":13496,"dea":13497,"ded":13498,"cionen":13499,"edent":13500,"Ġcart":13501,"exic":13502,"reballa":13503,"Ġcredi":13504,"Ãºstries":13505,"amic":13506,"Ġassemble":13507,"Ġmestra":13508,"Ġcalent":13509,"Ġadvocat":13510,"rich":13511,"Ġmaltrac":13512,"ĠAntic":13513,"Ġamistat":13514,"Ġaprova":13515,"ĠArran":13516,"regaciÃ³":13517,"Ġrecordant":13518,"Ġintegritat":13519,"Ġinvestigador":13520,"Ġestimada":13521,"pidesa":13522,"CIA":13523,"Ġsensible":13524,"Ġaplicable":13525,"Ġacostumen":13526,"Ġrequereixen":13527,"ĠMagdal":13528,"ĠfenÃ²mens":13529,"Ġfinancers":13530,"Ġprivilegis":13531,"ĠmÃ¨dic":13532,"ĠTÃ¨cnic":13533,"................":13534,"Ġdiscutir":13535,"Ġartificial":13536,"Ġestendre":13537,"400":13538,"Ta":13539,"],":13540,"Ġpadr":13541,"tag":13542,"ĠmÃ¡s":13543,"ĠCob":13544,"ĠCAM":13545,"Ġrequ":13546,"ĠinÃº":13547,"sionar":13548,"ĠBB":13549,"ĠBiblioteques":13550,"ĠForca":13551,"ĠNight":13552,"Ġpostura":13553,"edora":13554,"perquÃ¨":13555,"...,":13556,"carril":13557,"ĠterÃ§":13558,"Ġdonaran":13559,"Esta":13560,"Ġvisiten":13561,"low":13562,"ituds":13563,"Ġaval":13564,"Ġ49":13565,"Ġmalestar":13566,"ĠAng":13567,"Ġ51":13568,"ontologia":13569,"Ġgovernants":13570,"Ġinfla":13571,"eridi":13572,"Ġminor":13573,"ï¿½,":13574,"ĠaprovaciÃ³":13575,"ĠPropos":13576,"Ã²pera":13577,"Ã²pies":13578,"Ġfilos":13579,"Ġpenjat":13580,"ĠlegÃŃtim":13581,"ĠÃ¨mf":13582,"Ġefectu":13583,"Ġdebut":13584,"Ġinstituts":13585,"agraden":13586,"2005":13587,"aprova":13588,"Ordre":13589,"Ġpostgrau":13590,"ĠproporciÃ³":13591,"Ġsostenibles":13592,"Ġpracti":13593,"Ġjustifica":13594,"ĠRichard":13595,"Ġmeravella":13596,"igualtat":13597,"ĠPetit":13598,"Ġinaugural":13599,"ĠMitjanÃ§ant":13600,"Ġvetllar":13601,"Ġdescompte":13602,"Ġalemanys":13603,"ĠfeliÃ§os":13604,"Ġfitxes":13605,"ĠemblemÃłtics":13606,"Orient":13607,"Ġvisualitzar":13608,"ĠNicol":13609,"Ġlaterals":13610,"ĠparÃłmetres":13611,"ĠavenÃ§os":13612,"ĠIndustrial":13613,"MÃ©s":13614,"gost":13615,"gies":13616,"rÃ¡":13617,"Ġost":13618,"esports":13619,"error":13620,"Ġpins":13621,"anet":13622,"aniversari":13623,"osar":13624,"olles":13625,"Ġaltament":13626,"Ã¨lia":13627,"ĠAma":13628,"Ġconre":13629,"Ġparteix":13630,"ĠDO":13631,"Ġserem":13632,"Ġextern":13633,"ĠNarc":13634,"Ġfavora":13635,"instru":13636,"viÃł":13637,"Ġferen":13638,"desc":13639,"Ġvolar":13640,"exca":13641,"ĠCatalanes":13642,"Ġnomen":13643,"Ġpollastre":13644,").-":13645,"Estiu":13646,"Ġtals":13647,"Ġmitjanes":13648,"Ġcertament":13649,"rÃŃtica":13650,"Ġagenda":13651,"Ġbaixat":13652,"ESC":13653,"aficiÃ³":13654,"Ġoblidem":13655,"Ġdonacions":13656,"bama":13657,"Ãłlbum":13658,"Ġpresentava":13659,"Ġoficina":13660,"Ġkms":13661,"coi":13662,"ĠveÃ¯nat":13663,"ĠSolÃ©":13664,"Ġimmensa":13665,"estudiant":13666,"Ġ1988":13667,"Ġseleccionat":13668,"Ġentrenadors":13669,"Ġcomportaments":13670,"Ġmoderns":13671,"Ġacostumats":13672,"Ġblanques":13673,"Ġadoptar":13674,"Ġsingulars":13675,"Ġencarregats":13676,"Ġreflecteix":13677,"ĠVeter":13678,"ĠTecnologia":13679,"ĠElectrÃ²n":13680,"Ġseleccionats":13681,"Ġindisc":13682,"Ġexcursions":13683,"Ġemprenedors":13684,"ĠCircuit":13685,"Ġoperatiu":13686,"Ġdistingir":13687,"Ġdesigualtat":13688,"ĠEDICIONS":13689,"Ġconfidencialitat":13690,"ĠCientÃŃfic":13691,"rugell":13692,"Tots":13693,"Ur":13694,"dan":13695,"tata":13696,"alisme":13697,"ĠterapÃ¨u":13698,"Ġfites":13699,"ĠEdi":13700,"ĠEdicions":13701,"ectÃł":13702,"Ġbor":13703,"dicional":13704,"Ġpareix":13705,"advocat":13706,"ĠTrÃł":13707,"Ġrenta":13708,"Ġrend":13709,"rÃłria":13710,"ĠCamin":13711,"ĠCaÃ±":13712,"descat":13713,"âĢĿ)":13714,"ĠHas":13715,"Ġmanc":13716,"Ġinterloc":13717,"Ġcreen":13718,"Ãłniques":13719,"ĠMartorell":13720,"Ġsabent":13721,"idament":13722,"ĠCastells":13723,"ĠcrianÃ§a":13724,"Ġguanyen":13725,"Ġllegeix":13726,"Ġaparegut":13727,"Ġaparcament":13728,"Ġtractades":13729,"afrugell":13730,"ĠRector":13731,"Ġcompanyes":13732,"Ġpreparada":13733,"Ġtrencament":13734,"Ġfires":13735,"Ġtradicionalment":13736,"Ġpositius":13737,"ĠcotÃ³":13738,"Ġremarcar":13739,"Ġaugmen":13740,"titzat":13741,"Ġ1980":13742,"Ġ1984":13743,"ĠcivilitzaciÃ³":13744,"ĠfÃŃsics":13745,"sionistes":13746,"ĠPremiÃł":13747,"ĠSaint":13748,"omplir":13749,"Ġpactar":13750,"Ġsecretaria":13751,"Ġpretenen":13752,"ĠTurquia":13753,"ĠTipus":13754,"ĠSaragossa":13755,"ĠgrÃłfics":13756,"Ġdediquen":13757,"ĠBretanya":13758,"ĠintuÃ¯":13759,"bona":13760,"lÃ²s":13761,"peta":13762,"pirar":13763,"ĠaÃ¯lla":13764,"ĠcÃ¨":13765,"quers":13766,"ĠsÃłpiga":13767,"inversiÃ³":13768,"Ġnul":13769,"ice":13770,"Ã¨iem":13771,"ĠCity":13772,"ĠEvid":13773,"Ġcomenci":13774,"Ġbeguda":13775,"Ġbegudes":13776,"Ġindefin":13777,"uren":13778,"siqui":13779,"ĠDansa":13780,"erapeu":13781,"ilats":13782,"odo":13783,"ĠexistÃ¨ncia":13784,"Ġllur":13785,"Ġllars":13786,"abora":13787,"Ġrum":13788,"Ġvolums":13789,"Ġimped":13790,"Ġterrible":13791,"ĠOpen":13792,"ĠAlc":13793,"lics":13794,"ĠpartÃŃcules":13795,"Ġverdes":13796,"Ġraces":13797,"Ġcridat":13798,"Ġhabita":13799,"Ġreferir":13800,"Ġsigne":13801,"autom":13802,"Ġrodal":13803,"Ġideals":13804,"Ġapartaments":13805,"gonÃ¨s":13806,"Ġdespres":13807,"Ġagradi":13808,"internet":13809,"ĠprÃłctics":13810,"Ġobligar":13811,"Ġinicials":13812,"Ġvulguis":13813,"ĠdemostraciÃ³":13814,"Ġocupat":13815,"aparell":13816,"velliment":13817,"Ġpagaments":13818,"Ġcristianisme":13819,"enÃ§Ãł":13820,"Ġponent":13821,"Ġperceb":13822,"ĠÃŃntegra":13823,"Ġassenyalar":13824,"Ġvideoc":13825,"ĠarqueolÃ²gica":13826,"Ġdigne":13827,"ĠACN":13828,"Ġoscil":13829,"Ġjaciments":13830,"Ġsencera":13831,"raries":13832,"Osona":13833,"ĠarquitectÃ²nic":13834,"Ġpatrocin":13835,"Ġmercaderies":13836,"Ġllibreria":13837,"ĠGreen":13838,"ĠlliÃ§Ã³":13839,"ĠSÃŃndic":13840,"ValÃ¨ncia":13841,"ĠPresidÃ¨ncia":13842,"ĠExcursionista":13843,"ĠHernÃ¡ndez":13844,"ĠBarberÃł":13845,"ĠtragÃ¨dia":13846,"98":13847,"FC":13848,"ItÃłlia":13849,"Jos":13850,"Pa":13851,"RO":13852,"SL":13853,"eina":13854,"pur":13855,"engan":13856,"tificaciÃ³":13857,"inos":13858,"ister":13859,"Ġredueix":13860,"Ġinoblida":13861,"ulls":13862,"oces":13863,"obtenir":13864,"ĠllÃłg":13865,"ĠEscrip":13866,"hauran":13867,"Ġimpulsa":13868,"Ġmata":13869,"Ã¯ts":13870,"Ġcanalla":13871,"Ġassaj":13872,"Estany":13873,"ĠAlba":13874,"ĠIndi":13875,"Ġcoca":13876,"Ġsortia":13877,"ĠsorprÃ¨n":13878,"Ġempord":13879,"Ġtractats":13880,"Ġaman":13881,"Ġsubm":13882,"Ġofert":13883,"Ġpuntuals":13884,"Ġlocalitats":13885,"Ġdisposicions":13886,"ĠclÃł":13887,"Alg":13888,"Ġposarem":13889,"ionista":13890,
[...]
